#version: 0.2 - Trained by `huggingface/tokenizers`
Ġ a
i n
r e
Ġ t
o u
o n
e n
e r
o r
Ġ s
l l
Ġ I
Ġ m
l e
a n
Ġ w
a t
in g
Ġ b
n d
Ġ f
e s
i t
Ġ S
a r
i s
Ġ p
Ġ c
Ġa nd
Ġ y
h e
Ġy ou
Ġ C
Ġ A
a l
Ġt o
a s
i c
Ġ E
e x
. .
Ġ B
o m
Ġ h
e t
e d
Ġ l
Ġ N
Ġ g
Ġ T
a ll
Ġ M
v e
Ġ P
Ġ d
Ġ n
t s
l a
Ġ O
Ġ 1
Ġ o
Ġ H
en t
Ġ F
Ġ L
Ġ &
l y
Ġ R
Ġ in
it h
o t
Ġ G
Ġ W
o w
Ġm e
s c
Ġ D
i on
s t
a m
u t
r i
Ġt he
Ġf or
or ts
0 0
ĠE sc
a c
Ġ re
i m
Ġw ith
i r
u r
i ll
o o
! !
A L
ĠEsc orts
g h
Ġ :
v er
Ġ 2
Ġb e
u n
a y
Ġo f
Ġh a
r o
g e
' m
b le
Ġ 5
c k
u l
Ġ 3
Ġa m
Ġm y
Ġyou r
ar k
en d
Ġ or
t h
Ġ e
Ġt h
e l
Ġ on
Ġ is
u s
e c
d y
gh t
k e
Ġ Y
a i
ex t
: :
an t
ou r
le as
om e
* *
E N
E R
u re
at e
c e
Ġ (
Ġ -
as s
on d
Ġw ill
AL L
i f
ou s
es t
c all
ar t
Ġ 4
oo k
Ġ1 00
im e
ex y
Ġha ve
Ġw h
ĠN O
I N
er s
ic e
Ġ 6
Ġc all
Ġ ex
Ġl o
ir l
i ve
ver y
E S
i l
e ll
Ġa n
is s
Ġa re
ou t
O U
c h
Ġp leas
er i
.. .
t on
s s
ĠN o
er v
Ġb o
Ġs t
a d
e e
u st
4 7
v ai
i ght
Ġ U
e y
Ġ K
in d
b s
Ġt ime
o re
is c
at ion
la y
R E
vai la
p p
m ark
L E
Ġa t
l d
- -
_ _
d e
ent le
O N
Ġ u
vaila ble
a ut
Ġa ll
Ġ r
w e
L Y
A N
ac e
Ġg irl
A T
es s
entle m
Ġ V
en s
is h
I C
u al
re et
ĠC all
t e
Ġc an
ri end
a ge
Ġon ly
Ġ ,
Ġn e
a ke
p ec
Ġf un
Ġs o
it y
i an
Ġ $
u e
Ġ very
ĠM y
p an
Ġs erv
Ġ k
w ay
Ġ J
Ġlo ve
ĠI N
r om
oo d
Ġth at
2 0
ook ing
re d
Ġs exy
ow n
v i
ĠI n
re at
ĠO N
C ALL
Ġc om
.. ..
Ġl i
' s
an d
Ġd o
E D
or t
ĠR e
l o
ĠS t
we et
i g
r a
on e
as t
Ġ *
ic t
he art
ac t
Ġbo dy
Ġex p
p end
ĠR E
it e
8 0
o y
am e
L A
Ġ out
Ġpleas e
Ġ he
eri en
le an
ond on
Ġt ext
Ġ en
Ġ j
ur v
Ġa l
Ġ le
p le
isc reet
IN G
E X
Ġn o
p en
8 7
a dy
q u
entlem en
ĠON LY
Ġa s
ĠY ou
la ck
Ġ6 47
aut if
a ble
autif ul
riend ly
Ġp ro
Ġp lay
L L
ĠL ondon
o l
ass age
on t
O R
ou th
u m
f e
Ġs h
5 0
Ġ .
4 0
o s
I T
I S
erien ce
Ġ 7
6 0
ĠC ALL
Ġ /
f t
3 0
i gh
Ġh our
Ġg u
way s
y s
U T
e w
A R
Ġf rom
Ġre al
Ġ un
EN T
f ul
Ġa vailable
a k
k iss
' t
on g
ĠY OU
8 9
y es
A S
f er
ac k
Ġn ot
t y
0 7
Ġs k
Ġserv ice
ers on
Ġ it
re t
Ġli ke
f or
call s
Ġm ore
en ts
ĠT ext
u ll
!! !
Ġs ex
e ar
a le
j oy
ic k
i al
g et
pend ent
he d
Ġm ake
Ġn ame
E T
i e
a b
ĠA N
1 6
all y
i p
he ck
C K
at is
ec t
s h
p h
i re
a g
Ġ i
is t
atis f
ĠT O
a fe
Ġwh at
Ġs ee
Ġl ooking
re e
Ġc urv
D D
Ġw ant
ind ed
Ġc h
Ġe yes
Ġc ome
Ġwh o
H ey
Ġ3 4
Ġexp erience
es c
l bs
ou nd
v ing
ĠI m
at ur
Ġs ome
ĠP ark
ens ual
o in
Ġbe autiful
a u
H i
o st
c heck
Ġs m
m ent
p e
Ġen joy
i le
Ġf e
u p
EX T
c om
Ġ3 6
pec ial
ĠO ut
ot ic
ic s
2 6
ri v
c t
ĠM E
in e
r y
ic es
Ġs weet
ell o
ĠE x
us hed
re ss
ĠO UT
U S
1 0
Ġw e
it ing
Ġha ir
ai l
leas e
l ass
Ġu p
Ġf riendly
Ġh ot
Ġo ld
us h
ĠRE AL
O T
O M
i es
Ġp erson
__ __
d d
la x
atur al
Ġb l
lo ck
a re
Ġ2 4
re en
ure s
w ith
Ġcall s
Ġ 9
3 4
et ish
U R
Ġcom pan
Ġ **
Ġg et
ĠT h
ĠRe al
ĠO n
Ġat t
Ġ v
o ll
ĠB e
n g
u b
Ġ4 0
o ot
a z
ĠS exy
f ace
ĠA s
ar ant
V E
Ġo pen
Ġn ow
Ġ 07
ĠI nd
I R
i a
art y
Ġw a
H ello
Ġg entlemen
Ġ !
oin t
ess ion
1 3
Ġj ust
ĠS outh
ri ght
or th
x x
-- --
Ġb r
Ġm assage
Ġd iscreet
s e
1 5
1 00
ĠT EXT
ĠC h
Ġa r
ĠR o
$ $
Ġg ood
ĠT H
Ġme et
Ġd ay
or n
CALL S
Ġm in
pec t
at es
ĠI f
ĠA vailable
at ed
Ġb lack
k y
v en
Ġf ace
ĠW e
a p
Ġof fer
I M
Ġp er
3 6
f ect
Ġb ut
2 5
Ġd es
Ġne ed
3 8
Ġc lean
EN D
Ġhe re
ĠAN D
Ġre lax
al ity
Ġal ways
h r
a ve
ing s
ĠW est
Ġs atisf
riv ate
ict ures
ul t
s o
Ġsk in
m in
Ġa pp
ĠP lease
Ġpro vi
Ġm an
A Y
Ġre ady
Ġy ear
lock ed
Ġs ensual
ĠA l
O O
ĠC ome
ĠH e
F E
2 4
at ure
e pendent
R I
re n
h am
Ġan y
Ġ im
h er
Ġp h
ar d
I ON
ĠL o
Ġk n
az ing
Ġ5 87
ar m
Ġ esc
Ġ3 0
ĠB B
Ġl ong
3 7
es e
Ġw om
B LE
Ġg o
? ?
Ġb est
ed u
eri ous
ust y
er y
ĠC lean
' ll
Ġt r
D E
P E
in a
t er
Ġg reat
0 5
ĠW h
ĠS ER
as y
ĠS o
1 9
Ġth is
1 4
ĠA ll
Ġg ive
ĠE ast
Ġe very
Ġ if
O W
I G
x o
ĠM e
Ġon e
i z
p t
Ġf ull
b er
ĠL et
aut y
Ġgu ys
d ay
Ġserv ices
ĠA n
Ġfe el
A I
3 5
l ow
ret ty
Ġp ics
ond e
ing ton
ĠG u
ĠT he
1 7
sc ale
ĠA m
Ġsh ow
Ġne w
ĠG entlemen
u d
Ġb ack
ĠInd ependent
entlem an
ou ld
ĠOn ly
ĠG irl
m ail
9 9
i x
Ġm en
r am
ĠD iscreet
ĠT o
ĠIn call
ĠC an
ĠH ill
Ġpleas ure
ĠS E
e ed
** **
Ġkn ow
A M
au ght
i ous
r ow
Ġf ree
Ġf ant
Ġm inded
Ġw or
ĠP IC
Ġre s
ĠS weet
Ġ right
Ġd on
ĠY our
b out
ĠS erv
Ġ 8
ES T
6 9
for d
Ġdes ire
b ut
it t
Ġp la
E L
Ġs pecial
ĠE X
th er
o dy
Ġin t
ĠN orth
Ġb ab
Ġn atural
ut e
r act
w w
ĠB L
ĠB lack
6 47
aught y
ĠG reen
ass ion
E W
Ġyear s
p s
ĠF or
Ġ Q
Ġperson ality
V ER
2 7
Ġd e
Ġwom an
Ġso ft
T Y
ĠA LL
4 9
ĠA nd
ĠP lay
ĠF OR
Ġb ig
it ed
Ġp ictures
Ġd isc
i d
el f
k ing
ĠS h
ĠM assage
ur y
ĠAs ian
ĠO pen
at er
C E
LE AS
Ġc lass
PE C
Ġw ell
c ation
i b
1 8
Ġs p
= =
Ġ6 0
but ton
ion s
ĠM Y
Ġ2 89
m e
Ġal so
il d
Ġ ro
O CK
Ġgu arant
s m
ĠRo ad
w n
ĠCALL S
Ġper fect
re am
Ġt ake
or ge
Ġ %
Ġprovi de
Ġn ice
7 7
ĠS W
ill s
Ġcurv es
Ġa bout
Ġb y
Ġ us
ro ss
an c
Ġo ver
ĠB r
et ite
act ion
Ġ our
ar row
!! !!
ĠH ot
Ġ ext
b on
ĠB E
r al
Ġatt ract
ĠO R
V AI
Ġhour s
ĠV ery
ĠNO W
orge ous
IG H
4 5
u ck
ĠU p
f ession
le y
ĠF un
Ġbo ot
2 9
ĠAl ways
r ushed
a in
ic h
h h
2 3
Ġyou ng
Ġcompan ion
Ġin de
N O
Ġ1 20
ĠF riendly
U N
V IC
ram a
Ġcurv y
s elf
et h
Ġboot y
a pp
Ġ ~
Ġesc ort
ĠP LEAS
Ġb locked
Ġle t
N o
c l
ĠS afe
Ġ4 16
n er
Ġs afe
u ally
fession al
ĠBB W
i de
O S
r s
VAI LA
v es
edu ct
ĠU n
c ome
I AL
ĠSER VIC
US H
Ġl ook
sh ip
Ġp rivate
o b
is e
1 1
G E
Ġle ave
Ġinde pendent
le s
el s
it s
t t
Ġt reat
Ġwa iting
Ġl bs
w o
Ġp re
Ġbe auty
at ing
an ce
ph one
ar ge
OU S
Ġa d
iz e
M y
Ġn ight
Ġ1 0
s p
il ing
ar y
AT E
u g
ĠW ith
ĠB ody
ont act
Ġ ;
re st
VAILA BLE
ĠH igh
ou ch
n ing
ĠSt reet
3 3
if e
assion ate
Ġh igh
pect ful
Ġsex ual
U L
PEC IAL
Ġbr own
b ury
for get
ic y
ĠF etish
8 5
Ġn um
ĠNO T
get her
o ck
ĠS T
I LL
a v
ĠBL OCK
d ro
LA Y
IGH T
ou n
al k
Ġam azing
ĠOut call
Ġ ...
Ġattract ive
t able
IR L
P END
Ġr ush
c ated
dro ple
1 2
Ġa ss
AN T
Ġcompan y
D Y
Ġ ..
ĠN ew
ĠTH E
us s
Ġ1 30
Ġ @
bon y
vi ew
ĠS EX
Ġsm ile
ri es
an k
ĠP ro
Ġ 80
forget table
en e
d on
a pan
ĠH am
Ġm ature
Ġb usty
6 6
educt ive
Ġbl onde
ĠEx p
Ġn aughty
> >
OU T
up er
Ġto gether
Ġl ady
ĠG IRL
Ġk iss
ĠA VAILABLE
ar ts
d ge
ot t
Ġp retty
an n
ur n
u icy
o p
DE PEND
ĠG ENT
ĠA S
o d
ĠServ ice
h ib
s we
qu i
2 2
7 0
as e
Ġb re
ER S
Ġt e
3 9
ot os
and s
Ġg entleman
I L
an e
Ġb ook
Ġf re
Ġ3 8
l i
a ir
el come
ĠI t
Ġ +
ĠA M
ren ch
d en
Ġd own
Ġw ould
sm iling
x t
8 8
ĠBe autiful
l im
u de
ĠS PECIAL
Ġha pp
Ġc on
ĠL O
th ing
o c
b e
ĠOUT CALLS
Ġv is
Ġgirl s
ĠO F
ĠB l
ult i
st ar
itt le
e al
oot h
C T
Ġ: )
l ing
Ġm ost
ĠC urv
he arts
ĠP LAY
n ight
i ed
ĠBLOCK ED
DEPEND ENT
Ġth en
S A
ĠIN CALL
ĠS erious
LA CK
Ġsex ually
b l
ĠH our
Ġ #
ĠOUT CALL
7 9
f riend
Ġne ver
Ġp arty
ĠPLEAS E
ac h
Ġli ps
Ġd ream
u ch
Ġsk ills
Ġ !!
ĠB LACK
Ġ2 2
Ġthe re
Ġ2 0
ĠK ens
ĠD IS
ent ral
Ġl ife
swe at
drople ts
ĠS pecial
te rest
g i
ĠYOU R
l s
ĠS k
ri dge
C RE
Ġto wn
Ġ3 5
l ic
e p
IM E
ar s
Ġ2 1
ĠPIC S
Ġh ow
Ġ er
OM E
he re
i ble
p m
ĠB O
Ġ2 00
Ġ q
p ro
p er
Ġ5 0
2 8
ĠV ER
r ict
Ġ2 26
1 20
m ation
ot h
____ ____
ĠD O
ĠS A
Ġg ents
ĠM EN
Ġf etish
Ġr ates
Ġ; )
ont o
ĠG reat
Ġg en
t ime
Ġ 0
ow er
5 5
ou ple
ĠSEX Y
A K
ĠP arty
ĠU N
c es
et te
Ġt on
ĠH A
ak ing
Ġer otic
ĠW E
er t
sp ark
Ġout call
ES S
i am
Ġl ittle
Ġw ild
Ġ xo
Ġm ind
Ġs e
Ġa c
Ġs pend
ĠIN DEPENDENT
ĠR USH
/ /
Ġr ushed
Ġpla ce
Ġhapp y
Ġin terest
Ġun forgettable
ĠW ood
7 5
in k
al f
oint ment
or onto
re te
a w
ic an
Ġ ke
Ġt ouch
4 8
at ch
Ġpro fessional
Ġ X
ĠVER Y
5 87
ĠE n
ĠOut calls
ĠUp scale
Ġas k
hib ited
apan ese
Ġs ession
ra ve
---- ----
an g
ir st
LE AN
Ġs ure
ay s
low ing
om eth
Ġto o
' ve
~ ~
Ġc ar
OU R
T H
ĠP ics
ometh ing
Ġm om
ĠN atural
Ġp assionate
Ġp etite
ĠS atisf
Ġe ven
ĠCall s
ĠW ill
ĠD on
Ġbab y
' re
ĠC entral
as ies
ĠC om
P ER
Ġsatisf y
ey es
Ġtr ue
ou gh
ĠL at
un ette
9 0
il ky
ual ity
ĠB ar
I OUS
ĠSA FE
pro hibited
Ġw ww
o pe
ĠN EW
le phone
ĠP R
ĠA RE
orn y
Ġg orgeous
C all
Ġto day
us e
Ġ )
Ġb b
n ey
ĠT ime
ĠGu arant
on ey
ous e
en ham
ĠI S
iam ond
ĠSERVIC E
om in
B S
m ents
Ġha ving
ĠB EST
c ent
ag es
te lephone
.... ....
IT H
t wo
in ner
ĠL ooking
Ġst ress
as te
U M
im ate
c ed
ee k
3 2
ee p
Ġplay ful
Ġ1 5
Ġ3 2
Ġlo cation
ĠM an
p lay
am es
Ġm uch
ĠKens ington
ĠLo ve
7 8
I P
re me
Ġclass y
g o
in ess
ra z
ĠS he
Ġwh en
Ġnum ber
ĠS m
p ort
y gi
2 00
6 5
Ġp r
O RE
Ġex c
Ġ2 3
ĠB est
Ġt ight
ĠDIS CRE
c la
ĠW H
ĠC ar
n o
qui ries
Q U
OO K
ĠA L
ĠU S
ir c
an ge
ĠC LEAN
$$ $$
Ġup scale
C H
ig ure
ĠT IME
Ġd is
ĠN ow
pan ish
h our
Ġm iss
Ġre st
w ell
Ġ6 13
Ġm ix
qu are
ĠW ITH
Ġh er
Ġre g
ĠH OT
RI END
Ġfant asies
ound s
e ver
rict ions
I VE
at t
as ts
ĠIN CALLS
u it
U RE
P EN
Ġsatisf action
ir ty
bl ue
m inded
ex cla
excla mation
u ous
ĠF UN
6 7
F UL
oot y
ĠExp erience
IN D
u ine
Ġ1 50
Ġ40 3
Ġex otic
Ġs eductive
h and
Ġguarant eed
Ġb ooking
ĠGu ys
Ġph otos
ĠP h
ĠN E
Ġch arm
T A
Ġyour self
ce pt
i ving
I AN
g ue
ĠG U
ĠIn calls
Ġl u
Ġbl ue
4 4
Ġin call
Ġs ize
ĠO ver
ĠR ush
Ġs ens
S exy
Ġc ontact
ut es
IT E
Ġa way
Ġout calls
ĠEsc ort
Ġw elcome
IS H
ic al
AY S
igh ts
T ext
RE E
ĠP AR
Ġwor k
ton gue
Ġw on
Ġsm ooth
ĠF ull
Ġp l
ĠD u
Ġguarant ee
Ġe ar
Ġ vi
ĠF in
reme ly
o ld
ĠP rivate
Ġneed s
nd er
ĠW ILL
it ude
st one
Ġs omething
ĠWh at
ĠA c
Ġe asy
c a
LE M
ĠSo ft
ĠF ace
w ard
Ġw ay
O ut
** *
Ġp ark
Ġ1 10
Ġa g
Ġp rom
Ġof f
e ad
d iamond
ul f
ĠS ensual
Ġ** *
ĠD o
ĠD oll
g ate
ĠC H
Ġa dd
ygi ene
Ġg reen
ft er
ĠAm azing
Ġapp ointment
ĠC lass
Ġso on
w ood
ouple s
2 89
Ġa ge
ĠRe ady
go ing
I n
n e
Ġt rave
ĠD U
Ġke ep
Ġm ass
le ss
ĠB A
ĠB usty
ĠJ ust
Ġgirl friend
our t
ĠA re
t own
ĠC ross
Ġre view
Ġ ur
ĠS p
ĠD D
Ġprovi d
Ġvis it
ĠB locked
I ES
f ort
AT ION
ĠCurv y
l arge
ip s
ĠB ooty
Ġre l
Ġfant asy
Ġres pectful
Ġlo ves
Ġbab e
Ġhot el
ĠO f
b ridge
xx xx
i v
Ġd rama
A P
Ġgo ing
ĠGENT LEM
Ġinterest ed
Ġ2 5
st ead
as h
Ġh ost
Ġm outh
Ġs erious
ver s
b ack
2 1
US T
ĠG ood
ĠS H
m ale
Ġh orny
ĠP erson
ĠLO VE
6 8
Ġ [
Ġbe en
Ġh h
Ġb us
Ġp o
an s
un ning
ur ing
Ġw eek
Ġb oth
Ġo ther
ĠT oronto
ĠF rench
ĠLo cation
Ġf ind
v ent
ĠB ig
os e
9 5
Ġ1 40
g s
, ,
uss y
ĠT own
Ġd el
Ġ ?
app oint
ret ion
Ġ qu
ce ll
Ġb et
Ġpla ces
ig n
Ġt ry
d s
Ġpre fer
Ġ7 05
Ġrelax ing
ĠI s
Ġr ound
ation s
ĠDISCRE ET
ĠF RIEND
ĠO PEN
ĠS O
ĠD rama
p ly
ĠG ents
ĠR es
ren t
Ġf igure
Ġe mail
Ġcom ple
Ġf ulf
Ġj uicy
at h
T UR
Ġ !!!
cell ent
c y
up t
Ġth an
b ly
ĠR ates
I EN
I E
) .
ĠO r
oo bs
Ġin cl
ur ther
ĠEx otic
i k
oy s
Ġq uality
g mail
Ġre cent
lic it
ĠL ong
ĠG FE
Ġar t
ĠC la
IC T
ĠH i
ĠSatisf action
on s
od el
n y
RI V
eri e
Ġbre asts
oc ol
b lowing
ĠS panish
Ġ ent
V I
Ġmin s
ĠG entleman
Ġfor get
ĠH air
Ġs ilky
ĠP retty
: //
ĠP ictures
ec ret
Ġk ind
ĠS ex
Ġprom ise
Ġs w
Ġf l
ol upt
d u
er ve
ĠFRIEND LY
ocol ate
ĠH ave
Ġc ute
S t
Ġexp erien
Ġs lim
Ġs he
Ġph one
f ore
Y S
c ess
Ġext ra
Ġs ub
bs ol
ĠL ane
TUR ES
ĠHA VE
or ry
ĠQ ue
ĠF R
Ġw arm
Ġh r
AS T
y le
p ton
Ġfre sh
ĠP H
ĠM ature
ĠLat ina
ĠA r
ill ed
4 6
ĠSER IOUS
ob ile
Ġun rushed
ĠBl onde
a ven
VER Y
D AY
ann a
ĠH OUR
u nd
Ġrelax ed
ĠE bony
min s
Ġwa it
l ish
s uit
Ġc ater
Ġf in
he ll
Ġpleas ing
Ġdesire s
bsol ute
I m
Ġ4 5
Ġday s
Ġton ight
ĠS P
m ate
Ġgen uine
ĠW ell
ĠPIC TURES
Ġf riend
P S
ON T
ĠL e
ĠCan ad
c ross
Ġdisc rete
Ġe ver
irc le
ĠM ulti
it ion
Ġare a
g r
ou ble
ail s
ing erie
Ġfor ward
Ġf urther
dd ess
IT Y
c ircle
ist ic
ĠL i
_ -
olupt uous
ĠBe auty
an ts
W AYS
m m
Ġu nder
Ġext remely
Ġh alf
Ġd et
AT UR
Ġkiss ing
Ġs uper
Ġwith out
spark les
p oint
ĠClass y
p art
Ġb ub
Ġcom fort
Ġ ....
.. ...
ĠK iss
Ġt all
Ġsatisf ied
ĠH arrow
ict or
ro se
Ġa fter
ĠP er
Ġ1 25
AT ES
E ET
ĠGuarant eed
Ġtrave l
Ġcom ing
c i
ĠS K
raz il
Ġint o
ore an
Ġe bony
Ġdis appoint
OW N
Ġatt itude
O L
ro om
Ġdream s
Ġle gs
ĠN ice
Ġro om
Ġin quiries
ĠM en
ton e
ER E
Ġcharm ing
im ul
Ġ1 60
ĠServ ices
Ġbus iness
ĠF ree
Ġcompanion ship
ct ion
ĠF REE
Ġdisc retion
ĠT R
in ky
w ich
Ġsome one
A UT
A D
ictor ia
E E
Ġdo or
ĠE very
Ġshow er
Ġbr unette
ĠF re
b ian
**** ****
f o
Ġman y
at ford
ĠN W
Ġear th
ĠFin ch
Ġre ally
ĠY es
Ġth ick
Ġt alk
al ing
al ian
Ġc are
ud ent
Ġp e
ra in
Ġst imul
Ġpo ss
Ġf ew
Ġre qu
m ond
Ġc o
p r
g y
Ġth ings
U G
Ġesc orts
I A
ĠAL WAYS
C ome
ĠAc ton
Ġhe l
Ġevery thing
ell ig
ĠGENTLEM EN
ind ex
ĠBO DY
Ġwa ist
le t
ĠAs k
Ġp ounds
Ġmin utes
Ġs end
Ġbo ys
ATUR AL
Ġ4 20
ar ing
Ġar ound
ĠAn y
P P
ĠF A
Ġa part
ON D
q ue
Ġf irst
Ġbe fore
g ot
Ġsh ort
Ġh tt
ĠO ur
RE AT
Ġt al
point ing
Ġp ri
f its
ĠN ever
c as
pp er
Ġhel p
al th
ĠC AN
w ick
omin ation
== ==
Ġar ous
ĠE yes
9 8
u is
ar a
Ġmom ent
QU IR
Ġmeet ing
ĠR ec
er ous
ĠFinch ley
Ġh ands
5 7
Ġ- -
RIV ATE
m or
Ġb oobs
) ,
Ġm ust
Ġh as
back hand
IND ED
o ple
6 4
Ġ3 00
Ġit s
Ġn ext
Ġ4 37
H R
ĠJ apanese
Ġf it
got i
at hr
Ġrest rictions
Ġn on
Ġin d
Ġxo xo
ET ISH
Ġ4 38
ir m
ĠD isc
Ġfulf ill
t ext
ĠSW EET
F OR
ĠSERVIC ES
athr ow
ĠS uper
P T
f ull
w er
m on
ict ive
Ġd u
ĠN ATURAL
Ġd ress
ĠB ab
ĠUS D
n a
ĠEx t
ĠE N
ĠSk in
ĠDoll ars
en ce
Ġ5 14
Ġc he
Ġexc iting
ĠF U
Ġare as
oll ow
ph istic
Ġt y
Ġbe ing
?? ??
Ġm ar
ph am
ĠE ar
sc ious
Ġl ive
S T
Ġc ur
pp ing
C ENT
AS SA
m outh
Ġapart ment
f f
Ġh ome
Ġp art
t ing
ĠCla pham
Ġc li
ĠV ictoria
Ġ et
ĠT r
re s
ĠG orgeous
im es
ellig ent
n ights
Ġincl ud
ĠT reat
IS S
ĠYou ng
ĠPAR TY
3 1
st on
ack age
a pe
ĠA dd
Ġ ult
Ġsh y
A DY
U E
le g
ĠD e
Ġdet ails
ai d
m y
ent ion
oo l
Ġeven ing
A Z
IC E
vi d
T EXT
bs ite
ĠP etite
ent ed
1 80
w here
in ese
ĠBr own
I f
p stead
Ġbet ter
ic a
Ġg ot
edu cated
Ġ |
Ġd ont
i el
Ġp am
ĠSh ower
ĠC UR
ĠF e
Ġcomfort able
ĠO ak
# #
i red
Ġd ark
Ġp ussy
st er
ĠC ourt
ed i
Y ou
Ġlo ts
ĠBE AUT
_- _-
Ġbb w
PER IEN
Ġoffer ing
ri e
Ġf r
Ġsm all
Ġwith in
an a
1 50
it ies
AK E
ĠP r
f ire
l b
1 60
ĠGIRL S
it ch
ĠS quare
Ġ end
ag er
ĠPerson ality
Ġperson al
razil ian
R AM
ĠJ uicy
ĠIN QUIR
Ġcomple te
bsolute ly
Ġen er
4 2
ĠM ORE
il ity
ION S
ĠEn joy
y rs
P L
Ġult imate
Ġdisappoint ed
ĠTh is
Ġex cellent
ĠE aling
f in
ĠCom pan
oun t
2 26
Ġ educated
ri ed
ĠA T
ĠD own
Ġ9 0
ĠP RIVATE
ĠC ontact
Ġwh ile
o x
ĠT ott
phistic ated
) )
us ive
ĠHe athrow
ĠEX PERIEN
OR T
at ive
vai l
ĠN ot
ĠHam pstead
ĠRes pectful
ri ve
ĠM iss
ĠAN Y
Ġb ed
M E
Ġd esc
m pt
av or
Ġthe m
Ġspecial s
U AL
Ġwh ich
H H
ĠM ix
le x
Ġst and
F ER
Ġ <
ĠS ee
ASSA GE
ĠE d
l ip
AL E
b ers
Ġex pect
Ġp ut
ĠW a
ĠEX T
Ġlove ly
Ġmy self
i que
ĠJ un
c ar
ĠI T
Ġwant ing
Ġs ame
ĠB OOK
Ġm o
Ġg r
ĠE VERY
m obile
Ġin calls
ul ar
5 8
ĠK ing
Ġ07 4
ond er
Ġ2 6
Ġfre ak
Ġres pect
ĠC OME
ĠTh ank
Ġin fo
ra p
ĠRE CENT
ĠGirl s
b r
Ġm ay
Ġst yle
Ġy rs
Ġhtt p
Ġr ate
Ġan s
Ġa im
AR ANT
AN D
ĠF ETISH
ĠPR O
Ġl im
6 1
Ġc oll
Ġ1 1
l ie
ĠN aughty
ĠR ATES
o ice
or k
l and
ĠB re
Ġfeel ing
Ġst unning
ri p
Ġwor ld
ĠRo le
r otic
Ġp ar
ĠTh ick
Ġwom en
ĠHe re
ak es
Ġc ond
ĠK ent
Ġ2 50
Ġ6 9
ge l
cl usive
r as
ĠL I
ĠHe ight
ic ious
u ly
ĠGENT S
Ġt aste
ĠM IN
ĠN on
ĠIt alian
ro p
Ġhigh ly
Ġc up
ĠC am
H E
ab ly
Ġsee k
esc orts
Ġexperien ced
ĠA tt
Ġv oluptuous
in cess
ĠL ey
Ġm ess
Ġh ygiene
ut ual
Ġthe y
Ġ1 15
Ġdes erve
ĠI M
i ally
Ġpe ople
ur ope
ĠPlay ful
ĠDU O
ĠL u
Ġh ard
ĠK orean
Ġad vent
Ġposs ible
R USH
st ate
Ġd eep
M ENT
4 16
Ġd ate
Ġ '
f iel
ĠT ight
Ġout going
ĠW ater
ĠM ASSAGE
ĠOver night
L et
l se
Ġstimul ating
om bs
ON E
ĠA ge
ĠM ar
ĠA DD
Ġt xt
ge m
ĠPH OT
ĠGU ARANT
B B
Ġen c
ĠEXPERIEN CE
ict ure
leg ant
Ġall uring
Ġm aking
Ġfe male
ex ts
ĠLey ton
Ġl ight
ac y
ĠG o
Ġc ert
Ġbub bly
at s
al g
ĠPro fessional
ombs hell
9 7
ĠM ore
F T
6 2
ĠH H
ww w
ĠP leas
ad ies
Ġth ose
Ġd if
W O
Ġst r
Ġ1 80
Ġwe bsite
ĠUn rushed
a f
t il
ot her
ore d
ĠE ng
Ġo wn
ĠCompan ion
Ġg iving
ĠH ey
m iss
AT IS
ĠD ay
b lack
i er
Ġs uck
as ure
s k
Ġst art
Ġcon f
T h
ug g
Ġ2 7
l ington
ĠCUR V
Ġm ulti
Ġw onder
pec ially
alg ary
ĠC AR
Ġexp licit
a h
IN E
. :
en cy
EN S
ATIS F
UM B
N ew
ĠSt r
OT IC
ĠC ity
ĠG ive
Ġdesc ri
ition al
3 00
OR N
qu ire
Ġl ow
ĠG ate
Ġ[ ]
b b
ĠN ight
A ll
ĠRe lax
Ġh ouse
ĠB razilian
Ġ =
Ġans wer
ca use
ad e
c o
ann ed
ar f
Ġex clusive
ich mond
Ġcli ents
Ġs ecret
ĠW ant
ur s
J apanese
Ġf uck
5 9
u k
Ġk ing
ĠR est
Ġl ingerie
DD D
ir t
ĠSt ock
ch er
ĠFU LL
Ġg ames
Ġnum bers
or s
A vailable
Ġknow s
ĠRec ent
Ġpam per
Ġbe cause
ad d
u dd
ir port
Ġm odel
Ġsp o
ĠCh inese
ĠD E
Ġany time
Ġbre ast
ĠH E
Ġrel ation
m s
ĠC o
E ED
au cas
att oo
id ent
Ġm atch
Ġc ap
ĠS M
Ġin v
Ġreview ed
ĠS U
IN A
urope an
Ġrelation ship
aucas ian
Ġ100 0
am a
n ess
e ge
ĠL ow
RUSH ED
ĠS w
-- -
ĠE rotic
ent al
Ġ7 0
ĠPh otos
i ves
ĠTott enham
ĠCanad ian
i et
ĠPer fect
6 3
ĠB ook
ĠC ol
OU N
im ble
A CT
ĠPHOT OS
Ġre d
imble don
Ġapp eal
us ic
fe rent
Ġch ocolate
ĠRE ADY
Ġsession s
S weet
ĠF ant
6 13
1 40
ell a
ph er
ĠT e
ĠS eductive
ĠV IP
Ġst udent
Ġag ain
Ġt ell
Ġpark ing
ĠE nd
M inded
Ġty pe
ĠV is
Ġs pe
Ġne goti
an th
spark ling
ĠS e
re ci
.... ..
Ġw aste
Ġexp l
port ant
Ġgen erous
4 3
ĠSH OW
Ġre ply
ĠSPECIAL S
uis lip
Ġarous ing
ĠMEN U
Ġc ity
Ġ xx
Ġto t
ĠL ook
ĠDu o
ĠEng lish
ĠH ello
C OME
m edi
ĠQ u
4 37
ear s
ĠWH AT
ĠB US
Ġlu x
Ġw ants
Ġe ach
: -
ĠM ake
min ster
Ġgo ddess
ĠDu os
R eal
Ġun til
m ble
PS C
i ers
ĠAl so
40 3
Ġbut t
n ers
Ġbo red
ĠP ut
y ou
full y
ĠM inded
ĠB IG
ol ite
Ġth ank
il ton
Ġold er
g g
g a
Ġst ation
ĠS ATISF
ĠB R
ug s
Ġnot ice
ĠFA CE
om an
r ange
am el
ĠAS K
ĠA pp
Ġfetish es
et s
in king
I FUL
ĠCurv es
PSC ALE
ĠR ushed
ĠSpecial s
re al
ĠC ouples
Ġf irm
) -
ĠR uislip
ure d
ĠO ral
ĠJun ction
: )
Ġw ast
ĠSE E
Ġany thing
ĠAS IAN
Ġte mpt
ĠFR OM
OT Y
Ġm usic
Ġto p
Ġ1 35
ĠN UMB
s exy
ĠM on
Ġt wo
s afe
Ġs c
es pecially
ĠM in
ĠP la
ĠNE VER
a x
Ġh um
und red
Ġt ill
Ġd r
ĠD AY
p l
ĠW imbledon
reat h
Ġapp reci
ĠM al
Ġde fin
ĠB ush
ĠO VER
g irl
w ind
Ġs ide
ĠO WO
Ġf ound
ĠL OW
o le
9 4
N EW
mble y
i ver
ĠE l
E x
T ER
Ġd ates
ul ge
Ġt its
Ġro le
I nd
ĠP ER
Ġw ish
Ġreview s
ĠPro vid
ĠINQUIR IES
Ġm ag
an y
T E
Ġ2 8
IC K
ĠShe pher
oy al
RAM A
Ġ07 5
Ġint elligent
Ġh and
ĠFre sh
ĠAM AZ
ĠB ark
-------- --------
Ġy et
Ġde al
7 3
Ġp ic
ĠHour s
ĠP ost
Ġso phisticated
ĠR EST
Ġmix ed
f fect
Ġf rench
Ġ9 05
Ġl ate
ĠBO OTY
Ġch arge
Ġp ackage
ĠQue ens
i o
ast er
ĠD ON
Ġm utual
Ġplay mate
R A
VI EW
P lease
Ġl adies
Ġbr ing
m p
Ġtr uly
OS T
ĠG ard
ĠRe g
ore st
ĠE uropean
7 4
h ot
att ers
ĠH ygiene
Ġwonder ful
Ġs ur
it ty
Ġlo cated
ĠB rom
OND ON
A n
8 1
Ġs u
Ġover night
ur u
Ġreg ret
Ġdif ferent
ĠB ut
Ġreal ity
Ġ5 4
Ġ >>
Ġwill ing
orn ing
s quare
Ġcall ers
ĠDU OS
ĠC he
Ġhe ad
Ġlu scious
ĠC OM
Ġb ene
alth am
ĠR ES
ĠC oll
________ ________
Ġ5 5
l ight
ĠGuarant ee
ĠC ro
ĠP re
ĠSk ills
Ġk inky
ĠBEAUT IFUL
ra ving
K E
l t
Ġre ce
ĠHot el
Ġgu y
Ġt urn
y don
w are
as ing
Ġac cept
" "
m an
ĠG en
ĠBar n
w h
ust on
ĠR oyal
Ġ ri
Ġha d
Ġe ager
ĠF rom
oin ts
if ied
- )
os it
itt ing
w orth
7 05
Ġt exts
Ġhigh est
Ġcap t
: $
8 6
Ġd irty
r ic
Ġdown town
ĠG old
Ġqu ick
ĠA ss
Ġtr ad
ĠOn e
ast ic
Ġper ky
or ough
il i
ĠE uston
9 3
V ery
bian ce
ĠRE VIEW
is ts
o or
Ġ !!!!
b y
i est
Ġe y
Ġme mor
ĠFetish es
Ġcom p
Ġe legant
ffect ion
O IN
am b
Ġ5 19
Ġc ouples
Ġp assion
ĠN IGHT
h undred
est er
Ġp icture
ĠBUS TY
Ġ x
ĠGreat er
p oints
ĠBab y
ĠD RAMA
R ICT
ĠG REAT
ĠBr unette
ĠO ri
X T
ĠF orest
ĠADD ICT
ĠC algary
ama ican
ĠW A
Ġvis iting
ing le
ĠS lim
ĠC r
ĠW ANT
lo ve
ĠAn gel
Ġton ed
Ġne ar
m ber
oun ter
ĠWe mbley
ans fer
Ġdescri be
S S
th y
ec h
8 4
s ign
en n
ĠP assionate
ĠPost er
Ġbe low
ĠU PSCALE
Ġl ondon
ite ly
ĠNO N
m b
Ġst ay
g ware
d ouble
com m
Ġb all
Ġa vail
Ġs l
Ġst eal
W N
ĠL OOK
ĠIn t
Ġl aw
ace ous
ĠL ONDON
Ġmass ages
ĠO ld
Ġte ase
Ġrequ est
ĠD ont
Ġc ould
Ġcoll ect
n t
Ġl ot
m ers
ri b
ĠBA B
Ġatt ention
anc ing
re ce
el com
a ving
L S
Ġh ope
OO D
ĠDisc rete
Ġpleas ed
ĠGUARANT EED
vers ation
ĠT oys
2 50
Ġw here
Ġmass e
ĠE mail
as m
o ke
ĠSm ooth
ĠS ENS
ĠMulti ple
ĠGU YS
4 00
Ġ4 00
Ġs im
TH ING
Ġam biance
ol ving
e red
Ġmeet ings
ĠA R
X X
ĠR ichmond
ĠM UST
o k
Ġor al
ĠX o
add ington
Ġst ar
ĠInd ian
Ġst reet
rib bon
miss ive
ĠEd gware
Ġexpl ore
B e
Ġlim ited
ĠRe view
ĠM INDED
ĠOF FER
ĠA d
Ġ1 2
ĠN eed
ist ress
4 38
ĠS te
ĠH ouse
out call
ĠP ERS
ugg est
ong ue
Ġdu o
ĠS orry
ĠW or
A l
ĠLi ke
5 6
Ġe ase
ollow ay
' d
ĠAdd ictive
ĠRest rictions
Ġ** **
Ġwh ite
5 4
ĠHe els
Ġ& &
Ġsp ent
ert ain
S O
1 30
PEC T
ver se
Ġth r
ĠL ips
Ġa bsolutely
m oney
ĠAMAZ ING
au ga
in ce
D ER
Ġpro per
Ġtrad itional
Ġd z
ĠMan or
Ġl at
ill e
b ody
F etish
or d
ill er
end er
ĠD es
Ġhe els
ĠN ame
Ġfe et
OUT CALLS
ĠBar b
Ġp ls
Ġw ont
Ġhe ar
Ġb ust
gr ound
Ġtempt ing
j ect
Ġt anned
b urn
Ġsens e
xxxx xxxx
ag enham
ĠV I
n ow
IS T
ĠDown town
Ġb reath
s ide
Ġto ys
Ġ ign
i ly
W e
Ġb lock
avor ite
es it
Ġenc ounter
RE AL
C lean
s low
ĠR uss
ĠH ERE
iss auga
Ġal one
g lowing
Ġl arge
Ġw anna
Ġget ting
Ġc lo
LA X
ĠR ed
Ġyour s
Ġener gy
ĠC ON
ĠB ridge
Ġw alk
ĠEX PL
D S
Ġrelationship s
L ooking
Ġint imate
Ġbed room
il burn
t r
Ġres p
ĠREST RICT
) :
ĠP RE
Out call
Ġsh ould
ec ut
ĠD ONT
Ġdefin itely
Ġday time
ĠW elcome
oun slow
Ġp olite
Ġcomplete ly
ĠTO DAY
app y
Ġa ble
ree k
ĠBl ue
amb eth
ĠM ass
OIN T
ot ect
Ġdo ll
ing don
du cated
medi um
Ġc l
oint ments
Ġappeal ing
Ġd inner
ĠLO C
Ġb ombshell
w ater
b all
ĠQue en
Ġpar am
Ġfin anc
ĠH olloway
Ġbene fits
Ġthe ir
ĠM ay
Ġpleas ant
y ing
ĠPut ney
O X
Ind ependent
ant ic
ACT ION
Ġt imes
Ġclass ical
b ility
Ġcon versation
ĠWh ite
Ġb u
hr s
s bury
8 3
ĠW altham
ĠD ES
T ON
G ET
Ġex ecut
Ġrelax ation
Ġ7 78
ĠSh ow
w inking
C AR
in y
Ġ2 20
ĠU P
ĠL ET
ĠD agenham
Ġdel ight
P arty
ell e
et ers
ĠWe ight
in ation
RE ME
Ġsteal thy
ĠH R
ĠKiss ing
act ly
ĠUn forgettable
ĠWood ford
Ġc raving
Ġparam eters
ott ing
ĠL E
ĠN e
ĠPLEAS URE
ĠPERS ON
on est
p arty
en a
S o
N G
p erson
Ġdo ing
ĠF l
ĠD eep
ĠRo om
oo se
R e
ou ght
ĠA B
riv ed
Ġreg ular
av our
L BS
Ġt ant
60 4
ĠB ack
ĠI F
ĠW EL
ay la
te ase
quire s
n am
Ġs orry
Ġq ue
ĠG et
t ie
ORN Y
ĠCro ydon
ĠM AN
] [
ĠKent on
ĠN otting
Ġall ow
8 00
u ge
Ġpri or
H ot
Ġ60 4
Ġf ac
ĠLI KE
d z
Ġth ink
Ġent ertain
9 6
ĠWh arf
h ing
ĠSK ILL
7 6
ĠRE LAX
o ve
b lo
ĠUN RUSHED
8 2
ĠH ar
ĠS ur
s ey
Ġs ay
m ore
ĠA g
; )
P AR
esit ate
ĠF irst
i ably
Ġa ct
ĠB ro
he ad
Ġw orth
Ġdo es
ĠF it
Ġad v
ĠGreen wich
ĠEar ls
Ġle ts
d oll
ĠL ady
Ġprovid ing
Ġbooking s
ing ap
ur ous
Ġcollect ors
ish ing
ĠT xt
A G
B J
p o
Ġex cept
ĠTO WN
Ġ40 1
F S
is a
ear ch
Ġcapt iv
ĠA t
er ton
2 20
Ġtal ented
ĠStr atford
Ġout ings
Out calls
Ġf oot
ĠC A
Ġ1 05
AT URE
sk in
IT ING
ur ple
ĠK ilburn
ll ip
ĠHam ilton
) (
ĠT urn
ress ing
Ġph ys
ĠP e
at ious
Ġl ust
u ri
st al
m er
Ġs uggest
re verse
llip op
~~ ~~
Ġmar ried
Ġconf ident
Ġr om
Ġnot hing
g reen
ur st
Ġdel icious
es den
r own
au gh
Ġph il
ĠD omination
ĠB ub
ĠA PP
Ġmen u
I F
irt atious
y ers
m ith
Ġs et
ĠLet s
ĠJ UST
sm all
Ġre f
g lass
I RE
ĠMe et
Ġlaw yers
Ġth ing
ash a
Ġlook s
Ġfinanc iers
pan king
Ġexecut ives
Ġlo ving
ĠExt ra
Ġbl ond
O Y
Ġwild est
Ġlux ury
anth rop
Ġphil anthrop
ĠD ream
Ġcert if
Ġwho le
0 3
ry stal
Ġphilanthrop ists
Ġ7 80
ĠPleas ure
ĠS y
lo llipop
ĠF ac
at us
UG H
ss om
Ġ07 9
Ġun wind
ĠM outh
ĠTR UE
im er
ĠH ORNY
Ġm orning
H e
Ġappreci ate
Ġcertif iably
N IGHT
5 2
Ġsub ject
z el
ro ve
ack ney
ĠW he
Ġs it
M INDED
Ġrel ie
Ġthr ough
In call
urv y
5 00
mers mith
ĠGirl friend
Ġcurv aceous
ul ham
ĠFant asy
Ġar range
ĠF ANT
Ġwh y
ld gate
ĠD DD
Ġmom ents
rip tease
n ot
Ġc ont
ĠCanad a
blo ssom
ĠT AL
Ġd rive
5 3
ĠC IM
ĠSO FT
raz y
Ġ ??
Ġsub missive
IL D
ĠJ ess
T he
ĠSENS UAL
c red
Ġ ==
Ġb um
ĠG O
ĠRUSH ED
ĠD is
w a
Ġs ec
IN CALL
ĠP ort
2 40
ram pton
re y
ĠP addington
ĠJ amaican
aw a
Ġb it
ation al
Ġpl z
AT ED
Ġh esitate
ĠM ISS
ĠT ake
ast y
ĠS ize
Ġb ad
e le
vaila bility
G H
ĠA irport
ot o
pend ant
im um
one ly
OUT H
Ġd ec
ĠWill esden
ĠD el
ĠSKILL S
attoo s
v a
ON G
ĠU pper
id ence
ai w
Ġ2 9
ĠS ingap
n al
Y our
ur ch
Ġex actly
e k
UL T
ĠA ldgate
C ar
ĠWE BS
ĠIn quiries
K Y
Ġmess age
Ġcond o
rece iver
Ġh ill
w oman
ĠWest minster
F ull
OUT CALL
Ġp riv
/ $
ĠTh en
Ġw est
ĠL ambeth
Ġtext ing
re v
ĠPh one
ĠF E
ĠEX OTIC
L D
ĠWEL COME
ĠJ apan
O pen
Ġche ap
ĠAll ow
lse a
ĠGo ddess
Ġm oney
ang u
Ġbe h
ĠC l
ĠV IS
ĠWa iting
__ _
Ġl ine
ug ar
Ġ- --
Ġgo al
S afe
an dy
ĠP l
Ġd omination
Ġch ance
rev olving
l oo
Ġus ed
os p
ĠLOC ATION
( (
ĠG ET
D iscreet
in es
asure ments
! :
ĠJ U
ĠCH E
Ġst ock
fiel d
Ġl ist
Ġsatisfy ing
ĠB ri
IC IT
ĠN uru
v ille
ĠPRO VI
f r
ĠF ulham
ĠC O
ĠCURV Y
Ġim p
asm ine
Ġte asing
Ġhe aven
il ip
A UGH
ĠBark ing
ays water
ĠSU PER
il f
ĠSATISF ACTION
ĠVis it
Ġl ast
Ġweek end
ĠON E
Ġp ure
ĠKens al
Ġc udd
ĠB ec
ĠG OOD
igh s
ĠMal ays
CE PT
49 1
U n
Ġw elcom
let ic
aiw an
ES E
doll ar
Ġc heck
Ġany where
ĠMass ages
9 1
ĠBar rie
ĠT XT
Ġs ingle
ĠH a
ĠST AR
ĠProvid er
i ent
it al
st ow
at ter
th ers
A re
C OM
AT S
irc us
p urple
Ġag ency
Ġsk illed
Ġspe ak
S W
ĠP ic
ĠE S
Ġvi de
4 11
Ġf ake
- $
ĠA bout
get ic
ve l
Ġj ob
TA BLE
OUN D
oot ing
ĠH ounslow
6 00
ĠOpen Minded
Ġch oice
ĠG EN
n s
49 5
c hed
W h
Ġc um
ĠADDICT IVE
ĠB ooking
Ġfl at
Ġcom m
ac ious
ĠMix ed
ar ning
Ġmasse use
ĠT aiwan
Ġc razy
l ite
ĠAr ch
LA SS
or ous
c at
Ġfreak y
ĠT al
A BLE
$$$$ $$$$
ĠH ackney
ĠM ary
ĠN or
1 10
ĠF ri
ĠExp licit
ĠJ o
b j
ĠA sh
S E
Ġha zel
ĠM ill
lex ible
OINT MENT
Ġey ed
ate ver
Ġst atus
le ct
ĠHigh bury
ĠM ag
ĠK ings
ĠEXT REME
Ġo thers
gi ving
A CK
AN K
Ġcom b
ĠWh en
IT S
ĠShepher ds
ĠOver nights
Ġf avorite
ĠC L
ĠSK IN
ond ay
Ġf ing
ad dy
ĠH Y
ĠHam mersmith
Ġprovid er
Ġk iller
Ġprefer red
W H
Ġe ast
Ġs earch
N ight
Ġind ulge
H I
Ġwor king
ĠWEBS ITE
ĠO UR
ĠF uck
th letic
o ver
ur able
???? ??
ĠT alk
ĠL ingerie
ĠM el
ĠChe lsea
Ġb as
t he
on ge
ĠC ond
is ky
r ist
ĠT el
ĠM ATURE
ro at
ĠB ayswater
ĠBrom pton
Ġsens es
G u
le b
Ġo pt
= $
ĠA D
am y
for mation
ĠK ING
77 8
r ound
w ark
Ġlat ina
Ġ >
ĠT u
ĠM odel
Ġmemor able
******** ********
Ġpro f
i dd
ĠG rove
AM E
ED U
ĠN ICE
ĠEXPL ICIT
FE CT
ĠNE ED
Ġen g
Ġh ips
!! !!!
Ġinclud es
ub an
ĠAn al
t o
E ducated
i C
P M
e a
ul g
ĠP ussy
IL F
9 2
Ġh onest
ĠG R
Ġadvent urous
ter n
ar io
ĠYOU NG
Ġmulti ple
Ġc ol
vi de
v al
ĠW ild
ra w
Ġw et
ĠM AKE
S EX
n on
if t
drople t
T xt
as on
Ġ10 8
leb one
ĠT ower
ĠS ara
ĠTh ai
is ion
Ġ5 00
ĠFe el
gg ing
v ed
atur ally
ĠTH AT
c up
5 14
we en
Ġprior ity
ĠAB OUT
Ġp m
0 8
Ġa ffection
ĠPlay mate
**** *
ĠQ uality
an stead
Ġign ored
ĠBr it
ĠB rampton
SA FE
ĠE asy
Ġon ce
Ġp ay
Ġbe lie
Ġadd ict
Ġrece ive
IC Y
Ġto w
Ġclo se
ĠB oys
ĠOri ental
Ġpleas ures
ĠHOUR S
f ree
ĠRESTRICT IONS
4 1
ĠWE LL
AUGH TY
b ox
v ir
l or
Ġdress ed
ĠP L
ĠH IGH
ud bury
ĠC ircus
and ing
me mber
Ġn w
w ix
HE LL
ĠCam den
Ġkiss es
0 9
ĠE C
ĠBA CK
k en
u x
iz ing
ĠFANT AS
ĠS ilky
ĠF r
ott om
ĠTH IS
iet nam
Ġph oto
Ġpr incess
ell as
PECT FUL
G OT
ĠM O
it he
Ġman ner
ĠBab e
Ġmin ute
+ +
M Y
Ġtot ally
or ing
ĠP al
UT E
ĠFre ak
ĠColl ege
isc us
hib iscus
R ESS
ĠT er
Ġde v
Ġfant astic
ĠH orn
Ġcar amel
Ġfriend s
z y
ĠLo cated
Ġsm art
ĠI r
ĠR IGHT
ĠE Y
7 1
ĠW ar
P lay
R Y
Ġj e
ĠG r
n ic
4 20
Ġy es
Ġg entle
ent ive
O P
eri z
ik k
ĠM onday
fiel ds
Ġas ian
p ool
c aucasian
ke y
Ġw atch
Ġup on
Ġ/ /
ĠHe ath
Ġsee king
ro du
ĠN um
v safe
c oll
Ġst op
un ny
ĠEx cellent
Ġun im
ĠY ork
pe ach
w arning
Ġapp ointments
S ER
ĠHOT EL
Ġspend ing
AR Y
min utes
I LE
ĠP rom
O n
if or
ĠW atford
ĠMiss issauga
Ġunim portant
Ġmar ital
ĠHY G
ul ip
Ġsweet heart
t ulip
O K
S h
Ġext ras
ĠB ow
ĠCan ary
anc es
b our
vi a
Ġevery day
s y
cher ry
Ġh rs
Ġsh are
T AL
b an
ĠCompanion ship
Ġdu os
ĠW ILD
av ed
Ġpr ice
ak er
Ġpleas urable
ĠWa ist
Ġadd ictive
Be autiful
V EN
ĠPLAY FUL
T OWN
RE AK
j ob
D u
Ġm atter
ĠT IGHT
==== ====
ĠOf fer
Ġc ouple
in i
Ġsensual ity
ex ual
Ġexperien ces
Ġbet ween
cher ries
Ġ8 00
ver pool
A m
ark ling
ĠD OM
ĠIs lington
Ġbub ble
ĠL AT
Ġpl us
Ġs outh
end on
Ġm on
ĠBarn et
ch urch
Ġch est
uri ous
Ġm istress
Ġus e
it a
E sc
ESS ION
ĠW AST
Ġ ou
ĠH ands
Ġmag ic
m o
rain ed
ands worth
Ġpr ices
ĠC on
Ġl onely
St ar
ĠThe re
ĠEXTREME LY
Ġbelie ve
Ġm es
40 1
ĠD inner
ĠH ost
Ġre ad
Ġe lse
Ġin formation
ĠW anstead
ĠMary lebone
3 15
Ġo c
m en
ĠS udbury
Ġshow ing
den ham
ust om
ĠTr ue
u le
ĠWh it
C L
Ġal ong
C ORT
Ġro ck
ĠPERSON AL
ĠTh at
ĠD omin
qui red
Ġim ag
Ġbl ow
7 80
Ġh uge
ĠHigh ly
ĠS n
ĠS ome
oth ing
Ġ20 4
M IN
ĠH er
ĠR ound
Ġpri de
Ġ z
i ven
## ##
G A
ĠMin s
ĠA C
ĠM oor
az el
t xt
TA CT
i pp
ĠH ope
ĠAtt itude
ĠSy denham
Ġsim ply
ic ured
Ġo il
Ġball ers
ikk i
vir on
Ġ2 40
ĠR O
ĠF S
atters ea
i able
P LEAS
ĠBAB Y
ĠC LASS
N E
Ġt aking
ĠS lo
Ġar rived
ĠNor wood
c al
y ah
Ġinclud ed
ĠWater loo
ĠNUMB ER
Ġhe aring
comm od
ak ed
f un
ĠD OWN
h all
Ġ1 8
ĠNorth wood
Ġs edu
LE Y
ĠE M
s ecret
Ġpre s
U B
ĠTAL K
Ġ6 00
N A
iss ue
let ter
Ġw as
Ġin cred
S outh
OR GE
ĠCALL ERS
ear ance
au x
Ġwast ers
Ġt ongue
ink s
ĠSk illed
om es
ion al
ĠT ooting
T IME
Ġadv ance
Ġimp ress
er n
Ġ4 2
U D
ĠC ute
Ġd ouble
ĠGard ens
Ġs uch
Ġspo il
ĠP ls
Ġn ature
it ter
Ġcomb ination
ĠHYG IEN
ALL Y
ALL ERS
ĠCA F
Ġto es
ORGE OUS
ĠWaltham stow
ĠW OR
ĠEVERY THING
Ġ5 6
T R
: (
G ood
Ġun ique
Ġw ear
Ġa b
ĠCON TACT
ĠKent ish
Ġth ese
Ġatt entive
ĠCh ocolate
ĠSt udent
ĠAsh ley
ĠM ULT
ĠG TA
ĠV ietnam
ic ing
Call s
Ġk itty
ĠSouth gate
is m
viron ment
Ġfing ers
Ġm ade
ĠM ess
Ġrom antic
7 00
Ġp ick
ĠL ew
ur lington
ĠLeyton stone
Ġli k
Ġbre ak
C h
ĠSt an
Ġd ist
Ġ heart
ĠS tone
Ġro ad
Ġass ure
ĠS OME
if f
ON Y
in o
ish am
Ġapp earance
ifor ms
ĠCOM P
ed ish
ĠM ILF
ĠES CORT
il ities
ĠREVIEW ED
ĠThank s
ĠW andsworth
ĠP en
ĠG ames
ĠAS S
mon ton
ĠGen uine
ĠK enn
Ġco ver
Ġet c
aux hall
ĠTo p
ai ght
Ġxx x
AM ES
und ay
ĠB Y
ad way
ale don
Ġme lt
ĠH endon
EE P
ĠS EDU
Al ways
ess a
J OY
ĠLi verpool
iss a
ĠCURV ES
Ġs ite
ĠD ates
Ġhe ight
F O
ĠV er
R ushed
ĠGENTLEM AN
Ġrequ ire
coll ision
en er
ĠUN FOR
ĠP ackage
7 2
ĠO ther
at y
ĠT ouch
IM IT
ĠJ asmine
AS S
Ġ- ??????
s un
ĠA ve
m ing
Ġm id
Ġpro state
w itter
ly mp
RE D
Ġhe alth
ĠJ en
ĠF ilip
Ġfull y
ĠHYGIEN E
Ġre member
Ġp osit
Ġd ick
Ġth er
b ro
iz ed
ĠJess ica
ĠBe ck
at her
Ġexp ressing
ak en
ĠEar th
ĠHe ad
ĠNUMB ERS
ĠNE GOT
Ġp orn
ĠP ol
ĠSouth wark
Ġ** ***
f etish
ĠM OUTH
Ġlust ful
M e
ĠSt ar
al d
ĠL ONG
om bian
Ġ.. ...
c lean
Ġc le
ĠC OU
ĠF REAK
ĠRuss ian
ap el
ĠCom mon
D on
ĠI ts
Ġunder st
ĠBre ast
Ġre quired
0 4
Ġtot al
Ġ3 3
PLEAS E
Ġshow s
ai ly
Ġim portant
ĠD ark
Ġsuggest ive
ĠPr incess
Ġle ss
ech apel
um p
ith er
ĠT E
es ome
Ġtow els
Ġsee ing
ĠA bsolutely
Ġh ook
Ġesc ape
ĠH y
ĠL ap
ass y
ĠAm er
he y
Ġ Z
I V
Ġs elf
Ġinv iting
ĠSt ats
ĠD om
_ (
ĠD r
ark ham
n ect
ĠN AUGHTY
be an
aid a
ĠPH ONE
ĠB er
ĠM I
Ġfl irty
an i
F F
ĠI G
ĠBre asts
Ġre t
ist ow
B ONY
S erious
ĠG AMES
ill y
re sh
er o
m eriz
Ġfl irtatious
ier c
R O
Ġque en
ĠTH ANK
Ġf lexible
OT H
Ġener getic
P ro
ĠK im
ĠXo xo
B ER
ĠOVER NIGHT
ĠPER FECT
ĠSt unning
Ġhot els
fe red
1 25
ban ana
S pecial
Ġcond om
. ,
Esc orts
Ġb ar
ĠEY ES
L bs
D U
ber t
ĠF IR
Ġ: -)
ĠJU ICY
ĠRES PECTFUL
I t
as c
ĠTO P
Ġch ar
ĠS ky
ĠD ress
les den
Ġd ar
ĠLOOK ING
ĠU R
ET ITE
n own
g gy
ĠFri day
x ton
a is
Ġ 89
ĠO K
app le
Ġhot tie
........ ........
F un
Ġac commod
ĠBOOK ING
ĠD ock
Ġprof ile
ast le
ĠInt elligent
ĠPro state
ĠCh aring
ell ing
Ġenjoy able
H our
Ġnegoti able
ĠS omething
Ġ {
Ġf ine
d ing
A s
Ġ4 4
ĠT ant
Ġo k
ĠH alf
hour s
ĠSt ation
ĠC li
ĠS L
bl ood
v o
Ġd addy
ĠSm ile
ĠG ORGEOUS
9 05
ty pe
ub e
i vers
f ri
ber ry
is wick
ĠBri xton
ĠUNFOR GET
ĠSm all
I ED
ul wich
ĠEd monton
Ġg ent
row ing
ĠS am
IS SA
ren ce
ĠK ISS
Ġadvent ure
C A
P H
raw berry
Ġ5 2
ib ly
E K
Ġb ottom
h or
ĠM ust
ch at
ĠBro adway
ĠWA ITING
ad ian
ĠH oll
ĠUN DER
Ġ1 9
ate ly
la ke
r ina
ĠA lex
ĠC aledon
50 5
IP S
I Z
Ġa thletic
b orn
e pendant
Ġc a
ĠTo day
Ġ1 45
Ġ5 7
ĠRelax ing
ĠB eth
B l
Ġ34 3
Ġm akes
Ġac c
Ġsedu ce
Ġm ight
Ġfr isky
ot e
BB W
ĠC uban
ĠStock ings
ĠCh iswick
h i
urn t
ult ry
ĠBrit ish
and a
ĠH appy
Ġshow ered
ĠB ust
un ners
ĠR ay
Ġaccept ed
r ing
f l
v oc
in s
ap chat
ĠSlo ane
ĠP im
ĠB al
Ġy r
w y
ĠSh ort
room ed
ĠS END
F RIEND
av y
ang er
l ine
ĠR om
ON DE
b orough
Ġcall ing
Ġin ch
ĠRE AD
Ġvi a
ĠB attersea
Ġch oose
pp ed
ĠB o
In calls
et t
Ġam az
Ġth ighs
A GE
Ġse en
U INE
fri ars
ĠBlack friars
HELL O
ut h
3 17
ont real
Ġ~ ~
ĠFin sbury
PAR TY
ĠSP A
ĠGard en
20 8
out calls
p i
Ġin quires
Ġint rodu
Ġtreat ed
v il
so ft
ĠST ATS
om en
ĠTO TAL
Ġb are
a j
Ġsex iest
mb ol
ĠYOUR S
IMIT ED
hor se
ag ing
Ġoc cas
Ġfe min
ĠPla ce
ĠCan non
ens e
Ġi de
Ġpro ble
sy mbol
ent er
ston ishing
ĠBeth nal
ĠAPP OINTMENT
y a
al ston
unners bury
ĠGEN UINE
Ġback ground
ON LY
IS E
ĠL ittle
ĠBal ham
ĠF a
Ġaffection ate
Ġopen minded
all ey
ĠPro vide
Ġn ames
ĠVIS IT
Ġdon ation
WH ERE
Ġc entral
DS M
Ġt an
Ġwant ed
ĠCaledon ian
ĠReview ed
Ġre ason
ĠBub bly
T TY
SEX Y
Ġt aken
otect ed
m assage
AR D
ĠJo h
3 23
ts tone
ĠK inky
Ġtant ric
i ag
ĠSt rap
ĠVI DE
ĠIr ish
ou c
ĠRELAX ING
ent y
8 19
Ġe at
ĠV an
' '
Ġn aturally
ĠK at
Ġmin imum
Ġdev ot
at ers
ĠE BONY
G entlemen
O ver
wh ite
re sc
or ation
at ures
ĠLat imer
ĠH orny
ĠTO YS
ed y
ĠBlack horse
ES H
IC A
ĠBer mond
b ig
ĠV auxhall
aut om
ĠBB BJ
ĠSingap ore
orn s
d ec
ĠF AKE
G irl
Ġl augh
ick ed
ĠM aida
ire ct
en ic
autom obile
Ġs low
ĠBEAUT Y
ĠT all
ĠV oluptuous
resc ent
y m
ĠFl irty
N OW
ĠAN AL
car borough
ĠLAT INA
ĠCo vent
G FE
ĠH azel
ĠT ON
Ġe lite
ING ER
Ġj oin
b ar
Ġtal ents
P LAY
$ /
end ed
7 07
ĠE pping
ĠG ent
Ġwh atever
Ġd omin
Ġexc ited
IN K
y y
Y OU
m ost
le ph
ap i
y e
Ġw ood
. *
ĠCall ers
Ġs educt
Ġsm iling
ĠUNFORGET TABLE
ik ini
et y
es ts
Ġd d
a vi
leph ant
IN ATION
ĠNum ber
Ġb right
H igh
o king
Ġh oney
D GE
ENT S
ĠP LA
EN CH
an ie
ĠMoor gate
un ch
ĠHar lesden
Ġan other
ian a
Ġtouch ing
B est
l ooking
l in
c rown
ĠPAR T
P ORT
im ited
F or
rap es
ore a
ĠTEXT S
Ġcaptiv ating
Ġch at
ĠLew isham
ĠS asha
Ġ ver
voc ative
AN CE
2 99
ĠDE AL
ĠT REAT
ĠC astle
rent ly
esc ort
E AR
Ġh is
IN CALLS
h igh
ck ham
n es
Ġa ve
Ġm atters
Ġ( (
Ġ5 8
ĠCr ouch
w esome
ĠE lephant
ĠLu scious
or a
Ġf all
ĠE R
Ġv ar
N ice
77 9
g rapes
Ġh un
ĠPerson al
Ġhum or
ĠU nder
h orns
Ġd one
ĠR ate
ĠR ight
arm ing
ĠWh y
Ġthank s
Ġt attoos
Ġw ays
d own
AI LS
pe red
ĠD ulwich
Ġl if
in ning
ĠAg ency
ĠBA RE
ĠThe y
ĠCH O
g rowing
ĠDe b
ince re
erien ced
ĠEvery thing
F ORE
i i
ĠFe male
f s
ool wich
ĠH ow
y ears
0 2
ĠExt remely
Ġany one
ation ality
IN DEPENDENT
ond es
Ġ- ----
N ING
x ion
ĠB b
O PE
Ġf la
ĠR el
ĠS ession
dec oration
ĠP ETITE
ĠTal ented
ĠCLASS Y
ĠC rystal
Ġres idence
Ġ7 07
A nd
ĠB urlington
Ġst ill
ĠEXT RA
k a
ang ing
ĠN at
ĠWH ITE
ĠP a
Ġd ie
Ġn aked
ĠHe aven
ĠC arm
AP P
ven ue
S PECIAL
ĠBL ONDE
ĠH and
SER IOUS
ĠSt op
ĠN ikki
B RI
ic ole
Ġf ee
Ġle aving
F K
ĠG reek
RE AM
ĠStone bridge
c lock
Ġg roomed
ĠSHOW ER
ĠRe ally
asc in
ĠB orough
ĠIN FO
ĠB aker
ĠW oolwich
Ġmay be
K I
pec c
A ny
Ġbas ed
ĠHA IR
ĠMan s
ĠT on
U p
ĠT IM
Ġle vel
other h
Ġ1 70
Ġre ach
ĠPal ace
otherh ithe
Ġf ollow
ars ons
Ġcle ar
ĠDOWN TOWN
Ġarous ed
CT IVE
H OT
I D
ĠWh o
l ong
Ġt ens
el ena
ĠL ight
ĠStock well
ĠG l
ard s
Ġr ub
Ġr out
ascin ating
o ts
Ġprovid es
Ġsur pr
L O
ĠW arm
ĠD alston
ol t
40 4
ĠK ew
ĠB ond
ĠG unnersbury
or y
ĠEN JOY
le af
ĠSp a
S ex
ĠW ould
b ikini
ĠL U
Ġre lease
Ġsec ond
Ġp ost
Ġa stonishing
ĠB ank
OU GH
ott age
Ġc ut
,, ,,
4 47
ĠWhit echapel
Ġl b
Ġan al
h urst
ĠA vail
is es
om erton
pt ion
ĠR otherhithe
ĠE VER
ĠB ombshell
ĠL A
ĠVietnam ese
mo on
angu age
ĠTaiwan ese
Ġa irport
K ING
Ġw ater
Ġenjoy s
C Y
ĠRE QU
ol born
kiss ing
o pen
79 5
ATION S
ĠB DSM
iff any
Ġre p
Ġsur round
ĠB low
Ġat m
EL S
anc er
st rawberry
od els
$$ $
OR ONT
Ġbb bj
ĠH r
Ġty p
>> >>
ĠT imes
PL ES
E ast
ĠC ur
Ġ07 49
: .
Ġt ired
ĠBE FORE
ĠDomin ican
ĠC ater
ĠM om
T e
Ġ7 00
v ale
ĠW OM
ĠMalays ian
Ġoff ers
Ġprovid ed
ĠBr ondes
Ġs ugar
Ġsu c
H OUR
ĠD irty
ĠGold ers
Ġlik es
ĠHigh gate
om b
Ġbl iss
anc aster
Ġopt ions
Ġm ale
T O
k nown
Ġd aily
ĠH omerton
ĠPla istow
N S
Ġm ood
ĠSo ph
H A
x bridge
ĠWe ald
Ġret urn
osp here
99 0
ĠBarb ie
Ġkiss able
ĠRed bridge
tt awa
IL LE
Ġor i
W W
ib bean
t oronto
! )
Ġbe gging
ĠAN SW
Ġa bsolute
< <
Ġplay ing
ĠWhe tstone
ĠPRO F
? !
IA BLE
HE Y
Ġc our
ac he
D o
pan k
or ced
Ġf avour
79 4
ar r
AN S
Ġwe igh
Ġsh ape
Ġen ough
asure ment
ĠAmer ican
ĠAs ia
m ple
lass y
ĠBermond sey
x en
Ġa vailability
ĠHill ingdon
Ġm ilf
af ety
L T
Ġxo x
qu est
BS OL
Ġpriv acy
Ġmes meriz
50 3
AN GE
Ġf am
45 5
i en
ĠSw edish
ĠA fter
po pper
ĠM AR
o e
ĠW anna
Ġhand le
p erience
Ġsearch ing
Ġmid night
: **
or ange
ll e
ĠGl ouc
Ġ ill
Ġwast ing
Ġmon th
mm mm
Ġsit u
aring ey
ĠCOMP AN
Ġ07 45
Ġp our
orn er
You ng
80 7
x ford
ĠLat in
ĠB oobs
ĠInd ependant
b it
am p
Ġbu ild
Ġcoll ege
er a
Ġrespect able
ĠFac ility
ĠL INGER
lymp ia
ĠF oot
Ġf illed
l er
REE K
Ġstr ong
ĠGlouc ester
ĠKiss es
ĠS u
Ġ5 3
Ġstock ings
Ġdevot ed
Ġn ipp
4 99
7 17
ĠC heck
Ġgo ld
x y
Ġad ult
30 4
B ody
play ing
y al
Ġphys ical
Ġg ame
UT ES
a a
f ers
Ġdar ling
st ag
ve ls
BSOL UTE
Ġe c
Ġ4 50
pp ort
ĠQueens way
Ġf ast
Ġcon nect
U DE
um bs
!!!! !!!!
ĠM id
ĠIn cl
ist ers
ick le
th umbs
ĠR d
ap y
AI L
BRI DGE
Ġatm osphere
w less
ĠG IVE
ĠAc cept
stag ram
anc ed
Gu arant
d ancing
ĠK orea
ĠHoll and
in ary
ĠCol ombian
PT ON
ĠJ ESS
Ġen vironment
Ġde m
ĠCHE AP
Ġri de
ĠL IPS
ĠPe ckham
ings ide
ĠANSW ER
Ġqu ite
ab y
rain s
Ġtens ion
L ING
Ġm et
9 17
ĠCan dy
ĠM ost
for m
ĠShepher d
ĠG e
am ford
ĠJ e
c urvy
hell e
Ġm ine
ĠAN G
Ġ647 49
li ke
u es
Ġcon s
ĠC aucasian
ĠCh arming
Ġoccas ion
swe red
ro pping
ĠY onge
Ġlong er
Ġf ire
Ġg la
iv orced
ĠT ired
ĠIm p
pt ford
ĠBr ook
Ġpart ner
Ġh old
5 1
Ġf ellas
Ġmess ages
ĠN a
C an
ĠTer min
Ġs ent
ĠC ass
Ġcomple xion
al izing
ĠPL Z
ORONT O
19 0
Ġ9 00
ĠK nights
E Z
ĠWor ld
y r
U P
ĠM ES
day s
ĠPRE TTY
M ature
qu ir
): [
com pan
M ATE
Ġ2 60
m a
OCK ING
Ġde p
ĠM ind
on es
ĠLI FE
_-_- _-
_-_- _-_-_-
mon key
res ist
V ES
ĠP arsons
Ġs itting
ĠOut fits
ch ant
ĠX O
tr ansfer
ain t
ĠM or
ĠINQUIR ES
c ial
Ġlo ver
UR U
RAM PTON
W elcome
UAL ITY
ĠG F
ul ate
f ood
els ize
ĠPROVI DE
ĠB lo
ĠTermin al
l ondon
ĠC ock
ĠR os
ou d
le d
Ġto y
Ġn orth
Ġwh arf
ickle wood
Ġpre p
ĠKnights bridge
33 2
m ie
lt imate
Ġinclud ing
ĠM us
bro ke
ĠYour self
AN G
Ġbus y
ĠM ontreal
oc o
Ġf t
her b
t aking
ĠARE A
ĠRes pect
3 50
ad broke
z z
L ong
g inner
ec e
ĠST OCKING
40 2
?? ?
ic ate
ĠF ive
ĠL a
ĠWE EK
Ġ 87
ĠL ex
20 4
ĠA A
ĠB ella
ĠB elsize
Ġout fits
Ġqu est
Ġ ens
ell y
Ġ qui
ĠSur rey
e vil
um my
G orgeous
Ġt iny
Ġincred ible
ĠMIN UTES
C O
ĠDISCRE TE
Ġrelie f
77 4
ve red
ug u
B L
ic ester
Ġfr ame
34 3
ĠPre fer
ĠHands ome
be ginner
A VAILABLE
ĠE ner
ĠY EAR
ĠBrom ley
en g
Ġfac ilities
ur ate
ĠX OX
ĠWH O
c m
iag ara
Ġcli ent
Am azing
ESSION AL
Ġfresh ly
Ġd ance
W AY
Ġ1 6
Ġgenuine ly
ĠN AME
TH ER
ĠS l
Ġst riptease
P LE
AR M
li able
Ġwelcom ed
N orth
ad illy
ĠOut going
J ust
Ġexc ite
ĠWH EN
avor ing
ĠTH ICK
ĠReview s
n ed
Ġ3 9
qu is
Ġsp arkling
ĠBarb ican
are s
ĠVan essa
I BLE
W E
IT T
ĠAL SO
ĠAny where
ĠApp ointment
C urvy
Ġb j
ĠFETISH ES
Ġt w
Ġc ant
ĠB ALLERS
et r
Ġlo st
T r
s om
Ġwor ship
B ACK
37 0
ĠFR ESH
d oor
s avoring
Ġ ________________
sh ower
Ġin side
Ġf air
AT ING
ĠME GA
Ġd uring
ĠSo phisticated
ĠB y
u ert
Ġvide os
ract ive
ĠP ick
Ġv oice
ugu ese
at in
ĠGu y
ĠSe ven
Ġt ube
is on
ĠH aringey
Ġr ace
ĠAny time
f n
ĠL imited
pr in
ĠAtt ention
um ent
Ġkn own
m ar
d iscreet
ĠU xbridge
red it
Ġg iven
ĠJ ul
ĠTEXT ING
ĠMag ic
Ġar ouse
e z
Ġ 00
Ġtreat ment
Ġab ove
is exual
ĠSEDU CTIVE
Ġrout ine
ĠIN CL
Ġvi xen
ĠO ttawa
Ġre comm
itch ener
el ph
ĠOpen ing
Ġb orn
40 5
Ġcur ly
pecc able
ĠREVIEW S
on se
Ġsc hed
m i
Ġse lect
ĠRec e
ĠDel icious
sc ourt
ver ing
ĠFR ENCH
Ġkind s
ĠGUARANT EE
Ġfemin ine
H AM
ber well
Ġover nights
fn ell
ĠE mb
in dy
Ġan gel
ind ale
nic ity
ĠS uck
ĠUn iforms
anth a
ĠB J
ĠF arm
ĠPark ing
ĠLu x
Ġst e
B r
ĠCh ar
9 26
anc ery
ĠEX CEPT
in ch
ĠMy a
ĠCli ents
ĠCh ancery
ĠM OST
79 3
Ġcur l
ĠS ens
ĠQ U
br ook
ĠL ancaster
ĠM orn
F rench
ank ment
ĠEmb ankment
ĠY o
ĠFU CK
ĠME ET
Ġgold en
9 19
ĠC R
ĠEn field
ĠS c
ĠAm anda
g er
Ġs uit
he avy
ĠG iving
Ġan swered
ĠG er
Ġl ap
Ġbe g
ĠSatisf y
and ra
Ġh am
ĠHot els
ĠD EEP
Ġ.... ..
ont ree
Ġ; -)
ĠPROF ESSIONAL
ĠPLAY MATE
im ming
arr ingdon
ĠF arringdon
Ġro yal
ĠProm ise
aw k
ĠM arkham
: *
aven scourt
ĠAn ge
.... ...
Ġunderst and
ĠCol indale
uert o
ĠB uck
Ġbeh ind
PP Y
Ġ ____
ĠInd ia
Ġ90 2
pan ic
89 0
ount ers
On ly
: >
bour ne
s now
Ġtrave ll
Ġou ts
ĠHy de
is ed
ab rina
en al
E n
ĠO xford
f fer
ĠA venue
is ing
Ġn ights
ĠPol ish
Ġd irect
ĠSt anding
ĠQ UALITY
ĠU ltimate
ĠN othing
Ġbe come
Ġs uis
Ġ8 19
BSOLUTE LY
Ġc ock
h awk
xx x
EN N
Ġass ured
Ġhands ome
if ying
Ġemail s
Ġori ental
Ġ07 47
re ady
ĠFANTAS Y
Ġ$ $$
Ġac ross
Ġfin est
rave l
ĠH olborn
ĠDis appoint
Ġfe atures
t ario
u ts
Ġens ure
t en
ĠS ub
ĠSte p
ĠMar ble
ĠD REAM
ĠVis iting
eri vale
lic o
Ġp en
G ES
ĠA VAI
Ġbeh avi
H r
er ning
ĠB us
ĠSM ILE
Ġp ink
ĠB EL
ĠCh alk
pi ke
ĠP rest
ost ers
f osters
AP AN
ĠBar ons
ĠR ose
ĠPa ul
pport un
i vid
ĠA rs
avour s
ĠArs enal
M ulti
IM ATE
Ġl a
UG S
ĠY ears
ra b
ĠT ot
ĠCar ibbean
ĠLe ave
Up scale
ĠA GE
ul ous
Ġs in
Ġs erve
Ġin ter
m ob
ĠArch way
a it
ĠGold hawk
at ched
ĠP art
Ġsp ice
U LL
ĠIN D
ĠBec ontree
n os
ĠWhe ther
Ġto e
ĠV ale
26 6
ĠCan ning
quis ite
Ġ ........
mob i
s ee
ĠC ut
ur ry
2 23
c an
Ġcan dy
at ton
Ġsl ender
ina ult
ĠBl ond
l ar
s atisf
7 99
Ġe m
4 50
bb w
ĠGIRL FRIEND
ĠS il
ic helle
ĠT iffany
N ever
ĠM ile
ĠC ash
ĠTh urs
Ġof ten
!!!! !!
b ag
ĠER OTIC
s weet
toronto escorts
Ġ~ ~~
Ġcur ve
ĠBark ingside
I K
ĠY ES
Du os
Ġ3 1
ĠKing ston
ĠN ationality
Ġmag ical
ĠI ll
eri dge
t est
us b
Ġmo ve
Ġbo som
Ġnot e
ĠCock fosters
o la
Ġt il
ĠF riend
as den
id er
ĠAre a
CRE ET
ĠColl iers
ĠSw iss
ĠJ APAN
fe rence
ĠE AST
Ġc os
ish a
ĠB ost
ĠRe ply
ĠBost on
ig well
87 6
ĠCh igwell
ĠBB FS
w ork
ĠL IMITED
ĠB rent
ĠH oney
ĠFreak y
j ust
f ic
6 29
ĠB urnt
pportun ity
ay lor
ĠPR OM
ĠAr nos
ĠSt ress
---------------- ----------------
ĠG ants
ĠCan ons
ĠBuck hurst
ĠC orner
ĠEl m
Ġd id
Ġst ri
Ġpro vocative
Ġshe ets
ĠTO O
ĠS carborough
ĠG REEK
p orts
ĠFA C
LE T
Ġtr ust
Th is
Ġresp ond
Ġp ur
Ġhost ing
ĠT AKE
Ġsp inner
ĠS on
ĠDoll is
eri al
Ġc ream
p lease
ĠH ips
ĠK NOW
ĠLo ves
Ġrelie ve
f lake
il t
Ġu nd
Ġexpect ations
A VE
T oys
Ġcom es
Ġdisc over
ill ating
IL TON
f it
ĠCom ple
ĠS panking
T ime
Ġ07 57
Ġpam pered
ĠRece iving
Ġ ir
fr ican
Ġv al
e es
ought on
ster ley
ierc ings
ĠFE EL
snow flake
Ġfulf il
Ġsuc cess
c ote
ĠF IN
b ook
in call
ĠEast cote
ĠS unday
irl op
Ġbehavi our
ĠD EL
ĠFa irlop
ares brook
ĠDeb den
Ġ5 10
Ġsh ame
Ġ4 6
ulg ar
ĠC AM
et ime
Ġcol or
g ra
al y
ĠU K
S H
ĠD eal
Ġhtt ps
ĠSt art
ĠR A
ĠCr icklewood
ok er
@ @
Ġvide o
Ġpl enty
i la
el ves
Ġs panking
vi ous
Ġn or
ĠPLA CE
ĠQu ay
G G
lo p
f riendly
ĠT witter
atur day
ĠP am
Ġme asurements
Ġr are
iet y
Ġear ly
78 2
ĠAR RIV
Ġc as
B ig
Ġ ut
7 89
ygi enic
prin ts
Ġto ld
Ġ ve
ĠS elena
ĠExt ras
Ġo pportunity
9 29
ĠLe icester
xxxxxxxx xxxxxxxx
O PEN
Ġcert ain
ĠC ottage
Ġpleasant ly
r ush
ĠPer ky
OR RY
X o
ĠL ee
b ow
c adilly
h ands
leas t
Ġ1 75
ĠOn tario
Ġ$ $
ĠMe asurements
Ġun rest
Ġexp lo
ĠWar ren
V A
ĠANG EL
ĠT W
ĠQu ick
ĠT ORONTO
C LEAN
AR A
ĠT ry
erv ice
RI E
ĠP ri
ĠCOU PLES
B R
C UR
is hed
3 35
ĠE th
ĠW OW
2 60
ĠPERSONAL ITY
ĠPr ices
ĠTON IGHT
T T
l ook
Ġ Ġ
v ous
EL F
anc ras
AL G
ĠE ven
ĠD AYS
he ath
ĠW C
ĠB AR
if ic
ĠSoph ia
Ġof fered
itt en
0 6
it illating
ĠO LD
Ġexp ert
Ġf ascinating
it ive
B OR
33 9
ĠBeck ton
ĠP op
: %
ĠN icole
3 99
p ol
h tt
h ouse
Ġwor ries
66 6
ĠDES ER
ĠB OO
ĠMen u
B E
fort able
ĠGood ge
ĠB UT
Ġ4 8
B lack
ver age
ĠHA PPY
Ġam orous
ĠG at
ce ed
Ġresp onse
Ġsurround ing
n apchat
8 87
am era
ac hed
Ġmass ager
f air
Ġa wesome
en c
ape ut
o pping
ĠIn quires
Ġl aid
ĠTR Y
ĠPic cadilly
Ġp ass
Ġhe ll
Ġdisc erning
ĠDo or
ĠDe ptford
n et
D IS
on ly
13 5
P R
Ġlo l
ĠLET S
Ġattract ing
Ġpart ies
N atural
Ġvis its
ĠBub ble
Ġunrest rained
ĠD T
Ġbreath less
IT CH
ĠB el
ĠU r
Ġevery one
90 2
ili ar
Ġw he
ut ton
ĠIG NO
L ow
Ġfun ny
os om
Ġt ri
ĠD ays
Ġpamper ing
ĠMO DE
Ġin s
Ġf s
ĠC up
pp y
n atural
7 69
Ġwor ry
E xt
9 07
Ġl anguage
Ġa wa
ĠStock ing
Ġc ustom
ĠA P
Ġincl ude
ĠAC CEPT
ĠBAB E
ĠW WW
E very
ĠLove ly
ĠAd ult
ĠTIM ES
S uper
s elves
ĠDes ire
Ġmiss ing
Ġ _
ĠL BS
ĠNOT E
th am
ili ation
ĠS isters
14 5
UG A
Ġstr aight
ĠPort land
Ġd ropping
ĠJ am
3 28
US S
ĠSh ored
idd en
Ġdelight ful
ĠS abrina
ĠST R
ĠOF F
{ }
Ġl il
ĠT ITS
ĠCam berwell
ob ic
BOR OUGH
ĠL isa
igure d
Ġf akes
ĠW alk
ĠMid land
ĠR avenscourt
ĠW ed
f irst
ĠC OL
Ġ- ---
ĠMI X
apeut ic
W ell
Ġme asurement
ĠV alley
ĠNew ington
Ġwear ing
ĠK ind
Ġc ame
AT ER
c ious
av ishing
Hot el
ĠRuss ell
ĠJESS ICA
ĠT AK
Ġad s
Ġpr otect
Ġexcite ment
Ġ3 50
>> >
ĠTe mple
Ġor g
Ġbo y
ane ous
A dd
Ġspe aking
Ġrequ ests
ĠANY TIME
s ed
Ġposit ions
Ġli ving
Ġad ore
ĠBb w
ĠIGNO RED
: ,
ĠBro ck
c on
ĠSh ad
ĠReg ent
a L
ĠC rescent
Ġso ci
ĠUp ton
Ġ3 7
HR S
ĠIncl ud
g n
Ġperfect ly
ĠSara h
Ġ least
xo xo
ĠM odels
ĠV ide
ĠP icture
angu ages
ISSA UGA
ĠShored itch
Ġc lock
Ġw it
ĠQu ays
ĠV iv
Ġint ense
Ġa u
B O
Ġsitu ation
ad i
Ġneed ed
ĠT its
ĠPort uguese
h anced
aters ports
obic oke
Ġs panish
Ġm ail
Ġman s
S panish
. (
ĠPim lico
ĠSt oke
ĠBlack heath
mar ried
Ġ1 65
if y
ise ase
terest ed
all ow
Ġintrodu ce
Ġd ivorced
ĠNe goti
n ew
ac es
Ġhow ever
resist ible
Ġi N
ĠOld er
Ġexcept ional
ĠTurn pike
Ġc ash
Ġl ick
lic ious
Ġcour se
ĠH an
Ġadd ress
ab ella
---- -
Ġnipp les
2 10
W A
v ents
Un rushed
ent ic
ass le
CAR BOROUGH
ALG ARY
Ġcaptiv ate
usb and
ĠT ongue
Ġ24 9
ĠMIN S
ĠPop lar
ont aneous
Ġend less
ĠS incere
ĠCHE CK
F ree
ĠC um
ĠR ise
Ġbab es
ĠLINGER IE
Ġre liable
Ġt asty
ĠO val
app ing
Ġimag ine
Ġm u
:: :
ox ton
etr ation
ĠW AY
ĠImp erial
ord inary
bit on
p rivate
Ġm s
ĠA ffection
ĠSt amford
ĠTu fnell
Ġ1 4
Ġst ep
IC ES
ĠMon ument
Ġenjoy ment
ĠH oxton
ĠWest bourne
st r
ĠMans ion
Ġc im
m ily
ĠBL UE
ĠC indy
Ġj u
Ġdem and
ĠL adbroke
ĠCla pton
ĠHE ELS
ĠL ayla
Ġper cent
Ġ est
ĠHill s
z ie
Ġsweet est
3 30
ck enham
Ġmo i
Ġp op
ĠCh ina
M assage
Ġevery where
ĠM aking
ĠP ar
ĠB ay
ĠCan on
ĠH ong
ĠK ORE
ven ient
ĠDES IR
3 18
ust ry
eng th
Ġ ________
ĠT i
fe male
ĠW apping
Ġ5 1
Ġlo cal
Ġgr ace
ĠT ell
ĠG osp
ĠDOM INATION
ĠGosp el
ĠCanon bury
ĠB all
Ġide al
ĠBrondes bury
ĠNe asden
ĠHorn sey
ĠWar wick
ational ities
hot mail
ĠMor den
Ġ: :
attoo ed
p age
ĠA vailability
ĠK elly
m me
i qu
ĠVer ified
Ġp im
ĠMalays ia
B rown
ĠBarn es
Ġ== =
ou g
Ġe ither
ĠHer ne
ĠANY WHERE
Ġa ff
ĠHan well
Ġc ross
ĠMULT I
ĠMus well
Ġamaz e
ĠCass ie
Ġquest ions
d o
8 89
er ing
ĠT issue
ĠEast ern
ili pp
20 6
Ġpl ump
Ġhum our
Ġsl ide
ĠA frican
ĠOffer ing
Ġ es
Ġd ating
ĠCh ing
Ġrush ing
Ġent icing
chant ing
ĠC OND
ĠHa vering
ĠHorn church
ĠStep ney
Ġc at
Ġh it
ĠTe ase
ĠEXCEPT IONS
ĠP erivale
Ġt akes
ut on
X y
Ġ2 80
ĠSur biton
ĠChing ford
ĠP inner
ivers ity
ĠNorth olt
rain bow
Ex otic
ĠStan more
is ty
LEY EZ
S ensual
ĠH atton
M iss
ĠHa inault
ĠMel issa
ĠTurn ham
ĠShad well
27 0
IP LE
UN NING
ĠKings bury
ict ing
ĠNorth fields
Ġb ath
R es
ĠH anger
Ġsu pp
ic ulate
Ġcudd le
ANGE LEYEZ
ĠMorn ington
per ton
Ġs pank
ĠHar ring
As ian
lin ton
ĠSouth fields
ank s
ĠR a
F e
ĠCar amel
uth entic
Ġh y
ĠGreen ford
ĠI ckenham
ĠQueens bury
ĠHeath way
ĠG range
ĠWood side
rist ina
ĠB ounds
... :
sh awa
ĠPrest on
Ġy o
27 5
ĠSky pe
ĠJoh n
7 38
u ff
I QU
P rivate
ĠO sterley
ĠL oughton
ĠDon ations
ĠUp ney
Ġq ual
ĠM erton
60 6
ĠTott eridge
Ġs ultry
ĠOak wood
Ġg lass
ĠT ravel
ic ia
Ġl ane
ĠW oman
ĠNew bury
ĠSn aresbrook
ĠH atch
ĠNorth wick
ĠWood gr
ĠHead stone
ĠRay ners
ĠPART IES
ĠWoodgr ange
ĠKenn edy
ĠC udd
Ġz ero
Ġt im
. )
ĠAVAI L
Ġrece iving
ĠR ican
Ġfla wless
ĠMES SA
s ensual
Ġsuck ing
ĠF F
Ġlive ly
ĠRo ding
T ired
7 16
ĠCh est
Ġb i
ĠDESER VE
i N
ĠU s
ĠKISS ING
atin um
ĠB ed
Ġtal king
T o
Ġb ro
Ġcont ent
H ER
Ġcontact ing
ĠAT T
Ġfollow ing
Ġh im
ĠInd ulge
! .
ĠEth nicity
G reat
g linton
ĠWor ship
G S
ĠMEN US
ĠCond o
Ġcur rently
v y
49 4
p aw
ul ars
Ġ30 6
sp ort
69 6
Ġ ]
Ġ4 91
Ġwe ight
al m
ĠDisc retion
P retty
Ġb oun
AT CH
Ġd ancing
Ġth roat
Ġwe re
ĠSingap orean
9 88
33 1
80 4
^ ^
Ġc ount
30 3
ĠDIS APP
D own
c amera
htt p
Ġt er
ĠTant ric
Ġg fe
Ġ ""
Ġb oo
C ESS
Ġs qu
Ġaddict ed
R ES
W est
ĠSt riptease
Ġb anging
pp ard
no on
4 17
ĠS itting
Ġlo ad
ĠRE ALLY
ilipp ines
b ec
F riendly
ĠN URU
R ush
es an
ĠR ATE
ĠWOM AN
85 5
ĠGent el
ou l
ken well
Ġ- :-
g u
end ing
Ġsk ill
ĠBrock ley
Ġe vents
79 2
Ġsched ule
Ġg f
Ġstress ful
ĠCAM BRIDGE
ĠLe gs
ĠSatisf ied
Ġme ans
ĠC ITY
B IL
Ġd ri
ou b
ĠF L
ĠAm y
5 19
ĠMom ent
N ER
ĠK ong
ĠINCL UD
ĠHot tie
te ed
Ġsh aved
ĠE VEN
Ġg al
lo e
riv al
Ġqui et
Ġs ch
ĠP uerto
ĠFIR ST
Ġg ift
pe ak
Ġey e
y lish
o il
Ġ4 15
ĠGen erous
ĠSO ON
ĠM AG
Ġst ats
Ġpro ve
ĠFilip ina
l ands
ĠS aturday
9 34
Ġre c
Ġmen us
Guarant eed
ĠW ET
ĠR imming
f k
ĠV en
ost um
Ġ10 6
idd le
Ġeng lish
Ġmesmeriz ing
et al
Ġkn ock
ĠSatisf ying
al arm
Ġle s
70 1
b ie
Ġim medi
Ġprep are
wa ist
AN ISH
u bs
ĠHIGH LY
C o
ĠB ET
Ġyou re
Ġre nd
ĠH ale
ĠF en
ly n
Ġtry ing
as k
ĠCl er
Ġf ill
ik a
60 34
39 0
ĠBut t
Ġkn ees
Ġenc ounters
Ġs n
Ġbo d
ĠCler kenwell
ĠM ia
ĠIn stagram
art er
1 15
........ ..
Ġstand ing
Ġdeep est
Ġd om
ĠPh ilippines
A ge
ĠB RAMPTON
ĠIs land
ĠHost ing
Ġl ength
ind ependent
Ġind ustry
LE X
yah oo
S napchat
G R
z dz
Ġman ne
Y PE
Ġw ine
L e
ĠL ADY
ĠW et
ĠTh er
ĠNEGOT IABLE
Ġp ush
ad ise
Ġ07 44
L o
3 27
ĠCL I
IZ E
pend ing
mor ous
res pectful
Ġcar ing
90 9
ĠW eek
tern ational
Ġrend ez
L R
h alf
y o
edi um
Re ady
ĠPR IN
Ġg ives
Ġco zy
ĠDream s
W ith
e ight
ĠA VAILA
Ġthat s
low er
Ġattract ion
9 75
le ts
ir d
Ġ** ****
ĠEl ite
ĠS ORRY
Ġp ower
Ġhour glass
ĠYo U
ĠGat wick
on na
ĠC ustom
66 8
GH T
ĠANY THING
ur se
40 9
Ġe mp
ĠSt yle
2 18
Ġj o
ĠFant asies
ĠComple te
I DE
ĠP ancras
ĠM ilf
ĠL ife
Ġdisc uss
ce ment
Ġs pec
ĠU LT
ĠBre ak
ĠRO OM
ĠF O
ĠFilip ino
Ġ4 7
ONE Y
ulf ill
F ULL
Ġt issue
ĠMess age
ph anie
Ġdoes n
AN A
i yah
ĠF ast
app ointment
Ġref resh
ĠKenn ington
Ġfam iliar
ĠS ING
69 5
Ġdec ent
enc ies
ĠWA IT
v able
Ġth ugs
ĠD FK
m atched
ch ocolate
ĠC ALGARY
ĠT aylor
ĠRE G
Ġdeal s
ĠWeald stone
Ġmanne red
Ġt ender
ĠW on
C ES
Ġact iv
ĠH ard
Ġl ic
ĠNEGOT I
c lo
ist ed
isc uous
Ġlim it
er ley
Ġc ourt
cl ub
____ __
ĠP LS
Ġle ft
BIL ITY
ĠS NS
a red
ĠIn terested
heart ed
ĠAn erley
ĠCarm en
6034 48
Ġset t
Ġ079 07
AN N
ĠUp minster
F ETISH
ab i
ile d
Ġhot test
itt ies
Ġsp ontaneous
ĠBR OWN
ĠYEAR S
Ġdr ink
Ġ07907 603448
re ak
ĠCom fortable
) ;
ĠA IR
AN Y
Ġf ig
Ġexc ess
ĠMar ia
f igured
Ġ especially
Ġ07 50
88 3
ist ing
ĠMay fair
ĠAm ber
ĠIT S
Ġsuccess ful
er ry
ĠBARE BACK
ĠK itchener
de g
77 3
22 2
AS E
ĠK IND
So ft
ĠWAST ERS
ĠESCORT S
bert ine
Ġp at
O lympia
99 9
ĠF u
ĠMODE L
ĠH OPE
24 1
is k
Ġp ain
he ld
26 8
Ġdon ations
ĠAtt ractive
Ġfavour ite
ĠFen church
ir a
ens ive
Ġun h
Ġphys ique
Ġf at
ĠUn married
ĠREQU IRE
4 15
Ġsens ually
Ġacc urate
p ounds
AT T
AL F
Ġstunning ly
ss y
ĠGer man
s erious
Ġf ore
ag ed
TH E
ĠULT IMATE
Ġme an
ĠB ath
Ġappreci ated
ub lic
ĠTH ERE
a ff
Ġ view
ĠE L
He re
h oney
ĠB razil
2 30
z ro
Ġinch es
Ġp age
Ġa vai
Ġb ridge
F R
Ġatt ached
zro via
ĠE va
st ed
Ġor d
Ġac compan
Ġcas ual
ĠDESIR ES
Ġconf irm
in ous
Ġp api
ion ally
60 1
ĠST UNNING
ĠShow ers
y our
Ġ2 30
ĠL OT
Ġgr at
ĠS utton
Ġcut ie
al king
Ġbe y
Ġindependent ly
ad ison
ĠL bs
ĠS ecret
Ġ5 9
ĠWAST E
it ment
Ġle g
Ġent r
ek h
8 23
FOR D
ri ll
ee les
ĠAr rived
Ġ4 3
IF IED
Ġfant as
Ġsw itch
) /
ĠInd ones
Ġsh ap
o es
ĠH h
ĠVIDE O
ĠSession s
Ġ100 00
IT A
,, ,
M ind
W Y
uk i
Ġha ired
r ous
Ġyou ll
ĠF ulfill
Ġbey ond
h t
:: ::
erv ices
op ing
L INE
10 5
ett ish
ym ph
oun ts
uss i
o f
ER OUS
* .
ĠP ure
Ġd iss
Ġtr ansfer
Ġbo ld
ĠE ll
ĠL anguages
Ġreason able
Ġche er
ĠGu elph
Ġproble m
ĠQ UE
B P
Ġr d
ĠChe ap
ĠSM ALL
ĠC UM
qu et
f ly
AN NA
ill a
ĠSP ANISH
st ick
ĠD A
Ġ07 7
mm ing
ĠS IL
ĠMULT IPLE
5 85
ĠM ON
69 1
Ġke pt
Ġsp a
G O
Ġf ive
Ġc m
ĠYOURS ELF
g est
Ġh usband
ĠLo ts
ĠB i
az z
ĠH un
ĠStan sted
Ġpro fession
ĠPl z
c ing
ĠG entle
Ġplay fully
Ġart iculate
ĠJAPAN ESE
ĠB et
ĠThurs day
R AS
ĠBlow job
C OL
ou ps
ĠP olite
D OM
69 0
DIS CREET
DEPEND ANT
leg ance
ĠExp erienced
Ġgo es
Ġw alking
ap oint
Ġrecent ly
ative ly
ad a
40 8
ĠM ichelle
Ġ1 55
Ġth ree
ĠWe bsite
ASS ION
Ġun less
ĠShow ered
Ġsecond s
IQU E
anc y
Ġdz ekh
ĠD ET
- :
ĠB are
C ontact
b ou
ĠMay a
Ġr ude
ĠCAN AD
Ġp ound
ĠP ORN
ĠH AM
I ER
Ġdr ug
Ġs lo
ĠSam antha
satisf ied
ur a
>> :
3 47
Ġ1 7
48 6
ĠO shawa
oc i
2 87
Ġw ife
ir able
ĠCond om
l ford
pr otected
Ġst ud
299 03
augh an
, &
Ġbe lle
act ive
ĠAny thing
ĠSM S
Ġstock ing
le ft
Ġste amy
ĠL uton
Ġf act
Ġarrange ment
ĠSon am
Ġ0757 29903
bou quet
ĠJ O
ĠO il
ĠTh roat
ĠTu es
ĠTHANK S
Ġa ussi
on a
ĠSe Xy
Bl onde
ian ca
ĠS end
ĠBe ing
N OWN
y n
ar n
Ġd rop
t ed
ĠD LR
Ġth ought
Ġcons ider
ĠDr ug
ĠPROM ISE
Ġfig ur
ark le
S ee
PP ERS
ĠPRIN CESS
ark et
ail and
ĠTo gether
Ġn ude
4 89
ĠL adies
ĠT anned
24 3
ĠProvid ing
Ġb lo
Ġch ange
iz z
Ġh ang
ced es
OT E
ĠDel ight
b ur
AS IAN
um mer
ĠMISS ISSAUGA
ĠD esc
Ġc rave
Ġcream y
w ee
al o
Ġmy st
ĠV ix
Ġb oring
Ġdomin ant
mm a
, .
ĠT attoos
Ġvar iety
ILL ER
AT Y
t w
ĠDET AILS
L ESS
V ILLE
ik o
ĠE ye
AS H
Ġun e
mark et
ĠS CARBOROUGH
ick s
ĠIm ag
Ġhapp iness
ĠFl irtatious
B EST
ĠM atch
ĠX XX
a way
lo ad
ĠD art
Ġ| |
Ġgrace ful
ĠSH ORT
ĠE t
ĠO THER
ache lor
ĠT iny
ĠH ALF
Ġ07 85
Ġsp ir
pl ant
8 85
C lassy
ed ic
9 00
Ġst rive
Ġch inese
le ction
Ġin quire
AR T
4 10
re ate
Ġ ed
Ġ9 5
Ġvi v
ĠMon ica
ĠP o
77 7
Ġdec ide
Ġass ets
e gg
wick enham
Ġpop ular
OU CH
u el
ĠT S
ĠWell and
Ġstri pper
49 8
ff ee
re ts
Ġs afety
et imes
ward s
ele d
C ED
ĠP ASSION
us i
egg plant
A B
w ings
Ġin n
os ition
C IM
ĠBOO BS
ĠD ate
Ġ40 39
99 8
Ġs un
T ight
L ER
34 5
wee bly
qu arter
Ġlu v
ĠLE AVE
Ġlux urious
Ġ36 5
ĠFREAK Y
Ġir resistible
7 21
Ġc ard
ĠW ONT
Ġle ad
Ġdisc ount
Ġposit ive
Ġm use
ĠS un
Ġv oy
ve lop
Ġexcess ive
Ġ- _-_-_-_-_-
h a
ac ey
Sh ower
ĠN ear
Ġconnect ion
ĠFIR M
Ġdep osit
ĠLex i
ĠBooking s
ĠD ur
, $
ĠOpen minded
ick y
35 9
ĠH ON
ĠMan y
ĠE legant
ĠF igure
89 6
ik i
ĠA BSOLUTELY
ĠCudd ling
ĠI ve
ĠS UN
34 6
ĠDIS C
al acious
ĠCam bridge
E M
Ġun known
ĠB S
us ed
Ġm a
ĠCHO ICE
ant ford
16 6
ĠE mily
ax i
ax im
ĠJen ny
Ġc la
ĠH OST
Ġproble ms
ĠJ u
DU O
om i
ook ie
TY LE
ĠSp arkling
ostum es
Ġr ough
Ġv en
Ġch amp
ol i
sh oe
W ild
ĠD iamond
ĠD ani
Ġint im
ĠS PE
USS Y
A sk
ĠAVAILA BILITY
Ġtr an
ĠF ellas
17 0
95 2
Ġf ar
ĠM s
ĠK ILLER
res hed
9 25
ident ial
~~~~ ~~~~
Ġpim ps
ĠF IND
Ġ7 8
ĠBr itt
ĠF ake
ab ulous
Ġres ist
miss ion
N on
Ġg reet
ĠD R
Ġ!! !!!
Ġs om
qu ettish
Ġstr ings
Ġk ings
ĠSp ain
ĠRel ie
ĠHON EST
7 37
ĠEner gy
ĠT ILL
Ġnegoti ations
ĠM i
d isc
ĠG RE
Ġn ymph
or i
ER B
29 0
ĠS in
pol ice
ai red
Ġal most
ent ious
A X
Ġ ll
Ġfin ish
ox y
ac her
2 15
c andy
ĠSm oking
ess ing
Ġso cial
Ġ074 40
S e
entlem ens
Ex p
an el
ĠNO R
rict ion
ĠT OUCH
m n
Ġcater ing
it es
Ġfr ont
ĠLux ury
g ry
t ree
ĠHOT T
ĠADDICT ING
Ġ07 8
L ove
Du o
Ġave c
DD ESS
Ġapp etite
b unny
ĠW omen
ĠMan dy
Ġbliss ful
ĠAn ita
MIN S
ĠP ACK
S atisf
Ġref reshed
ĠVix en
Ġaddict ing
Ġfuck ing
Ġdream ed
ĠC ENT
Ġ: *
ra ising
Ġchar g
Res pectful
ont ario
Ġsim ple
Ġresp ons
ĠVIDE OS
ĠM istress
S p
ex ley
ĠXOX O
ĠC a
Ġro ll
OUN T
Ġeasy going
6 17
ĠUn it
ĠSte amy
S m
Ġs assy
Ġman icured
Ġlim its
f oot
36 5
Ġshame less
Ġouts ide
RI PPERS
Ġon es
ĠOn ce
Re lax
Ġwh it
47 1
ĠST OP
33 36
Girl friend
RI DAY
P RIVATE
49 3
ĠAS AP
V ING
ĠSil ver
Y es
ĠF ee
oo ke
77 6
ENT ION
{} {}
IC AL
f ford
il k
Ġus ing
mpt ing
ter fly
ĠA WAY
ĠN ationalities
Ġent h
b o
Ġt itillating
i ence
Ġf u
IC AN
Ġri d
apoint ed
Ġp ress
Ġex ch
Ġsm elling
Ġfe es
lip stick
ĠRelax ation
ĠD ouble
ens ed
velop ed
un head
Ġt itties
26 7
ĠK itty
ĠTh ighs
u ary
Ġreg ulars
Ġfigure d
20 5
AS TY
Ġcomm un
oug ar
Ġgrat ifying
P LY
ĠEX CE
iven ess
ĠFANTAS IES
Ġ1 07
Ġenth usi
w all
Ġc am
High ly
Ġc enter
ĠAl bert
ĠGO DDESS
ĠC oco
n ock
Ġpleas er
Ġ __
Ġex ceed
Ġstart ing
as ci
ic ally
ĠN iagara
Ġastonishing ly
Ġwe ak
Ġcert ified
Ġcomple ment
Ġinv ite
asci vious
M F
ĠHAM ILTON
4 34
ĠS TYLE
ĠT asty
r t
ĠApp ointments
E lite
ĠEM AIL
is qu
ĠM ong
ĠMong ol
ĠB OTH
if er
ĠPleas ing
ic i
ĠJ an
Ġrel ating
Ġinv olving
Ġk itten
ĠS at
Ġc old
Ġk ent
ĠPen is
ne ak
Any time
Ġal ready
69 4
: $$
ene z
ugg ing
ĠH wy
ĠD AN
Ġl ing
ĠR ub
OS E
ĠLA W
al s
ĠDe v
Ġpres ent
V Y
Ġm od
Ġcount ry
he eled
est yle
9 22
b osom
ĠT exts
de veloped
Ġsoci etal
Ġfigur atively
bosom ed
24 9
Ġt rip
Ġapp t
17 5
ĠH AND
Ġ2 67
lo y
ĠCO B
ĠTh ugs
Ġs er
Ġr ange
F ace
Ġc reate
Ġwith held
ĠEXT RAS
ĠRe ach
100 0
ĠH uge
LL OW
Ġentertain ment
ĠS im
e ur
ĠTon ight
w est
IC S
ast ers
um e
B usty
Ġa uthentic
Ġman ners
ĠAR OUND
Ġerotic ism
ĠWed nes
D s
Ġw ide
ĠV al
Ġwelcom ing
ĠT wo
Ġcomp lic
Ġcraving s
ĠD ATES
in t
n ice
ĠB UR
Ġ40 36
ĠTH UGS
Ġpo it
16 5
ain s
u ent
D rama
mi um
ĠACCEPT ED
Ġca ress
pe ople
ĠLow est
TR ANS
h ar
27 1
ĠLu v
P etite
ĠF UL
36 2
Ġnear by
Ġtim ers
Ġafter noon
Th ick
IV ING
V IP
b aby
Ġa verage
IR TY
BB BJ
Ġtyp ical
g an
ĠTH EN
Ġdr ugs
Ġwhe ther
ĠE ducated
EL LA
Ġg onna
R ates
Ġadd itional
le ep
ĠOR AL
ĠSL IM
ĠCh oice
Ġc ult
ĠW elcom
ĠD ec
Ġnot ch
ĠTe asing
ĠGEN EROUS
Ġcan not
ens ington
Ġsm ell
al ways
Ġbu ilt
70 8
d r
un j
____ _
87 8
ĠStr aight
ĠFemale s
as ons
< >
pr incess
ĠLap d
AZ IL
ĠM a
Ġdel icate
Ġm ain
ĠP orn
ĠJul ia
ĠVide o
ĠAIR PORT
ĠB oo
20 1
SO G
9 30
ĠAnge la
Ġatt end
ĠLook s
pl ies
Ġlif estyle
M A
Ġp ublic
OS S
ĠTHE Y
lim ited
R ole
ĠC le
ri ption
Ġn uru
G reen
M I
ĠBB M
Ġco vered
rece iving
Ġe vent
ess ica
Ġ07 40
ĠImag ine
hell o
Ġroom s
m al
ĠRe quest
Ġ9 75
ĠST RESS
K orean
Ġre du
ell ow
s pecial
ou ched
ent ry
Ġallow ed
ĠRel iable
Ġh oping
Ġcan ary
eri es
It alian
!! :
Ġselect ive
Ġlif etime
L ondon
ĠM AY
Ġend ing
f u
Ġlo vers
ĠF avorite
38 8
Ġp ix
ĠOri ent
Ġfulf illed
ĠL ate
me re
ĠFresh ly
Ġf our
ĠCater ing
T oronto
p in
on ica
ĠPROVI DER
$$$$$$$$ $$$$
Ġwatch ing
um iliation
ĠBack ground
Ġtyp es
E rotic
f our
ĠM utual
ĠF all
18 8
ĠTreat ment
K NOWN
Ġbb fs
Ġstimul ated
Ġxoxo xo
ĠM U
n ie
for cement
h alo
IN ESS
F A
T XT
Ġ3 17
ĠN ina
Ġre plies
AN E
girl s
Ġ075 48
re ct
ĠEx cept
ĠLi ly
ĠFIN EST
20 9
Ġle w
Ġs ince
Ġ7 5
Ġpr oud
ĠPAR KING
ĠBET TER
G entleman
y pe
ous ing
ĠA ri
6 18
at ina
ĠE UR
Ġe legance
T reat
Ġk ink
Ġther apeutic
Ġdet ail
Ġemp loy
ĠB RE
Ġp iercings
____ ___
27 8
Ġte acher
88 87
ĠUS E
ĠSee king
Ġexcept ions
Ġcomplement ed
Ġ: (
ĠL ic
ĠDes erve
Ġl uck
Ġon going
Ġpre ference
Ġfin er
g le
azz ling
ĠA way
ĠAn na
ĠBOOKING S
ĠIN DEPENDANT
ig er
Ġunh appy
2 14
ĠC atch
Ġex quisite
ĠS ugar
ĠF el
st op
Ġsk is
ĠReg ents
Ġh idden
Ġhook up
ĠP USSY
ĠL ine
ET TE
out look
ĠSp oil
k g
Ġdd f
S he
ĠB u
LA R
Ġch ick
Ġp ast
Ġr unning
enn ifer
ĠK IM
Ġsweet ness
Ġup d
4 85
Ġs ix
Ġb ait
ĠT EL
Wh at
Ġj oy
ĠKORE AN
P er
IN NER
Ġm ention
Ġnegoti ate
ĠChar l
Ġescort ing
ĠW EST
Ġind ulg
ĠDock lands
Ġprotect ion
.... .....
IM PS
Ġf abulous
LING TON
ĠB right
ĠL aw
ri l
Y Y
aj or
Ġincred ibly
u les
ur ontario
ĠSte phanie
Ġblow job
fetish es
L u
Ġde g
a vailable
Ġm ark
ĠE ver
ĠTant alizing
l ive
Ġget s
7 23
ĠR OCK
ĠAD V
B ALLERS
Ġcar ry
ĠWA IST
ĠPam per
ĠPACK AGE
Ġc r
Ġdif fic
Ġm ot
ĠS UR
ĠM IND
Ġr avishing
ĠAN ITA
Ġsecret ary
Ġe as
ĠBe aut
y ear
ĠB ianca
Ġseek s
ĠP ers
am i
Ġ7 94
Ġto mor
ĠH is
Ġt ast
ĠVER IFIED
Ġc algary
ĠF urther
ĠW ARM
ats u
7 24
ĠTon ed
6 35
ĠK now
Ġ07548 3336
ĠB lock
ĠBO YS
TA IN
] :
Ġim peccable
nd as
Ġinde pendant
70 4
Ġp rs
ial s
ĠTh ese
ĠPart ies
ĠFF M
AS K
Ġshow ers
ĠUN IQUE
ĠHOTEL S
work s
3 20
ĠPR ICE
ĠSATISF Y
Ġ) )
3 25
8 29
Ġton s
Ġfre ed
Ġthem selves
ĠW icked
ĠSHOW S
e m
p ite
An al
iz zy
ST AR
ĠS ESSION
st ant
Ġun satisfied
Ġ074 25
3 34
6 55
88 8
ACT IVE
======== ========
OTE CT
g en
ĠK eep
RI OR
ott le
49 0
Ġa val
Fetish es
Ġdiffic ult
Ġconfident ial
H ola
Ġs ight
COM M
vo ir
ING S
ĠWill ing
Ġtomor row
Ġfreed om
Ġredu ce
Ġenjoy ing
har bour
80 1
87 9
Ġ7 4
ĠExp l
Ġmemor ies
ĠN ext
ĠP api
58 3
Ġec st
D ON
Ġar r
are n
j o
Ġ ====
ext ing
c lass
ĠF irm
i atsu
ĠRESTRICT ION
ĠRO LE
I O
P e
Ġadvent ures
en zie
as ian
ĠY UM
EN ER
ĠS IZE
Ġp le
ĠF air
ball ers
Ġd azzling
Ġskin ned
ĠNat al
33 3
Ġr un
US IVE
Ġ xxxx
Ġa pt
ĠH ome
be ating
Ġther apy
Ġb g
ĠH I
Ġ7 69
2 25
6 38
b ooking
ĠSATISF IED
Ġseduct ress
Ġsurpr ises
ĠCompan y
ĠS her
ear th
n ext
ver t
ra pped
44 1
ĠSM O
ĠL es
90 4
f ill
ĠH WY
Ġspo iled
Ġimmedi ately
unj abi
ĠP ur
ĠWh atever
D eep
Ġl ink
Ġen hanced
Ġcertain ly
ĠMU CH
80 8
AR K
le ad
80 9
ĠJ ob
reat ham
Ġcup s
ĠMAN Y
ĠCLI ENTS
iss y
ct or
s on
ĠT ina
Ġred head
30 5
26 2
ĠCAR CALLS
Ġbl k
Ġ50 3
Ġintim acy
ĠGo ing
OUS E
Ġtal ent
Multi ple
Ġ \
ĠBL OW
Ġdescri ption
Ġdis appointment
3 60
ĠB ED
99 7
Ġexpect ed
L ook
UN RUSHED
ĠEt obicoke
IS A
ĠH U
ĠMIX ED
ĠCh es
ĠQ EW
ĠT oo
ĠK nock
**************** ****************
Ġ.... ...
8 39
Ġt rained
ĠC enter
ĠM orning
m ed
ITT LE
Ġrecomm ended
Ġshap ed
S orry
ĠL ick
25 2
Ġcos y
I g
ĠB reath
ime house
ant e
G r
ĠM ills
IN ESE
ĠPR ICES
Ġind ivid
ĠRelie f
m ind
in ed
Ġb ound
ian na
R ec
Ġn urse
ĠP ay
ĠL AD
in er
Ġh ous
ĠL ATE
ĠL imehouse
Ġp aired
ĠCross harbour
Ġind ian
Ġdr inks
2 85
m ulti
p ot
ĠS pend
ĠP SE
ĠLAD IES
m ans
ĠA im
ĠUn ique
DU OS
ĠE AR
C ancer
Ġrom ance
ĠW atersports
13 11
ĠBet ter
Ġm or
Ġp as
ĠTh ailand
ĠSh iatsu
Ġchar act
Ġ1 3
89 3
ud ge
gra via
W a
5 39
ĠI am
ĠK ar
Ġbar bie
ĠAl icia
Ġhapp en
ĠDes pite
ion a
CRE T
Ġbo ss
Ġdel iver
Ġcomp lim
id cup
ĠCo Co
ĠCONTACT ING
0 1
ĠL ang
ĠHE IGHT
Ġst ylish
ĠFit zrovia
Ġst rap
Ġarrange ments
Ġbod ies
9 38
A DE
G AR
L OW
Ġm iddle
ex p
com ing
port ion
ĠJen na
Ġtran sport
ĠSMO OTH
I ng
27 2
ĠJoh ns
Ġcomplic ations
ĠK EEP
Ġm ill
Ġr aces
ĠEx pect
Ġdisc ret
not e
Ġaccommod ate
9 46
Ġan im
Ġapp ro
ang erous
Ġsure ly
ĠFor get
Ġsw allow
3 19
hour glass
ier ced
OST ATE
F avours
Ġ7 73
ĠWITH OUT
ĠMess aging
quir y
ĠTh ree
ans fers
M EN
ĠA bb
ĠR M
ĠD RESS
ĠRE PLY
#### ####
ffer in
D isc
Ġ647 79
69 7
p ink
ent re
ĠRUSH ING
Ġinterest ing
Ġ nd
Ġread ing
B OOK
ĠK iller
ĠPASSION ATE
H ING
ers ham
Ġcon venient
Can adian
or ley
Ġ40 4
ou p
Ġas king
li pp
All ow
T s
ĠD an
ant a
ĠCh orley
ĠChes ham
ĠChorley wood
ĠCh alf
ĠAm ersham
ĠChalf ont
H ill
AI D
ĠAdd ress
ĠRoom s
l iness
om sbury
ven ience
A VEN
o ps
ĠPIC T
I X
s ex
Ġe aling
ĠH rs
ĠK y
Ġcomm itment
M en
Ġ4 89
Ġg one
Ġse ven
Ġc or
el ie
ĠA G
IC H
c ouples
i ac
Ġm ax
RIOR ITY
20 7
ĠBath urst
S unday
ĠD ear
OU LD
G IRL
80 3
Ġ7 95
ĠP IMPS
50 1
78 1
ĠEM AILS
ĠA VE
)) ))
ĠDisappoint ments
Ġcustom ers
ĠQUE EN
Ġl ay
Ġ1 18
Ġms g
ĠR D
Ġplay time
ĠL il
ITCH ENER
C ouples
Ġt oronto
ent ial
ĠEN D
hot el
ĠKat ie
Ġy ork
ĠEvery where
Ġboun cy
gh ts
fr aid
ĠBritt any
ed icured
-------- ----
ĠKiss able
Pro fessional
Ġa ir
Ġs quare
Ġbook ed
ĠBus iness
s l
ĠLo la
Ġrep ut
ĠT WO
ĠP OL
Ġper form
goti able
Satisf action
ĠBel gravia
Ġf avor
ĠO ct
H h
ab ri
ĠRole play
ech n
Ġs we
Ġs oul
ĠPim ps
Ġexch ange
lipp ery
ĠA IM
ĠE mma
Ġh ygienic
87 5
ick mans
ickmans worth
Ġh arrow
36 9
B ar
Ġm ut
**** **
ĠGe orge
Ġslo ppy
um b
lead er
x ley
60 2
ĠCh anel
ĠCro xley
Ġth ough
F ITS
c ream
Ġc alm
5 70
s w
ĠP INK
ĠEx c
ĠDISCRE T
MENT S
ĠARRIV ED
ĠBR AZIL
ĠPRE FER
edic ated
are st
unch y
ss a
ig in
R ichmond
ĠEar l
Ġquick ly
ĠI lford
COL ATE
A H
ĠFAC IAL
38 6
ĠBR UN
d om
all en
80 2
ĠSouth end
ĠDo gging
9 89
Ġinter active
ĠK ayla
iz es
ĠBr antford
Ġwater ing
29 37
Ġf oc
ĠL ITTLE
Ex perience
36 7
ĠGo al
Ġca use
Ġen chanting
Ġserious ly
Ġstart ed
Ġcl ick
J O
Ġj apanese
point ed
Ġspo ken
ĠDart mouth
ĠSH E
ĠT aking
autif ull
car amel
Ġgu est
ma ple
Ġtravell ing
Ġdirect ly
sh ow
99 1
22 1
ĠPr ince
d izzy
Ġst rip
iel ds
ĠAdd icting
Ġ38 4
ĠMen us
ĠFA V
ĠP assion
ch r
gr inning
ĠRom ford
Ġsupp le
88 6
ĠVen ice
7 18
ĠSm elling
ĠAr rival
Ġsett le
ĠHU GE
ĠHam pton
Ġm aid
Ġp ol
Ġcan d
rop ical
Ġclo sed
ILLE D
S c
Ġt u
ĠBlo omsbury
L B
ĠE glinton
ĠANSWER ED
st ock
Ġ2 39
ĠV enez
ra gr
79 7
38 4
h ire
Ġt ail
Ġw ar
RO AT
ĠPICT URE
m odel
ET Y
Ġfe mme
U CK
ĠH umiliation
ĠG all
Ġle vels
ĠAll uring
Ġrecomm end
ĠBRE AST
ĠC redit
Ġet r
Ġmonth s
B AR
Ġc urious
68 1
J UST
ĠM oney
ĠBe au
Ġsw eep
Ġexp ress
in ity
ĠN unhead
Ġ0 2
itch am
H ave
Ġa fford
ĠRe lease
ĠSex ually
Down town
en mark
ĠBlack wall
Ġass oci
ĠIND IAN
ĠPri m
ĠAPPOINTMENT S
A RE
Ġa fraid
Ġli ghts
67 1
ĠSex ual
ĠGate way
ĠPrefer red
N ot
Ġt ouched
Ġso othing
ĠJ ENN
ĠSp it
ch ing
ball ing
Let s
Ġord er
ĠS ultry
ĠK e
13 8
ĠOak ville
ĠPaul s
49 6
ĠSn apchat
Ġem ot
Ġawa its
ĠExpl ore
ĠEn t
B IN
V is
Ġme l
Ġtext e
ĠREQU EST
Ġmark ed
Ġb ase
3 16
U OUS
f lower
40 7
ĠTot al
ĠDEL IGHT
P r
p re
ĠT wickenham
ĠYour s
d ark
Ġbr and
FOR M
ĠL ust
Ġsweet ie
Ġde pending
ĠOpen Mind
55 7
ĠREQUIRE D
t i
be autiful
ĠPER KY
Ġrendez vous
ĠS ain
Ġh hr
ĠOn line
Ġwish es
L AND
ĠE transfer
ĠB exley
ON GE
are nt
se ven
ild s
oc ent
alf ields
Ġextra ordinary
is te
ĠHe art
FT ER
ĠDisappoint ed
ĠJam ess
N OT
o ff
48 4
ĠSpit alfields
ĠS idcup
P h
87 0
Ġexcept ionally
ĠSain ts
ĠK ay
ag ne
ellig ence
Ġstr atford
Ġto ler
ĠM ud
ind a
ĠRom antic
ĠPo ss
5 266
F oot
O VER
ĠL AST
ch ute
ess or
ĠLa ura
ĠNEGOTI ATIONS
ĠMud chute
pe pper
ach a
ĠS ITE
un a
Ġhum orous
ĠCurv aceous
Ġpar le
ĠCar calls
Ġh assle
ĠIN TER
29 5
Ġse lection
Ġaff air
ĠDev ons
ro s
Ġwoman ly
ĠCl ick
ĠS ands
ĠH OME
ĠPro f
ĠBeau voir
ĠDon ation
ĠRoom mie
Y LA
f ish
ĠT an
AK ED
Ġbare back
Ġaccompan y
7 22
Ġn aught
Ġsp icy
ĠEN FOR
Ġhis panic
ĠSIL KY
Ġp ear
ra bb
27 6
Ġd ear
ĠRes idence
ty S
Ġro se
r r
Ġag ree
re view
55 6
7 10
ESS IONS
AUT ION
80 6
M ISS
Ġd iamond
Ġun matched
ĠPrim rose
ia h
li er
Ġhealth y
ĠW ON
ĠCHO COLATE
ĠF ew
ud es
ĠAg encies
4 88
ĠJ w
Ġfemale s
ĠMin utes
ĠEUR OPE
Ġecst asy
adi ant
iqu es
ĠDesc ription
Ġindivid ual
ĠEsc ape
ĠS afety
ĠN ative
ĠM er
ai re
6 19
at iable
ĠMESSA GES
ĠV i
ierc ing
ĠBall ers
Ġw icked
ĠM o
sh ort
ĠCH INESE
CUR VY
ĠHis panic
Ġg reek
ĠT ie
47 0
30 9
ĠTues day
ext ra
ĠDu ndas
Ġroyal ty
Ġb ond
ĠC y
Ġ- $
ame la
== =
ĠS a
-- :
AN DY
for th
Ġtr ouble
Ġtant alizing
Ġh urry
ĠP E
ĠSouth all
ĠCH AR
An na
Ġcheer leader
Ġb rains
ĠS IM
ĠF OUND
ĠBeck enham
Ġl unch
es mere
ĠS ESSIONS
ĠC UP
ĠPur ley
ĠA thletic
Ġs la
ĠTO LER
Ġperfect ion
vers on
ĠEl verson
on or
z e
it er
ol ie
Ġ7 7
07 4
ĠRay nes
ou ver
80 5
ew ife
vo id
ĠSilver town
ĠM itcham
ĠLang don
Ġv alley
ĠP udd
ĠD i
Ġst aff
Ġexpl oring
49 2
Ġtw ice
ĠM adison
Ġn ative
fer ry
Ġ________________ ________________
ub by
Ġdist rict
ĠC ASH
ic le
ĠWest ferry
ĠShe ppard
Ġcap able
J U
ĠSt ay
2937 63
ĠG la
Ġwh ose
ĠPAR K
Ġseduct ion
Ġhell o
B ook
Ġb isexual
ne gotiable
ĠTot ally
C om
pan ol
ĠQU ICK
Ġviv acious
b ank
d one
Ġc ostumes
Ġwork s
Ġval ue
S ervices
ĠCh ilds
love ly
Ġaccommod ating
Ġ0 208
Ġ074 38
ĠEarls field
ĠP M
ĠBEL OW
ĠHarring ey
ĠOf fers
any a
ĠP onto
ore ham
pr us
ĠCut tyS
ĠGall ions
ĠCy prus
ĠPudd ing
ĠPonto on
ĠCuttyS ark
m ens
70 6
ĠLe vels
AT IVE
Ġcompan ions
in ing
: >>>
ĠB oreham
ĠOut CALL
ĠEN TER
Ġqual ities
portion ed
Ġroom mate
- (
ro le
99 5
ĠSTR AP
ĠBoreham wood
ĠK AT
Ġrole play
ĠMay be
ĠO uts
vi e
ĠSt eeles
Ġ80 7
Ġw altham
ĠSt ud
ĠTH AI
Over night
5 68
g ing
Ġout fit
Rec ent
a use
LL ENT
Ġ9 8
ĠTurn ed
ĠWednes day
ĠA FTER
Ġ ^
Ġm ir
Ġent ire
ĠMal den
you ng
Ġest ab
Ġcudd les
3 12
Ġyou ve
IR T
Ġvar ious
_-_-_-_-_- _
A y
Ġk ensington
y ellow
Ġa ction
Ġar rive
p assion
ĠC ATER
ĠBlo or
Ġ _-_-_-_-_-_
Ġt rain
ll a
Ġf el
Ġso phistic
ĠPen etration
, :
2 16
ĠT aste
ĠF RIDAY
++ ++
Play ful
Ġsin ful
Ġc atch
K inky
66 7
p la
Ġwarm th
OINT ED
AS Y
27 3
Ġc redit
40 6
ĠMag ical
6 31
ĠT ex
ĠV aughan
Ġwor d
Ġstand ards
Ġd isease
Ġp ull
Ġcar calls
sp orts
Ġcur ling
Ġlist ed
Ġb ud
Ġint elligence
anc ouver
b ably
ĠI d
Ġbr ings
fire works
GET HER
IK KI
Ġp i
ant el
CE MENT
ann on
ĠSp ice
ĠLe g
ĠVIP Favours
GG Y
p ril
Ġl ater
Ġstress es
ec ts
OR AL
ĠEn vironment
Ġdiss apointed
ĠPers ian
bank note
B locked
Ġun iforms
Ġmyst erious
F IR
ĠN AKED
ĠAn D
con f
Ġavai ble
Ġhous ewife
4 60
ĠB P
or able
ĠH urontario
46 4
eri or
urv es
OW ER
w ill
Ġb OO
ir ing
... !!!
Ġmo ved
Ġsch ool
Ġfore ver
L IE
our ney
ĠLE GS
U PSCALE
l an
s ite
ĠL IGHT
ĠOUT FITS
c lassy
ĠText ing
ĠMIN IM
F UN
ĠE v
fl ash
ĠMAG IC
ĠSk ill
Ġ20 16
b ath
ĠAl perton
Ġreg ion
ĠTr uly
M ER
l isted
ĠBooty licious
S omes
Ġa void
OM B
Ġspecial ty
ĠCOMPAN ION
ĠC AUTION
EN CE
2 37
9 24
ĠH ag
ĠG BP
ĠD iner
ie ve
ĠCon f
ĠBUR LINGTON
re lax
Ġact ually
S PE
s peak
ĠM edium
ĠBe fore
Ġro s
Ġkiss er
ĠRE CE
Ġ30 4
AK VILLE
ĠFr isky
ĠP unjabi
Ġhun gry
ĠCOMPAN IONS
Ġtant al
ĠLapd ances
C rystal
ing er
Ġre ward
ĠTHE M
Ġstimul ate
Ġp ort
Ġth rill
ĠWE IGHT
O ral
ĠC are
ĠOut Call
Ġqu ay
J amaican
ĠR OUND
j u
ĠBB F
ĠNOT ICE
ĠAlex is
Ġ07425 293763
ĠE T
7 15
50 6
ack ed
26 3
Ġre asons
18 18
ĠRos y
id es
play ful
30 8
ĠTr ust
ro g
Ġres idential
Ġlimit less
OTECT ED
B ow
Ġb s
ĠC at
ĠBE EN
23 3
ĠDISAPP OINTMENT
ĠSUN DAY
Ġor igin
Ġgreat ly
9 20
ol ous
ire n
AP T
En joy
B IG
:- :
Ġetr ansfer
H IP
ĠSo on
ĠRES ID
Ġposs ibly
ĠNum bers
ĠNa omi
d ash
ĠNeed s
ĠViv ian
Q uality
if ferent
Ġk g
Ġluck y
ph y
ĠBAR RIE
F ant
Ġprom iscuous
Ġ# '
ĠPR OSTATE
ANG U
in calls
Ġsophistic ation
Ġp or
ĠL INK
ĠW onder
OO S
R ATES
AY LA
ĠBRUN ETTE
ĠP AM
ro l
R ATED
Ġm i
ĠF et
ĠNOR TH
P re
Ġf ragr
ĠF le
ap t
ĠSE CRET
less ed
nt mn
ĠT U
Ġd ancer
Ġcharg es
Ġv ulgar
ĠCANAD IAN
ĠENFOR CEMENT
ĠD ancing
or g
IN KY
Ġsp ark
R AL
ĠR UDE
Ġinn ocent
4 13
9 70
v ana
ĠJ ames
30 6
H am
Ġp air
ĠCh rist
ĠTOLER ATED
ĠF akes
ĠSh aved
S ervice
p ush
bb j
OR K
ĠPLEAS ER
Ġp oint
ĠG OT
ĠDEAL S
87 3
AP ORE
m ature
it is
ar ies
39 1
IC IOUS
Ġapp s
69 20
ĠM D
IC O
Ġdo ctor
Ġpar adise
Ġfor m
oo s
a ur
pec ts
Ġentertain ing
ĠPAM PER
ĠD ATE
ut call
Ġrest riction
Ġac cent
ĠDock s
push pin
Ġo h
! *
Ġ3 15
Ġdisappoint ments
ord ing
ĠEner getic
ĠMINIM UM
2 29
27 7
ĠDO OR
ĠAccept ed
ri min
ĠHe alth
27 4
on coming
il son
OM BS
35 6
t ight
Ġy ummy
ĠH onest
ĠWh ile
ĠFeel ing
: ...
b ies
Ġ eth
ad es
LE D
ĠJ ade
Ġsens itive
ĠARRIV AL
Ġpi ece
8 17
Ġstay ing
! (
ĠT ASTY
Ġspec ific
ES DAY
Ġtransport ation
D G
St rap
ĠAd vent
ĠT ERB
ĠH urry
ĠF EE
ĠSp arkle
ĠDES IRE
he l
ĠB oth
Ġmut ually
dd d
35 5
ĠD IRTY
itch ing
bo at
N ON
i at
ĠK i
ret t
G o
M ORE
Ġt attooed
ĠF ollow
ott ish
He aven
ĠN ude
Ġwould n
ĠBed room
Ġfamiliar ity
tw ice
9 67
Ġun forget
with out
ĠSt acy
Ġpe ach
G TA
Ġv ous
Ġlight ly
Gu ys
ĠT YPE
ack ages
Ġut most
ĠK ITCHENER
Ġ8 505
ĠY ONGE
lo or
ĠGold en
TO YS
Miss issauga
7 47
oo re
ĠJ az
ann y
Ġri mming
Ġven ue
1 34
N Y
ĠA rab
S ATISF
ĠW al
77 0
64 1
Ġfulfill ing
ĠWOR K
riv olous
85 6
Ġarr ang
ĠH OW
ĠD addy
23 15
ĠST E
........ ...
Ġa v
ĠT im
ĠEvery one
ache l
Ġpress ure
87 15
Ġ 05
Ġal tern
anna h
Ġlic ensed
Ġvoy eur
j ax
Ġp us
Ġun in
aint ain
ĠC ouple
Ġr isk
LA ST
ĠOVERNIGHT S
d ale
ĠA F
ĠM ain
ĠF isting
ĠStr and
H and
k h
Ġf aster
ac ing
u dy
99 6
Ġ1 28
Ġ3 80
55 8
ĠAlex a
Ġfall s
ĠCOMPANIONS HIP
pe at
T all
ĠB achelor
Ġn un
1 19
2 13
s am
ĠC ath
ell ect
ĠMe mor
ĠW ish
US E
wh at
99 4
Ġche f
K iss
Ġbut ton
du os
w omen
Ġw r
Ġ8 37
ĠWANT ING
Ġ1 647
OMBS HELL
n c
Ġext ensive
at o
ĠM arket
UN T
ĠLO VES
ĠMar ried
Ġs ore
Ġd ue
O D
Ġp ers
ĠIndones ia
Ġn asty
Ġ- --------------------------------
ĠFACIAL S
f resh
p retty
t ri
ĠIN T
87 7
ĠInclud ed
ĠL ast
88 2
Ġdoor s
L atina
Ġserv ant
Ġhand ful
Ġnor mal
ĠGentel men
as ic
pend ers
ĠTO GETHER
Ġphotos h
Ġgla m
f old
h icle
ĠW atch
oo gle
ĠUn iversity
65 4
ĠW AL
so g
Ġbro ad
D ay
t iger
Ġlo vable
Ġindulg ing
Ġs now
ĠG re
ĠW asters
Ġdis p
Ġimag ination
Ġsin fully
b ed
m as
Ġsh opping
Per fect
8 68
E Y
S URE
Ġs ns
ĠS URE
34 1818
ĠVIS ITING
at ory
ĠV ancouver
br own
ĠN aturally
Ġ07438 341818
id inous
SW EET
ĠCOND OM
Ġbound aries
ĠATT ENTION
ĠS ep
ĠN SA
ur l
ine au
ĠMan icured
Ġactiv ities
Ġn erv
ht m
Ġser ver
ĠNOT CH
ĠBA D
Ġg rab
ap ists
ĠH old
AT i
Ġpro bably
Ġear lier
Ġroom mie
Ġpri est
Ġenthusi astic
APT IV
E ng
OO O
ĠHot t
Ġbad ge
ĠCur rently
S K
Ġd edicated
Ġr ing
Ġli bertine
app hire
Ġemploy ee
Ġhe at
Ġsens uous
L IMITED
ĠCol our
Ġunderst anding
Ġpain ter
t oys
Ġv an
ĠRom ance
I s
c c
en ces
OW O
IT TY
Ġ7 79
ĠHE AR
omb ia
ANN ED
ĠEll esmere
D FK
Ġa vaila
ĠD ATY
Ġ3 60
!!!! !!!
wh o
G ENT
y la
y les
ur ora
star s
ĠFO LLOW
Ġpat ient
ĠCAN DY
ĠReg ion
5 10
ĠS C
ĠE ager
te res
ĠEn c
ĠDisc rt
h ugging
ĠJ aw
ANGU AGE
le e
60 7
ĠHour ly
Ġsm oking
ct ive
70 2
ĠDO LL
ĠPr ice
ĠDISCRET ION
3 80
Ġj udge
UR S
ĠIT AL
; -)
A fter
S U
ĠE at
ĠMar ch
ĠG ia
37 6
Ġcare free
8 65
P leas
ĠC i
13 22
~~ ~
ĠWill iam
Ġque ens
. $
Ġd ances
ĠIn fo
ĠST A
B ooty
me ad
et ails
Ġis n
16 1
g in
ĠS ingle
ĠOut Calls
.: *.
ĠRelax ed
47 5
CH EL
ĠSEDU CE
AL WAYS
IN Y
ĠLu cy
)( )
e very
la in
Ġ7 93
37 1
t ics
| |
ĠP A
98 4
Ġentr ance
ĠJENN Y
O r
Ġac cess
ĠW ick
ĠCOL OMB
Ġload s
ĠWonder ful
ĠW i
IRE CT
r d
er otic
al iyah
ic ed
ort lake
ĠCli ent
Ġamaz ed
Ġsurpr ise
inch more
Ġeas ily
H alf
ĠF UR
Ġbe passion
un ky
Ġcan adian
ĠSh annon
St ars
Ġmu sc
ic o
Ġr ichmond
Ġdist ance
ĠC APTIV
60 3
Ġwor ds
Ġconf idence
ĠPol and
ĠTE M
ĠA pril
oo o
ĠH onor
Ġblack listed
li via
9 39
f rom
ĠC UTE
Ġv ary
ĠHE AD
Ġwood ford
ĠAP PE
ĠBRAZIL IAN
8 25
Ġint ens
Ġcomm and
ĠD IRECT
com p
ĠPre mium
Ġt our
ĠS af
ex otic
Ġ( $
AN C
Stars Escorts
Ġbe autifull
934 47
G REAT
ĠA va
ĠR UB
ĠV ulgar
ĠIn Calls
Ġ-- >
M ar
ap s
Ġclient ele
ĠIm peccable
ile y
w atch
Ġto tt
ĠL IST
00 95
sh ire
ĠBe en
ivid ed
ĠC os
ĠT ANNED
Ġdes ired
Ġ20 9
Ġvi g
p ics
Ġg ate
ĠAll StarsEscorts
90 3
m ine
ĠC ici
Ġto wer
Ġn ine
ĠSE L
_ ^
Ġt attoo
ĠR are
34 1
Bl ue
ĠĠ ĠĠ
B re
ul i
ĠTh ames
98 3
Ġag es
Ġt el
ĠME LT
ĠSP O
D ont
t l
es omes
ĠP osit
26 5
po ss
Ġb other
ASSA GES
ien ne
Ġb ra
all e
Ġvi br
Ġball s
S eductive
Ġg l
EN A
ĠB raz
Ġj apan
77 2
d ont
ĠL ower
ĠIn v
ĠSK ILLED
Ġturn s
XX XX
Ġver ify
Ġsom etimes
g ent
w or
ĠS assy
ENT ED
Ġdz uck
ĠCh oose
Ġaim s
ĠC atford
ĠJ UL
gn ant
Ġreput ation
ter ing
res pect
Ġtr icks
ĠT oy
ĠRo ck
wix site
ĠADV ANCE
L y
ĠSweet heart
66 66
88 4
N ow
~ *
up erior
D om
ĠH ugs
ĠEl tham
ĠVer onica
h ollow
OR IA
Ġ?? ?
ĠAbb ey
ĠA LEX
ish ops
Ġ7 92
Ġbu x
glass es
Ġ07440 2315
Ġ074402315 95
D O
J uicy
ĠFUR THER
9 16
D e
ĠRe ad
ĠS IN
Ġcont rol
teres ts
ai ley
Ġ4 9
AM A
18 5
ĠM ot
Ġv ol
ĠEnt icing
ĠPoss ible
Ġreal y
Ġopt ion
n ly
ar ines
ĠR ivers
ĠV icky
Ġl perton
Ġ4 1
IAN A
Ġpart ic
Ġmax imum
Ġunin hibited
ĠC raving
ĠL an
reak y
ĠNew ham
EL LY
urnt d
k s
Ġas pects
Ġbig gest
ĠSt reatham
ĠCharl ton
P RE
W alk
ĠEVERY WHERE
Ġimpress ive
ĠD ix
23 9
OS IT
ĠInt rodu
ĠDREAM S
Ġbux om
Ġ0 9
ĠEXPERIEN CED
ĠBare back
W ant
Ġst udy
Ġp et
Ġy onge
Ġpro portioned
ĠPROVI D
ĠPar is
8 33
.. :
ak ville
Ġexpress ive
Ġc ra
ount ains
ĠMAN DY
angerous ly
7 19
Ġ6 5
Ġcurv ed
ĠThames mead
ĠS us
Ġkiss ed
ĠO lymp
c ap
Ġstress ed
Ġred bridge
ĠPal mers
ĠTer m
ĠWal worth
ĠA ly
Ġ4 95
Ġit alian
A CH
E bony
ĠA vai
// /
ellect ual
G U
R S
ĠWor king
ad zdz
Ġ07 75
Ġaltern ative
Ġs ized
ĠM ONEY
ĠM ortlake
ĠW inchmore
Ġ22 1
ĠLOW BALLERS
Ġf il
Ġc oco
us es
il ar
Ġ9 61
ĠX X
Ġpl an
ĠCENT RAL
Ġc ougar
Ġno on
ĠGla morous
ĠS ARA
e asy
fin ed
ĠO AKVILLE
bro ken
ĠSING APORE
ĠOuts ide
d is
ĠB OMBSHELL
Ġ________________ ________
ĠOlymp ic
d E
ĠB orn
ve il
ĠH ARD
el it
lo ving
ĠWhit by
Ġmove ments
ĠCh ristina
Ġlat in
A d
Y onge
Ġp ierced
ĠWhat s
ĠLU X
d D
as ed
ĠH ygienic
!!! :
OL D
HE ART
Ġ>> >
BL OCK
ĠBreath taking
Ġ ice
ĠB ra
ind i
RE T
IS ON
ĠCAPTIV ATING
Ġcudd ling
Ext reme
GO ING
g as
ĠW in
ir vana
Ġj ourney
ĠT ri
C hr
Hey y
Ġbl ood
IM I
. **
ĠT attooed
ĠHam lets
ishops gate
2 36
Ġ40 2
Ġus ually
ĠFull y
ĠF EW
ĠH il
ĠEsc ors
20 2
60 8
05 35
ĠB ishopsgate
30 2
ĠHAND S
Ġle arn
Vis iting
Ġin ternational
RIPPERS ANGELEYEZ
echn iques
Ġb on
ĠB ALL
Ġdream ing
here itis
ĠPen ge
Ġs s
Ġm orn
pl atinum
Ġgift ed
up scale
ich es
sp ct
ĠStud ents
6 40
Ġh oli
Ġbr un
ĠFle et
ex ican
Ġfeel ings
und as
Ġ{ }
ona ity
V IS
k ok
Ġc aucasian
il tern
Ġsm oke
me an
Ġ< <
ĠBo is
U PT
ĠR ye
Ġgla d
ĠLan es
ĠF rog
ĠSens uous
N T
ĠT ia
ĠM ale
au cy
AST IC
ĠBarn sbury
Ġ ___
Ġm ile
ĠL ISA
ĠR ickmansworth
ad ia
Ġ$ $$$$
Ġ7 17
29 7
ger ston
TRANS FER
ĠHag gerston
l Crystal
s he
ĠCh iltern
ĠThe ydon
23 1
ĠCar penders
ĠKings lan
ĠBrondes bur
ĠTerminal s
ĠBus hey
ĠHarring ay
dD enmark
ĠFrog na
9 78
ĠF K
gr oups
ĠDes irable
P A
PAR T
ĠGO ING
Ġcourt esan
ĠC as
Ġv ac
ĠLo vers
IT TER
ĠBB B
AM EL
ĠReg ret
ĠL ANGUAGE
Ġ!!!! !!
Eng lish
k rain
Ġg ir
Ġ5 38
allen ge
ĠB elle
ĠP riv
Ġd ans
str uck
ĠKnock out
ab e
Ġ9 17
ĠSO PH
Ġener g
I ts
in id
lo se
Ġnegoti ating
Ġshould er
ĠAffection ate
ĠENTER TAIN
V O
Ġ- --------
VIC E
re a
at ic
ĠM AL
ĠComplete ly
w ise
Ġch ill
ĠWH Y
Ġcos ts
ĠK INKY
xx y
ĠLe ah
fic ial
ĠPOL ITE
ĠMer cedes
ĠJ ennifer
EE t
Ġbeg in
Ġm aintain
th anks
Ġexplo its
Ġa head
ĠC and
ĠM axim
Ġback gr
ĠTAK EN
Ġchamp agne
M OR
b elie
Ġs incere
Ġc reat
ĠAP PS
Ġweek s
OVER NIGHT
Ġmir ac
Ġsens ational
ĠGR AND
Ġver ified
Ġpen etration
j uicy
ĠSh ots
Ġinv est
Ġb reat
um ber
ag s
57 2
Ġprs onaity
C oll
Z EL
AN ING
ĠHOTT IE
Ġmod est
Ġ07 95
ĠK ink
min a
Ġke ele
ĠBEL LA
Ġbackgr ounds
X Y
m ag
OO L
CT ION
ĠPe ople
' ,
ĠLes lie
d es
Ġis s
ĠCos play
6 89
Ġan x
28 2
ĠSWEET HEART
ĠH assle
ĠSTAR T
f et
s ns
ĠP OSS
ĠRe aL
ĠEx quisite
ĠChar lie
krain ian
ght y
10 6
Ġfin ally
58 45
7 45
W ill
ĠS ure
Ġg rabb
Ġdis respectful
OL UPT
K A
h old
Ġa go
Ġo wo
ED Y
ĠDIRECT LY
H appy
el ia
Ġclear ly
ĠGe m
Ġg arant
ĠH el
Ġperson able
Ġd est
ĠK ate
# ,
Ġ ????
Ġ* (
ĠG ina
ur o
ĠF oxy
ĠMON DAY
Ġros es
+ )
8 13
ĠI R
ĠIn ternational
Ġfin ch
Ġter m
S w
ĠP S
ult ip
ĠSo f
TE LL
Ġcomp assionate
ĠTW ITTER
Exp licit
ĠN IKKI
de ally
Ġsh aving
ĠPIC K
Ġkind a
Ġ< >
Special s
Ġ ie
Ġh ob
ĠW ay
ĠW OULD
RES PECTFUL
2 80
U LY
p ds
Ġb razilian
nd a
ĠA UT
Ġe l
Ġ07 495
ĠFu N
b ooty
f il
Ġc ell
ĠB U
Ġapp ly
ĠSPO IL
Ġd aty
IRT AT
C I
ĠP ounds
Ġ7 74
ĠCut ie
aren teed
ĠB isexual
ĠN ames
IRTAT IOUS
ĠJ ay
ĠRE TUR
Ġ^ _^
A BSOLUTELY
Ġst ate
Ġsw t
ĠHR S
: >>>>
ĠF lexible
ĠG rey
b oy
Ġ4 17
ĠPerfect ly
ĠFac ials
Ġo b
ark ing
ĠDISCREET E
ĠF la
Ġcall ed
fl ut
o R
r ay
ĠE V
Ġ3 35
Ġam use
Ġle ather
He ight
ĠTAK ING
C he
Ġr ubs
bl onde
ĠX RATED
9 12
Ġg ntmn
ĠT UR
OLUPT UOUS
! ...
ir ch
ĠSU KI
flut tering
ĠD ifferent
ĠFANT ASTIC
ĠWOM EN
Wild Extreme
WildExtreme Fun
2 19
Ġun safe
ĠbOO ty
Ġp u
ro ck
Ġ, ,
Ġch ic
ang le
Ġstimul ation
s qu
Ġpre gnant
ĠFace Time
* :
Ġs alacious
ĠMy self
Ġopen ing
ĠTH ESE
C UP
ĠP iercings
h ave
ĠC U
AN AL
Ġen forcement
24 5
D IE
Ġha ven
36 6
ĠExtra ordinary
Ġwaltham stow
8 67
ĠS Q
ĠST AY
ĠSK YPE
Ġslow ly
" :
en i
ĠF iona
Ġ34 5
ĠViv acious
ĠLust ful
& &
per fect
ĠCOM ING
Ġaccommod ated
Ġtri m
htm l
Ġr spct
Ġhe athrow
Ġsouth wark
ĠHard sports
Ġy a
Ġin quiry
Ġfragr ance
Ġf ilip
c he
RE CENT
29 4
ĠDE V
aa a
Ġy e
Ġ07 90
IG ENT
ĠST UD
ĠUN T
Ġign oring
Ġas iat
Ġke y
ĠYUM I
TELL IGENT
Ġ3 20
ET IME
88 1
ĠMAR K
Ġ075729903 11
617 04
: _
Ġm am
an ese
Ġl ambeth
ty le
15 61704
ĠAl ice
W arm
ĠRo x
ĠSm art
ĠOf f
ĠNot ice
uel an
ĠKy lie
Chr ist
ll y
ĠI z
ĠUN KNOWN
ĠPHOT O
Ġbath room
P ics
ĠCath arines
Ġli p
ale d
Ġent hr
Ġpres ence
ĠRES PECT
ĠCON S
7 25
ĠS i
ĠP U
ĠAc c
ĠWAL K
Ġnerv ous
ĠS car
ĠCH AT
ĠMESSA GE
Ġpound ing
ĠA ir
R IM
T y
ĠDO GGY
ĠMeet ing
Ġeng age
ĠS N
Ġv r
ĠREG RET
ĠS AME
Ġ5 50
Ġ6 50
ĠA VA
ĠB on
Ġl oose
ĠUS ING
LO E
ĠEXCE LLENT
ĠLUX UR
if ul
Ġins atiable
N AUGHTY
ĠT ow
RE ADY
99 2
Ġserv is
ine ment
Ġ074 48
ais on
ĠS an
66 2
ATi ON
ĠTO Y
Ġint ellectual
aw ai
Ġfl uent
Ġglam our
35 8
Special y
D AYS
ĠCo vered
ĠB oun
ĠEn tr
Ġide a
m ates
ĠB oy
ĠDISAPP OINTED
le dge
Ġc u
ren a
key cap
Ġkent ish
Ġre peat
89 9
Ġlow ballers
: ))
N aughty
th roat
Ġdisc rimin
ENN EDY
MI UM
Ġappro ach
Ġh i
th en
ĠJ oin
Ham ilton
Ġs um
Ġb es
ĠQue bec
Ġenthr all
ĠS ame
ĠC al
Ġto oth
24 4
ĠMal iah
Relax ing
un rushed
80 81
( )
C IOUS
P en
d ent
64 2
Ġlist ener
ĠG ift
ĠD etails
ĠAT TR
D inner
f ile
z ing
er ts
ĠF IT
ĠLO VER
Ġc ookie
ĠM es
Ġun iversity
rict ed
ĠOPEN ING
T on
ĠF ind
ĠDur ham
Ġ1 90
14 9
ĠPla ces
O ld
BLOCK ED
B ack
` '
e en
ĠLo cal
Ġbene ficial
ĠLa ure
SATISF ACTION
M BER
g ie
Ġspo i
Guarant ee
ub a
ĠEX ACT
ĠC OUR
ĠIN TELLIGENT
12 8
18 4
b ee
f le
on y
ĠS OM
ĠSw EEt
Ġprofile s
Ġi am
4 87
b locked
ock s
ĠCOM BIN
ĠC ert
la p
ĠD ep
Ġam ount
ĠALL OW
ĠGR K
EN t
69 88
ĠR ED
Ġst uff
Ġrespons es
E uropean
ĠSING LE
ĠNot ch
ĠInclud es
Ġactiv ity
ĠDani elle
GENT LEM
Ġd fk
Ġz one
t all
Ġ9 07
ix ed
ĠPl Ay
SU PER
Ġ2 05
Ġwatch er
Wa iting
fet iches
B RAMPTON
G L
Ġex hib
ĠLU CK
Ġc entre
Ġsh aring
Ġch allenge
ĠSP iC
Ġpur suit
Ġm ild
Ġc ool
ent ly
PORT ANT
Ġen quiries
A t
f rench
Ġw itty
un e
Ġout door
Ġfoc us
or ity
ĠE s
ĠP ink
Ġ1 16
ĠBec ca
Ġrefresh ing
ĠPOSS IBLE
ĠB urn
ĠW here
Ġspo ts
Ġund oub
Ġf ess
07 47
] ]
ap ist
ĠEven ing
ĠRETUR N
Ġm is
ur b
Ġe ight
erv ed
ĠLux urious
Ġspank able
Ġpre cious
ĠEar ly
ĠANGEL IC
Ġb unny
ĠE ASY
Ġo F
ĠIn Call
ĠEL ITE
ĠSIM PLE
Ġbreat he
8 18
Ġl ithe
ĠF AST
Ġj ou
M ASSAGE
b idden
ĠM OM
Ġref inement
Ġjo bs
ĠG fe
xo x
81 30
ĠINCLUD ES
t witter
ĠBr ing
ĠInt o
ĠA PART
ĠW ATCH
ch ester
Ġeng aged
ĠRespect able
Ġtoler ated
F ETY
M ING
V e
Ġyou th
ĠE r
atis tics
Ġt x
Ġs up
Ġli e
ENT IC
Ġsl ut
ĠWOR LD
Ġcommun icate
ass ages
Ġal ot
ĠE VA
44 4
Ġupd ated
ĠIntrodu ce
b u
Ġf ut
ro phy
Ġ5 70
Ġ7 38
Ġperson ally
Ġend s
8 15
u ghty
Ġ9 30
Ġt end
end ra
Ġact ing
GA IN
M in
s pe
Ġa ch
ĠS etish
ĠS uperior
19 2
ĠAMAZ E
C am
Ġr acy
Ġ40 34
OX O
ĠP or
ourt esan
ĠGr k
stant ly
9 15
M OUTH
ĠO WN
Ġse ule
Ġassoci ated
Ġun able
Ġhapp ens
Ġke e
ĠSm oker
ĠReg ular
Ġall ure
Ġso f
12 2
ĠOPEN MINDED
Ġ075 223
6 75
h ots
Ġpay ing
Ch inese
::: ))
P assionate
h hr
m ac
ed on
oo led
70 3
ĠNE AR
Ġdefin ed
ĠTE ASE
ĠLap dancing
ĠB UM
LE TE
Ġyoung er
Ġreg ard
BE AUT
P l
ĠS peak
ĠTe mpting
Ġcudd ly
ATT OOS
8 62
D omin
D OWN
g enic
p or
Ġ075223 93447
47 6
ĠV ICT
ĠJun e
Ġ079 30
Ġaddict ion
Ġmove ment
Ġcomplim ent
: "
ĠUN SAFE
Ġpl ane
ĠN ature
ĠM et
Ġtravell ed
ri x
ball er
F l
ĠNew market
ĠCar ing
ĠLOVE LY
Ġb ien
Ġde mean
ĠPREFER RED
ĠITAL IAN
Ġp edicured
24 2
ĠCom ing
ĠIs abella
Ġxoxo x
ĠCO VER
5 67
Ġ5 81
o ise
Ġm ate
Ġf ancy
ĠM A
10 8
PH ONE
th at
Ġst ays
Ġs ale
ĠS uki
24 6
SH OWER
ĠProf essor
Ġrspct fu
7 68
u nder
dash ing
er im
ĠM IMI
Ġmo ves
Ġcl it
Ġany more
Ġfam ous
GENTLEM EN
Ġt imer
ĠO livia
ER OTIC
ĠCOMBIN ATiON
p ill
Ġp ec
ĠN adia
Ġon line
ĠY ORK
Ġ87 7
ti pping
d a
Ġt re
ĠS AM
ph ro
u R
Ġfe isty
ĠKIND S
F REE
d ENt
hh h
uis hed
8 14
77 47
fin ity
dis iac
phro disiac
B US
ĠN i
Ġ7 25
65 9
ĠDo ggy
Ġamuse ment
Ġm ountains
99 3
Ġco quettish
ĠS uggest
ĠT AST
ur bs
Ġoff ice
B ay
ĠT AX
Ġam ong
Ġ4 10
E VERY
h aps
am ing
66 1
ĠProvid ed
Ġju ice
Ġint ended
Ġmiss issauga
ĠTu i
ĠUNT IL
Ġseule ment
Ġas ap
ĠDEL ICIOUS
! ?
9 23
it ic
ĠS ET
Ġ** *****
Ġsub urbs
Ġstud io
Bar rie
T ake
Ġ4 55
il ver
Ġso l
ĠPLAY TIME
ĠFE M
ĠCon venient
Ġbright en
xxxxxxxxxxxxxxxx xxxxxxxxxxxxxxxx
ĠATTR ACTIVE
e la
ĠS ec
Ġ2 36
Ġdiscreet ly
oth es
Ġbutt ocks
Ġporn star
Low est
Ġles bian
ĠD IF
out y
Ġund ivided
u u
ĠNo v
ĠJ uly
ĠYou ll
ĠFant astic
ĠRES P
ĠDur ation
34 2
ĠBO BO
pro state
AZ Y
ĠCOMP LETE
alle jo
ĠAUT H
P al
i ery
u ity
u ries
Ġh orn
ech less
5 31
Ġt ending
ĠB C
Ġ( ((
16 8
pr ise
ĠFall s
e ous
ĠS ummer
ĠT anya
ĠG i
Ġv ictoria
ĠVI X
Ġorg as
ĠTAX I
ĠV OLUPTUOUS
qu aint
Ġpres ented
ĠJO B
ĠIz abella
o on
le vel
Ġp c
Ġen j
15 85
Pro state
Ġlew d
Ġf anc
Ġun load
Ġsensual ist
28 4
fr ont
5 75
s ub
Ġw rapped
ut ch
ir king
sm irking
UM P
Ġgla morous
Ġin stead
Ġthrough out
S in
o is
Ġb urst
Ġd ining
ĠH ER
Lo cation
6 99
I FT
ĠB rains
Ġre fined
89 1
ab elle
ard z
ĠBE HA
ĠEN SURE
Ġlux uries
:_ :
d omination
Ġst ars
ĠK ristina
Ġun like
St ock
Ġposs essing
Over nights
ĠAdvent urous
Ġt ropical
Ġknow ledge
ĠSA DIE
ash ion
ĠSens ually
Ġspir it
special s
Bre ast
Ġenthrall ing
BUS TY
F reaky
G et
Ġt n
it ud
ant ies
ig g
Ġsp ot
Ġwant on
ux om
. !
Ġp aid
ĠK rist
ĠPR F
ĠDoll ed
Ġdress ing
Ġhob by
S L
S lim
Ġ07 399
Ġshower ing
Ġbas is
FIR ST
hots exy
Ġt out
Ġb ull
ĠM ASSAGES
Ġst ations
ĠST D
ĠSc ottish
Ġvalley s
os en
84 39
Ġdoll ardz
819 85
Ġ0785 81985
st opping
Ġconfidential ity
j a
** :
Ġne arest
Ġli ved
Ġsh aven
77 1
67 4
ĠPl atinum
b es
b omb
ĠL ik
37 9
08 11
form nc
Ġcustom er
Ġling eries
Ġenerg ized
D omination
i ant
Ġmiss ion
ĠRos a
l isa
ĠC lose
Ġo dd
ĠL anguage
20 3
ĠSh ayla
ĠDON ATIONS
CA USE
ĠIndones ian
ĠTEM PT
ĠInv iting
2 883
h ill
y nam
ĠM F
ĠV ar
oll y
ĠDress ed
sh aved
Ġdisc ounts
ĠA mina
if ts
Ġ7 98
ĠEx clusive
ĠWant ing
ĠSub missive
ĠFla wless
able d
Ġdazzling ly
B rampton
C ute
I am
Ġs ign
ĠP URE
gen uine
ĠSPiC yy
F ri
g reat
00 0
ck s
vi p
ĠOUT GOING
Ġ) (
ĠSH Y
Ġregular ly
Ġdist ract
Lu scious
arent ee
M ARK
Ġbig ger
oun ge
F uss
T i
on ible
isc ent
Ġhigh way
Ġinto x
ĠLINGER IES
ĠMongol ian
c oin
o g
Ġl ascivious
67 40
Ġarous es
ĠKat rina
ĠNat asha
Ġpass able
S am
c ute
ĠB UB
ĠM IA
ble m
34 4
ĠEX PECT
66 12
Ġ0 8
part ment
Ġa ka
om ach
ER N
iv al
review s
Ġvig orous
Ġpartic ular
ĠVICT ORIA
A pp
Ġ3 33
anc ais
Ġs at
Ġbe l
Ġleg it
3 268
ub r
li ed
Ġkind ly
Ġfemin inity
b usty
ĠS erve
Ġ35 9
48 66
ĠCA RE
WE LL
F resh
N eed
s ervice
ay a
99 317
ĠKiss er
919 7
ĠLOT S
Ġafford able
s er
Ġsex iness
B T
ĠD ist
Ġ: -
47 7
Ġch osen
57 3
compan ion
Ġs neak
Ġf ri
ĠM uch
Ġ- :
sh ooting
26 1
Ġopen ly
Ġte mple
spark ler
h ou
at rix
Ġf ood
ant ity
itt ed
AK ES
Ġmiss ed
Ġ----- -
ĠDISC OUNT
Ġmor als
Ġintens ifying
Ġlocation s
pl us
ĠAg es
Hour s
Ġentr ancing
Ġbase ment
on nect
50 7
ib idinous
75 3
Ġcapt uring
A c
Ġp osition
ĠW ork
Ġre m
ul chr
Ġth in
ind ulg
ĠPar adise
A tt
s eek
EL PH
Ġint ending
ĠMY A
ĠBE CAUSE
Ġattract iveness
Ġfac es
Ġact ive
Ġrep air
ĠAUTH ENTIC
ig ate
25 6
23 2
Ġdis playing
ins ome
ĠCOND O
ĠO L
Ġe man
ame less
ĠUn til
Ġad orable
Ġsuggest ing
cup iscent
Ġdist ing
^^ ^
M outh
f ant
ĠG abri
Ġ5 29
ec her
ew itching
Ġspecial ize
44 2
ĠPick ering
Ġexcessive ly
Ġanim ated
seek er
7 13
W ARD
u pend
ĠP AID
ĠL ena
47 4
Ġr isqu
Ġover t
eriz ed
iqu ant
ĠAcc urate
Ġexhib iting
edon istic
Ġeman ating
upend ous
U LAR
h ither
Ġt ex
Ġst ately
ĠIn cred
Ġsh oot
Ġass erts
ĠMan chester
Ġrest rains
Ġreg rets
olupt uary
ĠJun o
Ġtempting ly
Ġappealing ly
Ġfoot baller
uri ent
fl igate
bar itic
quest ion
Ġdep icting
osom y
Ġcat like
ĠGentel mens
Ġlic entious
oes que
Ġcharact erized
Ġstylish ly
uli ar
poss essing
Ġpec uliar
Ġfanc ily
itud inous
ubr icious
ulchr itudinous
indulg ent
Ġrepair man
echer ous
Ġt s
Ġ~ ~~~~
fo x
Ġcl othes
ĠMongol ia
le tt
ĠJ ane
Ġle y
Ġhead s
ĠShow s
Ġcla ir
ĠDIF FER
D ONT
ul ation
res ent
SEX IE
Ġanx ious
Ġs ilk
im al
ĠSPE ICAL
! ,
ĠA V
ĠO lympia
ĠW ATER
11 1
44 3
Ġt at
Ġsh out
Ġwe mbley
inid adian
M INE
ush room
OO SE
ĠAn s
Ġt one
Ġs ummer
Ġ9 16
anc ial
ĠPro blem
Ġsens ations
E d
m ushroom
Ġt able
29 2
ĠCAR AMEL
A C
D oll
IT ION
66 3
ĠSp unky
ĠTR ANS
Ġfair ly
Ġattend ants
ĠBUB BLE
Ġc ards
Ġamazing ly
ST R
Ġseduct iveness
Ġbeg inning
ĠiN dE
Ġ vers
Ġh ounslow
im i
ĠEX CL
IL ISH
ĠSU B
Disc rete
IT UDE
reen ing
Ġfuck ed
Ġ____ ___
GL ISH
O akville
Ġb ang
he els
Ġlook in
ĠIt aly
ĠEn chanting
Ġqual ified
ĠT INY
id ences
Ġphys ically
Ġpus ssy
Q u
ĠH indi
Ġtow el
ĠMess ages
ĠWelcom ed
6612 263
Ġley ton
ĠS pank
40 77
Ġ9 93
Ġt est
ĠH ad
G iving
N URU
c ouple
n rous
in ting
Ġm edium
ic ating
ĠM ak
ĠD angerously
ĠTH AN
id z
99317 36
4 14
U C
V oluptuous
Ġp ict
Coll ege
ĠEV ENTS
5 69
N ame
N ATURAL
d ate
ĠIn terests
36 8
ĠUp sc
ĠAC COMM
hou ette
ĠACCOMM OD
ĠC UB
ĠM SOG
ĠD un
Ġdoll ars
ĠFa ith
kok a
Ġp iercing
ĠP AY
ĠRo xy
iz a
Ġprofession ally
ted ly
hotsexy k
Ġg rip
ĠM S
Ġgu ide
AM AZ
ara h
Ġmemor y
ĠLew d
P ICS
ĠA TH
ĠRECENT LY
c urves
Ġth irst
AR ENT
89 8
ĠSPECIAL IST
s orry
ac u
ild ing
Fe male
5 61
s ive
ass les
Ġ6 95
EL ES
LET IC
ad el
ĠLi bertine
ĠWeek end
. ))
: +
d ance
Ġt ried
as min
Ġre ek
ĠK ENNEDY
ud ia
cl inking
St op
OUN DS
E mail
N iagara
ĠR achel
ĠW aste
PEC TABLE
CRE D
x i
all ery
87 4
Ġgreat est
Ġfeel s
squ inting
n aughty
Ġg entlemens
Ġconversation al
[ ]
t ure
ĠSt ri
ĠFOR GET
ME ANING
6 80
I r
ĠL ES
ĠK I
ĠApp le
ĠBec ause
Ġp ackages
ĠPRE MIUM
Ġblow ing
Ġsurpr ised
Ġ;-) ;-)
ĠRA RE
C ING
G i
P RO
w r
ast urb
08 16
AMAZ ING
ĠE urope
Ġar se
EE K
F it
Ġturn ed
ason able
disc retion
ĠDOM IN
Ġperform ance
g ain
it ish
Ġball ing
ĠXo Xo
Ġ975 1
% %
Ġh omes
Ġar rival
38 1
AK S
ĠCH ARM
Ġimportant ly
A IR
F ILL
S P
j ects
ĠD isease
sp ok
Out fits
ju ven
Ġarrang ments
Ġkee ps
P addington
Ġ lean
ĠP m
ast ing
Ġreal ize
Ġ9 4
ann ered
Ġorg asm
M ake
85 8
Ġche ek
ffer ing
S ub
Y OUR
ana is
Ġquick ie
................ ................
ĠATT ITUDE
F irst
Ġ ess
Ġs tone
IT IES
77 5
__ $$$$
ĠSt atistics
ard en
ĠSW ITCH
28 6
ĠARE AS
Ġh undred
ĠT iana
Ġnice ly
ĠSEX IER
Ġtrouble s
ĠPORN STAR
Ġa bility
Ġl and
Ġ~ >
Ġ90 9
Ġfel t
] --
An ge
v p
Ġs aid
48 2
ĠCL ICK
ĠPRF CT
5 30
ub urn
ĠQ ew
ĠCO CO
ĠSex iest
ball oon
ais y
SPE AKS
N D
Ġa w
ĠS iren
ĠG entlemens
Ġwh t
Ġmasse ur
Pro vid
mmmm mmmm
ĠPark way
10 2
Ġfit ness
ĠRES PECTABLE
ĠDesire s
ĠS UG
ĠA wesome
ĠB oring
ee le
35 4
Ġnum e
FRIEND LY
ĠWelcom ing
Ġasiat ique
n ail
Ġs ave
Ġsp ace
ĠPro vocative
Ġte eth
. -
ĠEXCL USIVE
sm oker
Ġco ast
ĠNot e
ĠLik es
A g
I deally
ĠH awai
99 20
Ġac quaint
$ ,
j our
Ġc ury
ĠT ype
ĠH EL
AR IO
ĠCo quettish
ĠTAL ENTED
r ine
he ther
ĠD irect
ct ions
........ .....
ĠS educt
ĠT RI
ĠAS H
22 8
299 5
Ġdisting uished
c el
ment al
ĠUN D
Ġcol our
x T
re lla
ec onnect
Ġwild cat
PLAY FUL
m el
ĠU krainian
Ġgirlfriend s
800 0
PR OTECTED
e ky
ĠA jax
th ick
Ġ< :
bb bj
73 99
clo ver
ĠDAN I
o ber
65 26
Ġpush ing
yn n
Ġ ========
Ġl isa
77 65
ĠATH LETIC
ĠTO LL
Ġ9 9
ĠSOM ET
Ġ60 6
ĠT at
Ġ7 76
ĠWa it
Ġwish ing
Ġ0745 9931736
<> <>
Ġt ra
Ġ: -:
Ġass h
car at
Ġlik ed
M M
Ġo ak
ĠLu cious
Ġp un
Ġp arts
ĠH AS
JU ICY
7 60
ĠA urora
ĠBO Y
ĠPam pered
ot ing
Ġis lington
AT FORD
St r
mm m
58 1
ĠHE AVEN
Ġlist en
ĠCOMPAN Y
ĠWorld s
G reek
ĠK h
Wh ite
Ġacc cess
Ġtr uth
Ġvi p
Ġcond ition
Ġhim self
ĠDan forth
M MF
c rescent
un teed
25 5
37 5
Ġpl umber
97 3
ENS IVE
Ġcol ombian
Ġgl ance
UC ASIAN
Y ES
u L
Ġt ick
th ree
ove red
S panking
ene ver
ĠB bbj
lo g
ĠPh oto
ĠBack page
: >>
ĠR IM
ush ing
........ ....
br unette
NE GOT
exp erienced
v s
ĠSt and
5 15
H azel
c er
c ake
---- ---
Ġtouch es
Ġ69 1
Ġspe echless
Ġ89 6
ĠBlowjob Hand
9 31
Ġbe long
Ġsm oker
Ġ** ********************************
ĠAd v
rush d
ĠVide os
ĠAns wer
M a
Ġ ??????
el ina
ĠAm ple
ĠMel anie
ird rie
Ġs izes
ll ll
Ġb le
ĠC ons
Ġthere fore
Ġnipp le
k es
Ġo o
ĠL ive
Ġhe aling
Ġ7 99
Ġsqu ee
ic ation
am azing
Ġr adi
Ġget away
Ġsim ilar
9 64
ĠR avishing
END ED
Ġmo ving
Ġf ooled
ĠP amela
Ġd Add
34 8
Ġgen er
Ġinterested in
Ġfit ter
Ind ian
ched ule
Ġdri ving
ĠdAdd ie
C UL
Ġdo ggy
ĠVenez uelan
T op
Ġf est
Ġbe c
60 5
89 4
ĠSTOCKING S
E asy
Ġdel ights
aur ant
Ġg re
aj e
Ġsurround ings
Ġpeach y
Ġye ux
ĠF avours
ac ts
Ġpo le
ĠTR ULY
Sh ow
ĠChest y
Ġsqu irt
ĠBREAST S
Ġp al
Ġst ro
37 2
ber ly
ĠCR AZY
Ġpower ful
Ġ075483336 18
ĠEXACT LY
Ġ: ::
Ġ54 1
16 9
Ġopen ed
ĠEAST ERN
ĠJ ADE
20 15
39 8
Ġ075483336 19
B ut
ĠD aily
Ġcomp at
ĠMO VES
Ġdev il
ĠM exican
ĠBr ick
ĠNatal ie
ĠSt ylish
Ġ647 69
Ġfriend ship
Ġoil s
Ġrequire ments
Ġpur p
ĠPri ority
Ġspir ited
Ġ6 62
Ġch ubby
Ġ07 59
28 1
ĠJaz mine
S M
x ed
Ġtr s
78 6
pol ish
C uban
ĠI D
ĠB um
36 1
ĠHold en
ĠACCOMMOD ATING
h ood
Ġc ost
ve mber
ĠH ab
ĠDe fin
ĠCol ombia
ĠFL IRTATIOUS
S k
ĠA aliyah
ĠP RIORITY
Ġ1 85
ĠH o
ur ning
il st
ĠU B
EL LE
qui pped
Ġte mp
ĠBA IT
add ies
off ice
ĠAly ssa
h ips
Ġprep ared
elit econnect
E r
s omes
ĠT L
Ġfor bidden
ire s
uss ian
ĠCar ol
br ooke
ĠG IFT
Ġ07 55
Ġag encies
ĠINCLUD ED
ĠB REAT
Ġbas ic
gn rous
Ġhy p
ĠP O
Te mpting
Ġexplo de
Ġcompat ible
h ol
l ished
Ġg rove
um i
T IGHT
Ġt it
ĠI vy
ĠBr ooke
Ġ15 00
f all
r issy
ĠA GAIN
ĠP s
Ġ4 27
um bian
Ġ. *
BEAUT IFUL
5 795
t a
Ġadv ant
Ġbud get
ĠL IVE
Ġ* :
ĠHE LL
Ġawa iting
ĠBREAT H
el er
Ġr a
Ġint ri
Ġmodel ing
Ġshape ly
Ġb lessed
al ina
68 4
ĠHE AT
mer cedes
ĠSTR ATFORD
ĠNegoti able
Ġundoub tedly
wr iting
O ICE
Ġ3 25
Ġj olie
36 4
Ġdream y
Ġintrodu ction
Z Z
ĠG ender
ET S
ĠTH URS
RI PT
Ġim port
ĠEng aging
ĠKORE A
Ġunforget able
ĠSUG AR
y ed
ĠW orth
ĠUn matched
SPECIAL S
IK A
ĠR OS
ile t
ĠEx actly
Ġim ages
ĠAd ri
ĠRoom ie
As ure
Ġed ge
Ġple Asure
L INESS
d ot
ĠT axi
ĠH ell
ĠFac es
ĠJo anna
Walk ers
L i
ĠW inning
Ġk ar
lo pe
Me et
ĠPROVID ED
ĠN DG
Ġn ails
entlem ent
Ġhour ly
Hi i
ĠCar nal
Ġco ffee
Ġult ra
Be auty
gest uring
re g
ĠC ount
ĠT itillating
AS HA
26 18
ĠMind ing
Tr ansfer
ĠFO OT
ĠH ONEY
ĠSh y
ĠOct ober
ĠDEV ILISH
Ġs lippery
ĠL usty
ot he
un n
th ough
Ġexp erim
Th ank
ĠB uxom
Ġfor mer
ir th
com et
36 3
ĠProm iscuous
Ġgent el
ĠBo ss
ĠRa unchy
Ġpoit rine
ĠOrient ation
Ġimport ance
+ ,
D undas
i dy
ĠC oy
Ġn one
ĠF IL
PEN dENt
98 1
Ġcand le
ultip ly
bu ilding
ĠC rom
Ġn irvana
ĠR andy
UN D
co hol
Ġallow ing
ĠCrom well
ĠSt acked
Ġj essica
VE L
ĠCh erry
br ace
ĠEs panol
ĠDIFFER ENT
Y A
ĠS aucy
ĠT AI
ĠF ascinating
ĠR adiant
Ġre cept
ĠGU ELPH
ĠAr ousing
Ġgr oup
Ġtail ored
z t
ĠA phrodisiac
ĠR acy
Ġ4 34
Ġk ill
sh ine
ach ine
97 2
Ġrep resent
ĠEXCE ED
Ġvac ation
ĠC UT
ve lope
Ġpear ls
C AN
Ġs am
ĠS alacious
ĠAm orous
Ġbreath taking
ĠFr uity
a wn
m axim
ĠF AR
ill ia
IT ISH
ĠSh ameless
ĠBr and
ĠAr ound
Ġmo or
ĠCon versation
ĠGuy anese
ĠB ewitching
Ġg urntd
ĠSA FETY
ĠCANAD A
ĠSUR PR
ĠEAR LY
Ġcor por
ĠSOMET HING
ĠH edonistic
ĠL ascivious
sc an
AT AL
ĠTH ROAT
Ġde f
ange l
ĠWater ing
ĠWant on
ĠBeaut eous
O ne
T here
n ut
Ġc aters
ĠB osomy
ĠT arty
ĠP iquant
ĠP ulchritudinous
Ġo per
ĠF rivolous
ĠL ibidinous
ĠL ubricious
ĠL echerous
ĠR isqu
ĠR ousing
ĠG amy
ĠW insome
ro ll
ĠV oluptuary
ĠSt upendous
ĠMe gan
ĠAm ative
ĠAm atory
ĠPro fligate
ĠSex ed
ĠPr urient
ĠJun oesque
ĠPre possessing
ĠDream boat
ĠSy baritic
ĠCon cupiscent
ĠSl inky
ĠSin uous
ĠLic entious
ĠFel ine
ĠFet ching
ĠBraz en
ĠSuggest ive
p alm
Ġt ie
ĠO k
Ġcon vers
ĠIM PORTANT
Ġassh ole
ĠT y
ĠF AKES
Ġattract ed
St unning
$ -
T wo
ĠT ooth
ĠAnd rea
ĠLO L
ĠCH OOSE
ĠCOU PLE
ĠS ALE
ĠV oice
Ġ9 6
Ġham pstead
Ġfinch ley
F IN
Ġw in
ent ina
be ing
ĠSU CK
ĠSe lect
person ality
ĠCond os
NE VER
Ġtott enham
M arkham
oo ling
AR NING
ĠIncl ude
X x
Ġwh om
AS MINE
66 5
Ġet obicoke
M on
N e
Ġb attersea
eri od
48 43
ĠCLEAN LINESS
Ġp outy
Ġto oting
ur ity
Ġst amford
Ġpla istow
ĠTer b
Any one
r ates
Ġw atford
Ġw imbledon
ĠS ora
Ġst omach
ĠLondon B
AP Y
Ġsec ure
ĠTL C
ĠS av
UL GE
Ġwhit echapel
Ġkent on
Ġgu yes
ub bly
od es
4 27
ĠM ONT
Ġde ad
ĠApp s
CHEL OR
7 67
ĠC ookie
ĠP OST
ĠG ot
35 3
j ac
ĠRush ing
aster n
03 14
Ġadvant age
ĠP LE
AT M
33 89
635 3
Ġg ym
ri mming
ĠLondon H
78 27
ATUR DAY
Ġwest minster
ĠM il
ĠNo vember
Ġst aring
ĠK iki
IC ITY
Ġbl ur
Ġdoll ar
Ġmot el
ĠL EE
Ġ07 48
Ġd pla
Ġn icole
la ce
ĠD INNER
Ġ3 70
Ġclean liness
ĠBL OND
ĠAtt end
Ġcheap est
ĠRECE IVING
ĠSof ia
s exual
Ġ1 21
Ġ587 77
ĠBR ING
eliteconnect ions
Ġ47 14
J o
W AN
r v
w ant
ĠE TH
Ġre juven
oo f
59 66
iste red
Ġbeautifull y
B aby
Y s
as weet
ĠB ob
Ġg ross
Ġgentleman s
J e
ĠV ip
Ġj aw
Ġ8 49
ĠEn j
Ġmale s
Fant astic
p etite
ĠFulfill ing
Ġsix ty
S un
.. '
ĠP ix
Ġ6 629
ENT E
Ġposs ess
Ġche m
T S
l ift
ĠP UM
64 3
ĠWor ries
ĠNatal ia
8 12
st ances
Ġwhat s
Ġblack s
29 6
ĠDD s
T EL
c ard
ou ts
ĠM usic
Ġth inking
ĠIn finity
ATE LY
ĠFin ancial
ĠETH N
7 32
s ize
ed d
ĠBl iss
ĠEN GLISH
@@ @@
A CY
est iny
ĠBLOCK ed
ĠFin est
cy cl
ĠAR OUSE
ĠPe R
nic ole
ĠMs g
Ġ8 22
Ġmasse uses
917 8
I ET
i h
ĠM ORN
Ġ1 200
Ġ70 2
belie vable
c ia
ind fold
ĠANY ONE
ĠFE AST
Ġradi ates
Ġm ummy
ĠIn n
ĠPRO VO
ĠFUL FILL
Sin fully
M ATURE
Ġs ets
LL S
Ġdes irable
ĠDeal s
Ġwit n
ĠMemor ies
g ress
ĠS CH
Ġin stantly
ĠIn ch
Ġdo se
Ġlew isham
ul ent
ĠNEED S
con venience
FR ENCH
d sm
Ġc ush
Ġ3 31
65 1
Ġexclusive ly
Car call
Ġcra ved
ĠTAI WAN
l ies
ĠD rive
ĠDun lop
ĠB RI
ĠB ears
SA PP
ĠDE MEANING
Ġphoto gra
Ġbull sh
Ġfest ival
! ;)
OU BLE
arm en
ff ic
Ġ27 2
f illed
ĠL onely
ĠBre nda
sk ull
ux e
al ut
Ġg ag
b i
at re
ĠR l
ĠG nrous
Ġ4 86
ĠDON ATION
ĠWOR TH
Ġestab lish
ĠCi ara
n n
Ġp ds
ĠH UM
Ġ2 15
ge ine
IN DY
17 7
Ġqu it
ĠMus koka
c odes
Ġs ought
Ġm as
Ġan ge
Ġne g
50 54
ct ual
Ġte ach
ĠMag gie
HOUR S
ĠWEEK END
tri angle
ĠCUT IE
ĠSATISFY ING
ĠMak ayla
Ġt echniques
ĠW ANNA
lo gy
ip e
ĠBrit ney
Ġaval iable
ĠAPPE AR
Ġvibr ant
G ive
w hel
ur k
Ġb ite
ĠB AY
Ġd ou
ĠR ATED
Ġboo ts
ĠET C
4 19
M UST
w j
Ġs isters
ĠS pe
Ġc rystal
st e
ES SA
25 7
$$$$ $$
stars escorts
ĠALLOW ED
// //
ĠSp inner
ĠBUT T
Ġcorpor ate
v olt
Ġs exting
Ġw c
ach es
Ġtempt ation
ĠRELAX ATION
ĠSu zie
ĠFUL LY
ĠAPPEAR ANCE
volt age
C overed
P ls
e mail
Ġt res
Ġh assles
Ġd iv
ĠDo ing
ĠSome one
5 46
d ani
m ultiply
Ġc lim
ĠN EXT
ĠW T
AN CY
ĠReal ity
ĠCh loe
Ġper f
38 69
LO VE
ĠV allejo
ist er
10 9
ĠSh oe
45 1
Ġfac ility
scan ada
V i
ate g
60 9
ĠBA CHELOR
ĠPER B
model scanada
`' ..'
Ġconversational ist
S s
el icious
Ġ7 77
Ġde pend
ĠOri ll
L imited
l ights
ce lain
Ġhe y
meriz ing
D RAMA
u ed
ĠE ach
ant y
Ġi M
27 9
Ġcla im
J en
d eep
or ary
Ġb uck
al i
83 29
ĠKIM BER
ist ry
ĠS om
ĠS chedule
EN HAM
ord an
in cl
ĠO T
Ġin ner
Ġso le
Ġad vert
Ġ) :
ĠMale s
N ESS
b um
n ever
r ub
s ervices
ĠC REME
86 37
He els
ĠFL AT
2 17
Ġp pl
ex perience
ĠV OICE
45 9
sk ills
NE Y
but terfly
Pen is
R ed
o pped
ĠP ole
ĠO RI
Ġ3 32
Ph one
c um
Ġ. :
?! ?
ific ation
M ore
ĠL inda
Ġsh oes
ĠWHAT SAPP
Ġweekend s
ĠChrist mas
ĠOrill ia
ĠS anta
Ġ34 42
Ġll llll
Ton ed
ĠTEMPT ING
ve ux
ĠV e
ĠPleas ures
ĠDist rict
N N
Ġre ve
Ġ3 90
Ġ;) .
ĠYork dale
Ġllllll load
v lie
Ġb rom
nd s
Ġf low
Ġg em
ri but
ĠMIN E
Gu elph
3 40
C heck
E s
P ost
T IM
Ġc ottage
al ented
Ġn ationality
ever green
Ġm odels
Ġc irc
Ġrecept ion
9 68
l f
re ally
ĠS PEND
ĠF ort
Ġli ves
Ġpriv ade
Don na
Ġham mersmith
ĠDISAPPOINTMENT S
Ġsnow balling
O ur
Ġh ers
Ġl adbroke
ĠG od
L a
e bony
f y
ind s
ĠTh an
12 1
ĠTe mpt
multi ple
E ar
Ġ1 587
ĠW ilson
gh an
Ġour selves
Ġgreen wich
ĠPosit ions
mac ulate
ĠC ANT
Ġj ane
ĠEXT ENSIVE
Ġdescri bed
Wh o
Sm all
ĠASH LEY
our se
47 2
Ġne igh
Ġ587 40
Ġte am
CAR CALLS
5 20
L ap
U r
m ount
ĠI ce
50 38
ĠCh at
Ġfull er
ĠBE ING
ĠGU Y
ĠLOC ATED
ĠKe pt
ĠMARK HAM
ĠW I
ul ts
13 94
PP ARD
Ġgr oups
sl ide
ĠiNdE PENdENt
A vail
o let
07 7
180 2
ĠSoph ie
L ady
Ġh om
sm ooth
46 2
ĠLe aving
Ġtaste ful
Ġlast ing
Ġes pecial
!! .
Ġst oke
ĠK Y
ĠRE ME
ĠME L
ĠCh air
Ġgent ly
Br itish
Xo xo
ĠTAST E
reet ings
IT ES
34 9
17 6353
Ġnew ington
lyn n
Ġ07495 176353
urk ish
t imer
Ġs ac
Ġg ur
B LACK
ĠC ant
Ġ4 94
Ġtrad es
ĠSl ough
Br unette
ĠFAV OUR
fish er
h air
ĠA ug
Car calls
Ġcomm itted
Ġquest ion
ĠS exting
ĠY ear
Ġwh ilst
Ġv auxhall
13 6
ĠTR OP
Ġfilip ina
Ġpurp ose
8 22
Ġs i
ri bean
Ġper haps
Ġbuild ing
Ġpen ny
Pr otected
irth day
H air
ĠLo ver
ĠLO LA
ĠAdd ict
Domin ican
Ġchem istry
B urlington
S TA
ĠGU ARENT
ĠT ips
car fun
ĠEVEN ING
DOWN TOWN
P ut
m iz
Ġp ract
ost ing
Ġfr uit
ĠEXPL ORE
9 66
e re
ĠM ack
ot te
Ġ3 30
Ġen quire
24 8
ib ilities
67 2
Ġhill ingdon
Ġbar net
ĠBoun cy
Ġcush ion
ĠREME MBER
M i
s ix
ĠE uro
ĠG lass
Ġis nt
Ġsh ots
Ġpla in
Ġco f
Th anks
ĠEUROPE AN
Ġp urple
ĠRe asonable
Ġno ir
Ġwe b
Ġcon venience
ar unteed
ion ate
Ġam b
IL I
ithe ld
Lo cated
Ġ `
89 7
Ġ9 98
ĠAm az
Ext remely
Ġb p
Ġh ar
Ġ9 25
45 6
ĠDD F
Ġstand ard
ĠCert ified
Ġintox icating
ateg ory
6 39
9 80
w ord
Ġ6 134
AR ING
Ġapp les
ĠUp on
ĠLU V
Ġ____ _
clo sed
every one
miz mercedes
U U
b ell
c ontact
ĠNOT HING
ange ls
SK IN
Ġch erry
Ġwa vy
ĠTi Me
Ġpull ed
g entlemen
ĠD aisy
st riptease
Ġsp orts
YS TAL
Exp erienced
VIS ITING
Ġstone bridge
Ġf iery
it i
ĠE AT
ĠRE COMM
V ED
ew el
rie la
Ġfla v
ĠDISC RIM
ĠDix ie
Ġpet it
Ġholi day
! ..
Ġw ines
Ġf ashion
ick i
Ġ20 1
att ed
ĠCo ast
ĠPER FORM
ĠLeg it
G BP
Ġplay ed
cycl one
P RIORITY
ĠCh antel
45 3
ĠS QUIR
act or
AS ON
AS TA
Ġeng aging
Ġach ieve
y l
ri ence
Ġthere esomes
ĠSp icy
Wh en
Ġdemean or
! **
A bsolutely
b in
w aving
er rie
ĠW ww
Ġst arts
te ous
ĠCALL ING
UST OM
Ġgrabb ed
ĠUn wind
LET S
{}{} {}{}
ck enzie
te mber
Ġspecial ise
Ġ075 347
Ġdz tyle
ĠDis abled
Ġdzekh y
adzdz age
M an
ĠD RI
ĠX ox
ĠLaw rence
E legant
T ot
re quest
Ġres idences
95 9
wh ile
ĠSu ite
AB LY
Ġvoy age
ĠDani ella
8 30
K ISS
g ive
Ġ9 32
iam mizmercedes
4 390
P IC
ĠSPECIAL TY
ĠCO F
ĠTREAT MENT
Ġpal ace
! ~
la d
ĠF LA
ĠTROP ICS
t rophy
or al
ĠS apphire
Ġe quipped
ass ie
IS TER
13 1
IF F
Ġd raw
Ġskin ny
14 2
ĠCla ir
Ġfr ancais
:::: ::::
Y ork
ĠM iko
ĠInt imate
cup ation
Ġc ase
00 36
ĠAn a
ĠAvai ble
U ALLY
Ġ }
Ġb itch
Ġto wards
ĠTO TT
ĠCOM FOR
Ġlick ing
ĠDi or
ĠTOTT ENHAM
C U
F el
K S
g fe
Ġm ajor
87 190
ĠTH INGS
Ġback page
rie f
87190 42
Ġc al
IC I
DD s
Ġhum iliation
Ġ==== ==
638 3
B razilian
ĠM imi
Ġar ms
85 3
li ble
Ġ+ $
Ġqu antity
Ġ' (
ĠC ont
Ġr al
Ġknow ing
Ġsoft est
H UR
Ġk inks
ĠIn CALL
qu irt
Ġper mission
70 9
URE D
TA WA
ĠFS Night
ĠSu c
ĠDelight ful
Ġpict urs
ĠS edu
ĠS earch
Ġto i
ĠP UN
ĠWH ILE
Ġdress es
ĠFe et
ĠIND ULGE
Ġ0750 8719042
ĠCU DD
ĠRECOMM ENDED
S carborough
Ġs ation
Ġm ilky
ac ular
Ġ30 2
EL D
ĠEnjoy ing
ĠRELAX ED
Ġt ips
Ġsh all
Ġadd itive
ĠCla udia
ĠAny one
ĠMONT REAL
F ive
S KY
ar ie
49 7
Ġmind s
ĠAmazing ly
ĠTr inidadian
Ġconvers ations
ĠRe member
ĠSt acey
Ġj un
Ġun limited
Ġfe ed
ĠTh ings
ĠST ABLE
ĠDIS RESPECTFUL
ĠDr inks
ĠCur ve
Ġcommun ication
ĠCOLOMB IA
ĠB it
She ppard
5 80
ĠF o
ĠSt atus
UN KNOWN
21 16
Ġcult ure
ĠFAV OR
at ie
ĠH ALE
Ġ- ----------------
ad ow
19 7
Ġ00 447
LEX IBLE
4 67
P OL
Ġto ilet
sun flower
ĠPERFORM ANCE
F IT
H T
Ġw itheld
Ġvi ab
ĠT EX
Ġar m
Bl ond
Ġdiscrimin ate
ĠHawai ian
F rom
ĠE ros
Ġh wy
ĠH OUSE
ĠTh ose
Ġ07 77
ĠBEHA VI
m ax
ĠP iC
Ġ7 9
ĠDE P
Ġhyp not
* ,
O t
ĠB a
ĠM AD
ĠD ropping
50 8
Ġ9 7
ĠCo zy
Ġdoll s
ĠAllow ing
ĠKim berly
<< <<
o les
Ġl ines
ĠT IP
ĠGirl Anyone
ĠDDD s
ĠAG EN
Ġvan illa
ad os
ĠDisc ret
ĠZ o
ĠSURPR ISE
s lim
it ions
ĠF OO
ĠG oogle
ĠJ AMA
Ġen able
25 1
Ġ074 35
Ġbar rie
platinum modelscanada
G OOD
I c
ĠC RA
Ġk ick
87 98
ĠInd e
du o
Sc ale
ĠHEAT HR
edd ington
Ġa venue
Ġ3 12
ue la
Ġ** ****************
24 34
Ġsu ite
ĠOFFER ING
RO LE
ĠEv EN
D IN
ĠC USTOM
.. !!!
Ġst un
pect acular
32 1
~~~~~~~~ ~~~~~~~~
Ir ish
4 18
I I
Ġs ir
ĠB OR
ĠH UR
ĠPh o
Out going
Ġprom pt
otect ion
ĠFr ont
737 4
u able
Ġs oo
Ġs quir
ĠM iddle
ER O
Ġare n
ĠGu ide
Ġ8 18
69 8
Ġcle ver
ĠFOO LED
t ably
AL ES
Ġ4 85
55 1
Ġ== >
N W
at or
ĠRe m
ĠPlay ing
Ġtight est
Ġchar ism
clo se
g ers
q y
ĠM ina
Ġany way
ĠCol or
ĠMAL AYS
ĠCons ider
maxim escorts
f acing
Ġbbw caramel
Ġsc ene
ĠHEATHR OW
F ERS
T ia
ĠB ad
47 9
ATION AL
ĠBut terfly
ĠZ ero
Ġsoci able
K e
M AN
m annered
Ġa lex
Ġm ent
ĠS OUTH
90 1
Ġcur rent
437 6
ĠKISS ES
Ġau qy
ĠS ATURDAY
ĠL EX
ĠWood stock
ĠCom p
ĠRes p
ĠSHOWER ED
Ġemot ional
ĠMORN ING
6 16
6 88
Ġf ool
Ġc ities
Ġn ationalities
Ġ647 287
Ġshould ers
Ġstud ents
Ġavaila vlie
ĠEnc ounter
1 18
4 66
ĠS andra
ĠP IER
Ġex it
NO ON
OX OX
Ġ647287 0314
m ake
Ġ4 48
ĠST RIPPERS
ĠHel p
8 63
ĠM ASS
Ġe ater
Ġal way
ail way
rict ly
ĠSlo ppy
Ġtantal ize
[ [
ĠR ude
ĠSE x
ĠEn ter
alian a
ĠSky e
Ġswe at
V ietnam
Ġevery body
Ġche veux
Ġcont in
ĠTU ESDAY
ĠSep tember
lad ies
T u
Ġb ottle
ĠA le
al ia
ch ool
Ġk enn
ĠLondon C
Ġche z
:... !
8 35
G reetings
ĠP ub
Ġpleas uring
Ġcon side
Ġset ting
6 30
Ġre leas
Ġpr otected
Ġconside red
J essica
M ONT
Ġph at
Ġham lets
H orny
Ġh ackney
Ġ3 23
Ġ4 39
16 47
sh ushing
ĠTH ER
05 58
ental men
Ġexperim ent
s ual
ĠM isty
Ġch er
Ġmeet s
iC e
ĠProm ises
Ġwater loo
ĠCOL LE
umb rella
ĠRox ana
8 37
Ġs ort
ĠN ights
ĠO wn
00 40
ĠK ira
ast as
Ġen field
OR Y
Ġsched ules
h ore
z a
ri d
Ġwh enever
Ġtr ade
ĠCL OCK
Ġhold ing
3 38
ing les
ar ling
ĠD utch
Te R
L ast
at a
ĠM ild
ur al
45 8
Th en
ĠCur rent
c r
Ġd ynam
Ġin te
ĠD ancer
Ġ( `
Ġr ather
ĠSh ape
Ġ----- --
Ġfu fill
ĠGabri ella
or ated
Ġw rap
Ġh iring
ĠT INA
ĠP at
ĠH aving
ĠW ants
Ġth ames
Ġ4 93
13 5054
uit ion
Wh y
ĠStress ed
583 135054
ĠOL DER
R OUND
U BS
Ġm ontreal
ĠK ELLY
aut ion
Ġr ated
ĠTR AVE
ĠEM MA
B on
ĠB es
ĠB ottom
ĠG ame
Ġagain st
Ġblood ed
jac ulation
L OOK
T L
Y RS
Ġs ud
Ġcapt ure
Ġbar gain
ĠRespect fully
ĠTi GHT
ĠScar lett
H rs
R o
CH E
Ġsc ream
ĠAd a
ĠFl at
L ES
Ġa bs
Ġp addington
Ġext ended
Ġpr oof
PS E
ĠSher brooke
R imming
ĠS pecially
ĠB AS
ĠY O
ĠON LINE
ĠAM Y
Ġche eky
ĠJUL IET
A k
H ERE
ĠW S
and om
ĠCh ant
ĠSh an
79 0
worth y
D es
an ff
ĠT asha
Ġbe at
Ġ____ __
Christ in
g ift
p leas
ĠB IR
Ġis land
BLE M
ĠSafe ly
Ġent ice
Al so
b asic
ĠC INDY
Ġi dent
14 38
rop ri
Ġmesmeriz ed
Ġfavor s
C aucasian
Ġ8 50
Ġdu fferin
ĠFIN ER
Ġjou ets
D ates
Ġs ton
Ġc uban
ĠL L
ot y
ĠTO ES
Ġapp art
ĠPub ic
P ictures
T ING
f ive
Ġs ep
Ġm ilk
Ġc af
ĠB UST
ĠT ONG
ĠK ITTY
arant eed
ĠTR AD
ARANT EED
Ġcurve y
ĠN ipp
ĠH ES
ĠIN COM
ĠRE ASON
light ly
ĠMass e
Ġcharact er
S HA
ĠS andy
Ġd rain
ĠBe T
op y
round ing
bbw caramel
asturb ation
c aster
Ġm arkham
Ġin f
ag ious
Ġ9 99
Ġ226 988
TH ROAT
61 89
zz i
Ġ~~~ ~
errie re
0558 876
pan d
pecial s
Ġar ch
ĠPh ys
ĠSex sual
rist a
Can ary
Fe el
ĠKh loe
7 62
I AM
c ern
short cake
ĠB ell
back page
Ġpush in
ĠEntr ance
Ġthirst y
Ġdou ce
ĠAGEN CY
9 208
at ile
Ġpr formnc
Ġ70 9
H ow
Ġt uition
ĠH it
th ia
akes hore
SO E
Every thing
ĠSin fully
: /
S ELF
[ /
ro state
vide os
WA y
ĠSN AP
3 145
C LASS
Ġm ens
ĠD aty
ub ble
ap ointment
Ġ20 15
Ġstreet s
ĠMAR IA
ĠJul iana
c ourse
z ero
ĠA W
Ġlo se
Ġman or
8 69
M ED
re ign
Ġth igh
Ġmo on
Ġmo an
Ġboy friend
Ig HT
relax ed
ĠCat aliana
ĠLUXUR Y
ĠIncred ibly
ĠRem edy
C um
M ULT
Ġh unny
Ġfr anais
ĠDis respect
IZ ING
i LA
Ġ7 82
sh a
Ġ10 2
Ġwonder ing
Ġpost codes
ĠSuck ing
6 77
a ul
ĠG OLD
Ġext reme
Ġcont agious
Ġtast es
Ġburst ing
Ġess ential
DIN ARY
s eductive
Ġd ot
ĠF T
ALL E
26 9
Ġad ress
65 2
ĠCH LOE
ĠBlond ie
ĠSTA FF
V ictoria
t anding
Ġt witter
ĠB cup
ĠP OUNDS
ad ford
Ġposs ibilities
We ight
ĠWhats app
Ġfut her
Ġw at
ĠC uba
Ġd dd
ĠSweet ness
Ġ50 6
FECT ION
iag ar
Ġtemp orary
ĠTHURS DAY
: ((
D r
m us
r ard
Ġ24 3
Ġadd ed
AD y
Ġcomp et
po pping
ĠMEET ING
7 20
N ights
Ġth ro
ch ick
ĠK nown
ak ist
ĠAN NA
over night
ĠASS ETS
ĠTher apists
disc rete
ĠExc iting
R ENT
Ġm ills
ĠF IG
AL I
Ġswe aty
EVERY THING
N ative
Ġp os
ĠP P
Ġim pro
ĠDoll ar
789 9
Ġfantas ized
2 34
? ...
k rista
ĠS acha
ai led
Ġsex x
ĠUn known
Ġyo ga
B EL
ĠT ALL
ĠD IV
ĠSt rive
ĠX xx
90 6
mus ical
8 49
Ġ xt
ĠB omb
im istic
Ġk im
Ġtr ail
ud ing
id ed
Ġadd s
ĠSl ender
9 77
ut ion
00 00
50 9
aught er
honey bee
ĠExcept ions
ĠPay Pal
ĠMot els
ĠCOUR T
ourtesan escorts
X O
ĠI LL
Ġd oub
ĠR ough
ec ess
ĠK endra
Ġplay ground
10 4
Ġwa iste
14 6
Ġres erved
Ġ8 88
Ġ80 1
att ing
ĠVIS A
Ġ89 0
mag ical
Ġsquee ze
Ġident ity
D AN
ĠA f
ĠM ac
ĠM TL
ĠL illy
Ġ* ((
ock t
Ġsuit es
ĠTRAVE L
3 29
ile tt
Ġsc am
Ġval ues
P AN
S pecially
ĠIn a
ĠIn s
lo be
oman ian
Ġsec rets
Ġhers elf
ĠBeT TeR
H wy
W hether
Ġs ays
Ġp anties
ĠC reek
ĠG inger
ĠAn n
ĠOT TAWA
ĠMack enzie
W anna
Ġf et
ĠC OCK
ĠM ed
ond ers
89 2
44 6
ĠPAR AD
Ġrequest ed
GA E
ĠTON ED
bar rie
Ġphotosh opped
Che ap
Cam bridge
bum ps
ĠMASS GAE
ĠL aid
Ġre co
ĠIn quire
Ġcom mon
ĠJU LY
Ġord inary
ĠAF FECTION
4 40
B ooking
is ure
ĠF at
Ġ2 10
ĠJ ordan
ang es
ĠAr rive
Th urs
oose bumps
ĠDA DD
Ġ075729903 14
l men
ĠB ait
ĠM ami
Ġr ailway
69 69
ĠCom m
pher ds
4390 188
C ATIVE
n or
t axi
w ine
ĠN UDE
74 20
Ġbeg ins
5038 887
W ater
an de
Ġ3 40
Ġ9 721
Ġtreat s
Ġclassy krista
Ġsens ation
ĠTher apeutic
irch mount
Ġa po
el ite
Ġ10 3
Ġcirc um
Ġ4 98
ON S
ĠClean liness
ĠLIKE LY
,,,, ,,,,
NEGOT IABLE
j j
n ine
w rapped
Ġa p
ĠC REAM
ĠM oore
Ġre ly
ext remely
ĠJu dy
Ġenthusi asm
ĠUpsc al
n ality
Ġo bs
fe ren
16 3
ĠBlack s
Ġpre book
ann e
Ġem brace
ĠSim ply
; ;
M al
i os
es h
Ġre wards
Ġfull fill
8 38
B b
ĠU BER
xx ir
AST ER
AG ES
PRE TTY
ĠSTUD ENT
ĠBit coin
2 471
ĠA ud
Ġne at
85 4
Ġenc our
UMB ER
So N
ĠBack P
pecc ably
B ILE
Ġb ay
Ġthe atre
14 1
OP LE
ĠPE OPLE
Provid ential
N a
LL W
Ġ7 12
14 3
ĠEn forcement
Ġvi bes
the enter
prise girls
ĠMALAYS IAN
theenter prisegirls
ĠT xT
Ġ4 33
ĠWith out
ĠWEBS ITES
ĠHand job
satisf action
Ġvol ume
Ġintri gu
ĠFOR WARD
ĠEN ER
:** :
Ġdisp onible
Ġfil thy
ĠP osition
Ġ6 8
ĠK T
39 3
68 16
ĠCAR DS
? :
G ents
S YOU
l ips
el ights
Ġex act
Ġtr ans
Ġbb b
Ġmag n
ĠRub y
hold ing
F H
Ġc s
ĠN IP
ĠT ATTOOS
ĠR oll
ĠPr otection
)) )
Ġsac s
Ġg entlement
Ġhe avy
Ġwe ather
11 2
ĠAc commod
09 16
dr ooling
ĠHEL P
ĠINCOM PAR
Q ue
Ġin c
!! **
ĠRe ar
get table
85 9
Ġ80 2
Ġ+ ++
Ġimag in
206 1802
ĠBon nie
d m
m es
ĠA uthentic
ĠM ilky
Ġpleasure d
45 7
ĠPr otected
Ġmo ist
ĠWEL COM
Ġact ual
n ipe
if ting
ĠLondon W
85 67
-------- -----
ugg le
ĠTE LL
do ggy
R AY
Ġs eri
ESS Y
ĠSm ell
Ġcharm s
Ġsuck ed
ĠSur rounding
C ATED
l u
t ic
ĠS s
ĠV AL
Ġso aked
Ġopt imistic
q ual
ĠC ell
Ġl iter
sp ot
ILL S
oun ty
avi ar
ĠHow ever
ĠFAC ETIME
ĠTONG UE
t op
ĠA val
ĠM ad
ĠL unch
ĠR ace
ĠJ OIN
ĠConf ident
Vietnam ese
P ort
Ġg row
ill ian
07 5
Ġ07 86
ĠSP INNER
ĠPeR SoN
7 49
M utual
S ilky
t ain
Ġre ois
ai la
RE AD
89 98
Ġsex xy
66 4
Ġsec urity
Ġje ans
Ġther apists
Ġdri pping
SKY PE
s ome
Ġs cent
Ġ( )()
ĠAn ton
ĠST ATION
68 25
Ġoccasion ally
Ġstri king
ĠCUSTOM ER
E ver
I lford
S te
ĠL ESS
Ġse ver
St ap
Ġcl ub
715 391
ĠKrist ie
ĠETHN ICITY
# :
C AL
s assy
ĠS ide
ĠS UM
Ġp ale
ĠK R
RI L
ĠHigh way
ĠEVERY DAY
Ġnegoti ation
ĠCL OSE
WH ITE
p ls
Ġ ing
ĠW ong
Ġ7 161
ction al
ĠEN QUIR
59 4
CO B
GS ANGELEYEZ
Ġemot ion
Ġmusc les
Ġfood s
ASTA GSANGELEYEZ
nipe g
ĠF LEXIBLE
bs dm
ĠIn ter
ĠHe zel
ĠAr range
ĠTal ents
ori ental
CRED IBLE
E ASE
ĠS QU
ĠN one
ĠD ee
ĠJ E
Ġgu arentee
Ġapp le
Ġ45 7
Ġbring ing
Ch ocolate
ĠNegoti ating
Ġma ind
A IN
Ġth t
vi es
Ġde ptford
ĠSO AK
ĠEN C
ĠINTER ACTIVE
MARK ET
ĠCUB AN
c are
ĠE mp
ĠL ot
am pton
Ġr ules
Ġch atting
36 21
Ġsens ul
ĠWi LL
c im
Ġc orner
ĠC apt
Ġ1 37
ĠPRO BLEM
Ġ0749 6612263
Ġstudy ing
ĠVar iety
acu zzi
25 367
Ġinv ol
Re view
D ATY
Ġ1 27
ĠAr t
ĠAdd itional
74 1
BAR R
IFF ANY
ĠFIG URE
? )
G Y
S ugar
as ita
ĠP RI
ĠG IR
Ġwh os
ĠEX C
Ġass ist
ĠFel tham
6 15
b or
Ġm izz
Ġ$ $$$
16 44
Ġask ed
ribut es
Ġsever al
. !!
8 28
I LY
h orny
Ġb razil
ĠS EXT
ĠN ana
ĠM ul
gh ost
RE Y
27 29
rett ier
f actor
s uper
re esome
ri a
Ġne ither
ĠFun ny
29 3
Ġskill z
ĠBu ilt
B isexual
Ġb achelor
Ġp in
ĠT ER
Ġ2 78
Ġsexual ity
ĠQueens land
high ly
ecess ary
Ġ*(( .
F inch
L ONG
en ix
Ġo live
Ġe lect
ĠJ ack
xo logy
ĠCUR RENT
ĠRed head
Ġimag ined
Ġori ented
oub liable
ĠPROVO CATIVE
ĠJAMA ICAN
) *
R ide
Ġf ow
ĠA ng
Ġd im
if orn
ĠUN IT
ĠLOOK S
ĠDec arie
MISS ISSAUGA
Ġbond age
Ġ4034 0036
Ġ40340036 55
S ENS
re lie
ĠA v
Ġ7 18
Ġup l
Ġwa itting
Ġve hicle
Ġ226988 4376
y d
ĠE ve
Ġsk ype
Ġwast ed
Full night
ĠSil houette
ĠPriv acy
ilett os
BARR RIE
E yes
W ITH
i ai
ĠB ang
ĠM aster
ĠR en
Ġcall er
yes c
ren ity
Ġcar fun
Ġeven ings
RICT IONS
ĠHOTT EST
ĠTow els
Ġd an
Ġ8 32
ĠSw itch
43 38
ĠMES MER
ĠSOPH IA
4843 50
ĠDISCRIM INATION
d ates
d inner
Ġ il
Ġto ffee
ĠF our
ĠRe ADy
Ġ7 24
Ġdet ailed
Ġcomfort ing
Ġmasse urs
.)) *
ĠTRAD ES
Ġfow ard
B UR
L IVE
ĠM all
16 66
25 9
ĠLo v
ĠBL K
613 2
Ġ46 17
SH IP
ATCH ED
ĠEll a
Ġcheer ful
l ist
Ġt ne
Ġin oubliable
urch ase
W EL
v d
ĠE ACH
Ġpleas es
AT HER
Ġexp ed
Ġ647 7
Ġ20 19
ĠIS LAND
ĠADD ITION
ĠMon th
OY AL
Ġdec ision
ĠHoll y
Ġpost ing
347 5
Ġra unchy
G ENTS
V er
ĠF ood
Ġ2 07
Ġter ri
it zrovia
ro e
Ġ6 30
ĠK a
Ġ** ********
79 8
Ġreg ards
Ġpo en
ĠVis its
ĠFr itzrovia
Ġgur ls
8 32
9 484350
erv ing
EXT REME
10 1
ĠCol umbian
ĠFEM ALES
ĠC ox
ĠST AND
be aming
Ġgreet ed
ĠSom etimes
4 65
7 88
C ol
M ATCHED
T UN
ĠS q
ĠP SOE
ĠO h
Ġ1 300
ĠG oosebumps
ĠD rop
ourt ney
ĠCHECK ER
ĠAFTER NOON
ĠFaces itting
b est
Ġs q
ĠM c
ĠM ont
---- --
ĠSo cial
Ġlook ed
ama ica
Ġcl en
ĠRESID ENCE
ĠSTE ELES
ĠMS G
Ġexped ition
ĠC ream
Ġha iley
EN CES
IN O
ess age
36 36
ric ia
ĠCal iforn
R om
ĠC razy
ĠA irdrie
ĠK AR
ak i
atur ing
10 3
Ġ35 1
aster isk
spok ed
ĠCox well
A U
K a
M ay
ro ydon
Ġ4 18
Ġ4 84
Ġ9 35
38 17
Girl s
GR OUND
Sm ooth
ĠEAR TH
M ichelle
in nam
ĠL ina
35 7
!!!! !!!!!
Ġheaven ly
Ġ4039 715391
ĠTim ers
ĠAPART MENTS
CLASS Y
innam on
8 34
A sh
t ys
ĠF am
ĠF ox
ĠD OUBLE
ec all
ĠSER VE
bl s
Ġpay ment
Ġes panol
Ġmyst ery
ĠDR UGS
ĠSIN fully
Ġfess es
Ġhailey barrie
ĠCAR CALL
ĠMon ique
g lobe
Ġs aw
Ġm ary
Ġb al
ĠS now
ot ok
ee e
IC ATED
Ġ07 87
Ġgr ind
ĠMar ie
UND AS
Ġrejuven ated
M ag
ĠT w
ĠP u
bs ites
Ġso ak
ress e
Ġatt ributes
13 9
ĠST AG
ĠCUR LING
ĠDis appointment
Ġexpert ise
eight een
Ġ77 11
Ġupl ifting
T wickenham
k in
Ġm aster
at ly
al on
Ġg allery
ĠH UN
47 3
sp ade
ĠJess ie
ather ine
Ġboun ce
ĠCustom er
ĠBeaut ies
ĠAVA iLA
Ġsol ution
Ġ529 6383
L IST
c ur
ĠA DS
ĠBl k
Ġmix ture
399 4
ĠBOO B
DOM INATION
Ġclick ing
ĠDEP OSIT
iagar ase
< :
Ġp ara
EN O
ĠJ AN
h ind
ri f
13 2
Ġspecial ist
St eeles
ONT ARIO
Ġhelp ing
ĠPl us
Ġcomb ined
Esc ort
ĠSL OW
resist ibly
Ġclaim ing
9 69
h ance
ĠC af
ĠN ails
ĠM ila
ĠD ivorced
ph s
79 6
Ġac com
ST OP
ĠAR OM
ĠSPE AK
h ose
or m
Ġd t
Ġ6 89
ust ral
87 1
ĠHot test
Ġaccept ing
ĠCarm el
Fl irty
ĠKIMBER LEY
Fel tham
Ġw t
Ġf ear
ĠA RI
Ġn ave
ĠL IE
ĠD estiny
Ġbe aut
Ġ600 6
Add ictive
Ġp ants
ĠP ORT
ĠW ED
Ġ7 70
Ġchamp ion
. '
b ottle
v ol
en velope
es y
ĠM OT
ck ing
min imum
Ġ80 8
ign t
ĠPLA CES
,,,, ,
ĠGRE EN
ĠHealth y
Ġiss ues
Ġtre asure
: ~
T eddington
s itting
t om
ĠC C
ĠH esitate
Ġmost ly
68 6
ĠTr ansfer
Ġdeep throat
.* .*
Ġshap es
S CARBOROUGH
16 69
RI ES
ĠLO AD
ĠBUS INESS
Ġmirac les
G s
ĠN aught
ri ka
Ġbe au
ĠY ummy
26 00
ĠMe asurement
Ġbb j
man ville
ĠSus an
m ier
s ilver
ĠE ss
Ġ6 18
ĠSt aff
Ġjust ice
Ġ60 47
ĠCar ina
97 1
Ġ!!!! !!!
ett i
Ġrespons ive
u ctive
z i
Ġs rv
ĠB j
Ġ6 39
Ġk id
Ġli aison
89 5
89 8000
23 16
39 23
ĠJU DY
ĠVenez uela
Ġport land
Mar ia
Ġ07930 898000
Ġcircum stances
O ffering
et c
ann ia
Ġfetish Go
Do ggy
ĠBi G
TRANS FERS
fox escorts
astas ia
silver foxescorts
: &
Ġ1 17
ĠH IDE
ĠL ICK
ĠWh t
66 00
Ġ# ####
Ġpriv et
xoxo xo
ĠBC up
7 29
o v
la c
sc hed
Ġr ack
IT ATE
ĠBr adford
Ġpre f
85 47
ĠWILD EST
Ġmesmeriz e
ĠQuick ie
Ġphotosh op
Pleas ing
ĠFIL IP
Ġbullsh it
Ġcurv ac
Ġneed ing
ĠTo ffee
ĠMY SELF
Ġass et
ĠAmer ica
ĠDeb ora
ĠCOVER ED
2116 96
B LY
b iz
Ġt ax
Ġ( )
Ġk itchener
ĠRe fresh
87 2
ĠDO ING
ifor m
Ġdar lin
TO DAY
Ġview ing
conf etti
ĠHott ies
ĠBackP age
E UR
ky o
ĠGentleman s
ĠMO AN
Ġ18 39
Fri day
L U
c ork
u ve
Ġh ence
ch es
ad ays
LE G
.... !!!
ĠMe adow
Ġtrave ling
ĠLE G
Ġ0745 93
MONT ON
feren ces
Ġcurvac licious
6 20
H Y
L ex
m il
ĠB n
ĠW ont
ind ly
AN EL
ect ion
ph or
Ġ9 82
85 55
gg ed
Ġdelicious ly
ĠFE LLOW
(( ((
Ġtravell er
Ġsn uggle
ĠREG ULAR
ĠWATCH ING
A r
un known
Ġe qu
oin te
ĠLocation s
Ġincl usive
Ġcharism atic
ĠA partment
!! )
ĠK AYLA
UM UM
Ġtrave led
Ġexpect ation
ĠMIN UMUM
tr ansfers
ĠWin nipeg
ĠBAS ED
E nd
R est
S ky
m ies
r oo
en joy
om y
ul u
EXT RA
Ġman aged
ISH A
Ġexperien cing
ILD O
ĠIr resistible
ĠQU EST
E C
N iagarase
b ull
p a
Ġa while
VIC ES
Ġad m
ĠCR YSTAL
0747 1561704
mel on
9 18
9 275
M ajor
en omen
ar ate
ĠB asic
ĠP uss
ĠF ANCY
ri ving
Ġ24 1
14 8
Ġprovid ers
ĠAss ist
Ġsitu ated
Ġ87 8
Ġapo log
L es
ĠL exy
ĠG ab
ĠD iv
Ġpro cess
Ġsh it
AI LY
ĠRest riction
Ġb rief
Ġg rey
ve hicle
ĠU SA
Ġun it
ĠCh amp
ĠTo es
ib ility
ESS ED
ĠCATER ING
otok s
L ight
S UB
ĠM idd
st ri
50 2
**** ***
ĠUN MATCHED
Ġother wise
Ġaccept able
ĠSUR ROUND
umb ia
ĠSHE PPARD
ĠHab lo
PIC TURES
G ORGEOUS
S alut
v is
ĠA bsolute
ĠIN QU
arm a
35 1
ĠSH ANN
Ġsc aled
Ġsuggest ed
ĠGR OU
ĠWild est
Ġdevot ion
ĠDart ford
ĠAF FORD
fant asy
d ress
ĠA b
Ġhair very
ĠDO L
78 4
ĠASS ets
Ġcor rect
Ġorgas ms
Ġreve al
2 24
F r
P s
Y o
re cent
ĠU se
20 17
ĠAl isha
Ġpre mium
UL GAR
Ġbb y
Ex T
XX X
Ġexecut ive
ĠMasse use
sched ule
6 70
g ood
Ġs a
Ġ( )(
ĠSt ella
str u
K y
is ir
Ġj amaican
Ġsp l
Ġsec re
ĠSc ot
ĠNegoti ations
P uerto
c s
t exts
Ġb ush
ĠM atter
ĠL INE
am oore
im ps
Ġ( +
ĠSE PAR
ane an
Ġfl irt
ĠSw allow
Ġouts tanding
ĠHES ITATE
ĠSEPAR ATE
b ing
Ġ5 90
um a
Ġun t
ĠPleas ant
Ġdoes nt
ĠBri anna
nic olet
Ġdomin ated
Ġcour teous
ĠVal entina
ĠCOMFOR TABLE
Ġsecre cy
nicolet oronto
. /
c ockt
ĠL ana
00 1
Ġcurv s
ĠHA ZEL
ĠSe pt
vide o
ĠMaria h
cockt ail
. &
B Y
Ġt ip
RE ET
Ġso othe
pan ion
ĠYOU RE
ĠSWEET IE
Ġviv re
ĠEnc ounters
Ġstun ner
n eed
r u
om a
Ġd ial
Ġ4 07
ĠAl ina
Ġdesc ent
8130 185
ĠHELL O
ropri ate
) ...
6 695
f fort
ĠC ougar
ĠP et
ĠR ICH
ĠD fk
ut ility
Ġal mond
ĠWH ERE
AST RIPPERSANGELEYEZ
76 48
over nights
Ġestab lished
ĠBurn aby
N uru
Ġp ot
Ġn ikki
ĠW ARNING
ES OME
ad o
ad u
Ġup s
Ġapp ts
ĠMel t
L ingerie
ak a
Ġ9 31
ĠAl one
ĠSh ay
Ġclass ic
88 34
PER FECT
Ġsmall er
ĠLex us
Ġmirac ulous
Ġ075347 25367
Ġreleas ed
C a
Ġs il
ĠN icki
st rap
Ġ647 2061802
Ġsh ared
Ġbr ampton
Ġroom ie
Ġpri me
Ex cellent
Ġaccompan ying
Ġ0775 9484350
:)) :
TIM ES
C on
C CUL
D y
b razilian
i NG
Ġm ami
ĠP OSIT
Ġth orough
if s
Ġ4 60
Ġst rictly
35 2
spark le
VI DE
ĠBR ITISH
uri os
ĠLic ensed
ĠSav annah
anty hose
7 208
A bout
C OU
u ish
Ġ- %
Ġsh ot
AS URE
ĠBL ESSED
ĠSP ANK
Ġtrust ed
ICO LE
tom ato
9 33
B IE
a ves
b ine
Ġa ux
Ġd en
ĠL YLA
ALL OW
ĠK g
age ment
Ġbr ush
Ġ226 24
ĠHA VING
ele z
ĠTher apy
:(( :
enomen al
CCUL ENT
7 276
ĠC im
ĠC entre
Ġr aven
Ġli b
Ġun c
28 3
Ġ705 5038887
Ġ89 7
BL UE
ĠPamper ing
CAN AD
ĠN Y
Ġha I
th ese
30 1
77 73
ĠSEX UAL
ĠDE PEND
nic ities
Ġlaid back
Ġwr ong
ĠCas ino
N one
AY A
45 4
ĠPLEAS ED
48 3
ĠMin imum
Te asing
Ġanim al
:>>> :
6 26
Ġf und
ĠS oo
ĠT am
ĠO wo
st ore
ut res
Ġan n
ĠUn like
In t
ĠLI LY
Ġ267 4
M assages
a e
ĠB T
Ġh ills
Ġl ack
Ġ1 29
IT ED
iness e
AST ERS
Ch at
ISSA BLE
ĠGer rard
Ġtoilet ries
ĠMeadow vale
. "
m om
ing ing
ĠF IVE
est ic
Ġun leas
Ġwom n
ber ty
Ġ80 9
party ing
He athrow
Ġ0750 7
ĠArab ic
O ING
c ore
Ġt ounge
ĠA k
Ġlong ing
EW ASTERS
VER S
Ġ80 6
TH ICK
ĠSH A
ĠFEEL ING
Ġspec ified
Ġimpro ve
C ategory
M andy
p assionate
ĠG f
ell adel
be at
Ġ>> >>
ĠWAST ING
ĠCLI ENTE
ĠCLIENTE LE
0 606
3 26
Ġc ircus
ĠB unny
Ġn i
Ġe ct
Ġwe bsites
ĠSweet ie
ĠSh ould
Ġhope fully
Ġacc ording
ĠCHAR IS
A lex
J asmine
b abe
Ġp ie
ĠP RIV
ĠH J
Ġr andom
Ġ. ,
ĠAL WAy
Ġca ressing
Ġblo or
elladel ight
ĠALWAy S
Ġb omb
Ġf an
EX OTIC
hib itions
air pl
Ġprom ises
ĠADD ISON
ĠSENS E
ele br
CHE CK
airpl ane
r ated
u elle
Ġm obile
om ie
Ġre ar
Ġnot iced
Ġfe aturing
Ġtrave ls
Ġeng ine
ĠFAVOR ITE
0 17
H el
ĠN ATIONAL
ĠW asting
ure n
25 3
Ġsend ing
Ġaim ing
sey e
ĠCOU LD
ĠTher apist
Ġperf ume
ĠSHANN ON
B ubbly
E t
ĠS neak
ge on
ĠV ib
Ġover whel
go ddess
URE UR
Ġcl ssy
190 1
Ġjo h
dani elladelight
p ar
p ut
ĠS ix
Ġ1 38
Ġle ggy
ĠBL ISS
ĠBr andy
PER KY
ĠCH R
Ġ12 10
Ġref lection
Ġoc cupation
Ġpost ed
BR AND
Ġamb ition
I LA
I DER
S exual
z mor
Ġb end
Ġh ugging
ĠD ARK
th is
!!! .
16 68
Ġpla isir
Ġlu cious
Ġoccas ions
ATT ENTION
Ġ647 717
ĠPLAY S
Ġco vers
ĠWOR SHIP
abi at
iter r
ĠDi S
Ġ ................
Ġf inesse
ĠC IF
ĠM UT
dd en
other ing
Ġrout e
Ġboo bies
D elicious
I ke
s ing
~ $
Ġf er
Ġl icked
ĠL VE
ĠG FS
Ġre nt
ĠK ISSABLE
RE CI
min ine
Ġ289 27
Ġ289 4390188
486 192
ĠAf ro
B i
Ġf loor
Ġp uts
Ġ:) )
no v
ĠAL WAY
Ġweek ly
ok o
ĠMot el
Ġdevil ish
ĠPARAD ISE
on n
an ian
Ġc urios
ĠC aviar
ĠN ak
OR TH
EM AIL
GU ARANTEED
abiat vs
t ion
Ġsex ier
sp a
ĠSK Y
ĠAB USIVE
Ġma Ike
ĠSURROUND ING
iterr anean
h ner
t imes
Ġs ounds
.. (
qu ently
Ġ647 5
Ġsp are
pro fessional
PP y
ĠHa PPy
ĠCR OW
Ġfantas ize
$$$$$$$$$$$$ $$
ĠCharl otte
hner t
M istress
Ġs vp
ĠT ATS
ous es
ĠTo e
ĠEn hanced
Th ugs
3 36
M odel
Ġc rescent
ĠE LS
Ġ5 05
ce re
87 64
Ġsl ice
4 31
T anned
at on
Ġh ugs
ĠG AR
Ġ07 82
ĠTH R
ĠFor ward
ling erie
Ġmot ion
Ġeth nicity
fle xology
A irport
G LE
ĠS ton
Ġst ilettos
80 37
30 7
31 87
An gel
Ġmel ting
Ġmam asita
Ġble u
ĠAud rey
ĠCROW D
Ġs ound
ĠT rain
ĠM rs
ĠP iercing
ĠAnge lic
ĠINCLUD ING
etal uma
ĠCOLOMB IAN
roo ster
S ingap
Y rs
ic ulous
ĠL ess
ĠW R
Ġ5 40
Ġe rect
Ġe qual
ER Y
Ġlike ly
26 54
ĠEx PER
ĠSE C
ĠBl ck
IST RESS
ĠFair field
ĠKar ina
Ġnaught iness
file s
ĠHUR RY
D irty
H ell
K im
S po
Ġa uburn
Ġp ancras
ĠSt rip
Ġpro gress
ĠAm biance
id night
Ġcar call
ĠCHARM ING
: !
it aire
ĠJ oy
Ġle aves
Ġad ults
ĠCar call
St art
Ġunder ground
Ġnegoti ated
CA UCASIAN
chr ane
Ġmorn ington
7 65
9 43
F RIDAY
H O
H osting
S l
h appy
al so
ĠN ancy
ĠT ried
ĠF ound
Ġin vent
Ġ4 99
3 222
it te
ĠS pec
Ġ7 603
ĠSee ing
97 4
ĠIR RES
ĠWELCOM ED
t url
Ġs eni
Ġw ise
Ġf oxy
la dy
Ġ1 12
ĠG IVING
Ġch au
Ġseductive ly
Ġcont ract
ĠSl ide
WE EN
Ġspank ed
Ġprs on
Ġbud dy
M arket
Ġr ais
Ġso lo
Ġj en
Ġ30 5
Ġ416 5
Ġ10 9
55 2
ĠPerson able
ĠPorn star
sw itch
747 8
C UM
D ark
f avours
n ame
Ġf ell
Ġ5 80
LE TH
Ġsub way
Ġblond es
Sh ort
Ġs lip
Ġb out
ĠR omanian
ĠG entalmen
Ġha ur
Ġr adiant
Ġ9 36
ĠTh in
CH AT
ĠN ICOLE
07 49
Ġdz t
Ġ0747 1561704
Ġdiamond s
Doll ars
ĠTat iana
ĠQUEST IONS
5 36
ĠG A
ĠD addies
us er
ON SE
57 4
ĠCol umbia
Gr and
Kiss ing
ĠĠĠĠ ĠĠĠĠ
ĠCONS IDER
ĠRESP ONSE
) !
S u
... !
AN ESSA
Ġ289 93
Ġ80 4
ĠDR UG
aaa hhh
fle ur
Stock ings
bull seye
M ate
S ORRY
f ast
t ouch
ER RY
Ġ8 12
cla ir
cred it
Ġhook ed
Ġdan forth
3 89
E P
Ġd am
ĠD ressing
Ġpres ents
Ġhealth care
IZ Z
To day
ĠSa una
ĠRESID ENCES
n CE
Ġa rom
ĠV ULGAR
Ġsatisf act
per f
GR AND
ĠKAT IE
h ounslow
w asters
as il
ĠM ILTON
Ġfre ck
form ance
ĠIND PEND
Ġmean ing
ĠBALL ING
ĠCaliforn ia
Ġm ed
OU D
Ġ07 42
Ġbr ook
orn hill
Ġte m
ĠKing dom
Ġproper ly
HAM ILTON
Ġrare ly
spe aking
Ġthorough ly
6 12
Ġp eriod
Ġc e
Ġ3 16
ond age
Ġj ames
IS ES
07 44
ĠSam iyah
Ġ07440 486192
conf ident
wor king
: =$
? ,
p am
Ġs es
an more
Ġg e
ĠP AP
26 97
view ing
Ġear ned
FOR TH
mon y
Ġworld s
Ġsu uck
Ġwalk s
ĠMO BILE
ĠHy genic
Ġjo ie
Ġ0740 45
Pl z
Ġblur red
ASURE MENTS
ĠDiS CREET
cere mony
9 601
t ub
ar ian
Ġin fect
Ġin hibitions
ĠD AR
Ġr ain
Ġcollect ion
tr ade
Open Minded
Ġnature l
Ġ........ ....
Ġlead s
ĠMes merizing
ĠHUM OR
ĠKY LIE
ĠBEHAVI OR
Rest rictions
2 47
B o
d rama
ĠE rika
Ġ2 33
Ġj ay
Ġ7 67
Ġi T
OO OO
ĠAccept ing
Ġav l
Att ractive
Li ke
Ġdepend s
ĠADDITION AL
5 33
ĠB I
ĠM ilton
ĠW IN
ĠD AILY
Ġ6 4
Ġinde ed
ĠHA B
irm ing
ĠPl ump
Ġdomin atrix
Ġmonth ly
Ġ________ _
Ġpor celain
ĠExPER IE
M ust
N ESDAY
v dz
ĠS IDE
Ġd ur
ig ious
40 45
Hey yy
ĠTH IGH
Ġpre fered
Ġfore play
wor ship
relie ved
ĠTHIGH S
9 21
it ary
ĠB lessed
Ġl am
Ġg el
ĠT ITTY
RE LAX
Ġk at
Ġal cohol
ag a
Ġperson nality
ĠBody slide
Ġbad ass
ĠFAC ES
Ġdom ain
ĠExPERIE nCE
: ....
ĠL arge
ĠY umi
ĠOUT OING
15 5
?? !!!!
ĠAT M
ĠApp elez
ok en
ĠWOR KING
Ġ0795 6
Ġs leep
Ġf aire
Ġtr usty
air a
Ġpr icing
ĠNow adays
Un wind
TOWN LINE
ĠPIER CING
4 369
7 61
D A
I OR
K K
e ment
re m
Ġs ell
he ast
ĠM AT
ĠK rystal
ĠRo hnert
ĠUp Scale
12 00
ĠEscort ing
Ġ0749 8130185
vious ly
Ange ls
v r
ĠT ender
ĠM MF
Ġd i
Ġbe ut
ĠU nd
Ġapp ointe
24 64
TH ANK
ĠSp o
Ġ90 3
Ġque bec
ĠREAD ING
down town
Ġexplo sive
But t
akist ani
C ITY
g ents
ĠC ot
ĠR aces
Ġall starsescorts
50 4
14 266
ĠQ V
ĠUp market
ĠBLACK S
ugg able
4 24
M OND
h ow
Ġt axi
ĠE D
ĠT urkish
Ġme at
Ġ7 97
Ġspecial izing
Ġ< <<
ĠFuck ing
ĠExcept ionally
ĠConf idential
Mal ays
ĠGIR l
B IAN
M el
P ick
ĠN iCe
ĠP etaluma
ĠH OL
IR ING
TEXT S
ĠEmail s
Ġintrodu ctions
Over Night
ĠMid night
Ġ0747 0558876
ĠDan ish
Ġiss ue
g abri
l our
Ġf c
ĠR OYAL
ac ial
Ġenjoy ed
Ġ00 44
Ġcas ino
ĠOFF ERS
ĠTAK ES
pre fer
ĠGi Gi
ĠAW ESOME
zmor izing
$ .
D ILDO
in ners
ĠH ILL
Ġli verpool
Ġun believable
ĠIm peccably
Ġwa xed
Ġ8 31
Ġ289 887
Ġlu cy
ĠSp ring
fort un
ĠBR AND
IV ES
MISS IVE
org ous
igg ly
ĠBRI GHT
Ġphotogra phs
Ġdoub t
7 12
ĠS X
ĠS AY
ĠL IND
ĠD ances
gh ai
ul ia
Ġsensual ite
Ġvisit or
ĠQu est
ĠPla ins
ĠStart ing
Wa ist
G EN
i M
Ġh oll
ĠT IFFANY
ĠL acey
ĠLondon South
:- )
ĠJam ie
Ġorigin ally
Spo il
ĠS out
EN ITY
07 52
ĠCh rissy
38 3
Ġ) .
Ġever thing
Ġ074 24
Ġimp lied
ĠSn S
OTH ER
ĠBu ild
ĠExpect ations
Ġsla ve
C atch
ĠC I
:: -
Ġ, ,,
ĠCAR D
ĠDEEP THROAT
ĠWalk ers
ĠEnter tain
p al
in al
ĠO SHA
ĠD ri
ac i
Ġe glinton
Ġ7 49
ĠMe zmorizing
Ġdis app
ĠHi dden
ĠSP ORT
Un known
ĠFUCK ING
uff y
ĠOSHA WA
O DE
ar l
ĠC u
Ġ4 11
ĠV iki
ĠRe bec
Ġbody work
Ġle xi
ANT AL
In ter
ST E
ĠSU CCULENT
Ġsup reme
Ġacquaint ance
ĠShan ghai
Ġw all
Ġp ud
ĠN turl
Ġ1 68
ĠF IRE
ĠR ating
Ġe ffort
29 8
85 75
Ġ075 4
ĠLOVER S
ĠGab riela
( `
c ond
Ġy u
ĠF RE
Ġlo ved
Ġr acing
19 45
Ġ+ +
iam i
ĠNIGHT S
Ġclose ly
Ġsuc c
Ġ$$$$$ $
Ġ0755 14266
Ġ075514266 69
M S
Ġf ly
Ġh or
ĠM u
Ġ1 19
ĠL AYLA
out ly
fe et
Ġ07 404
ĠSM OK
02 29
C M
C IE
g orgeous
ĠC OOL
Ġbe ach
ĠREAL ITY
HE AD
ĠAPP T
ĠBri g
Ġther apist
Ġgreet ing
max ime
Ġseni or
C algary
Ġb irthday
nd ly
ĠT able
17 13
647 49
45 43
ier ra
ĠDOMIN ICAN
Ġhom me
0 202
a ine
Ġw ow
ĠC M
ĠA FF
Ġ4 30
EX UAL
37 4
ĠAss ured
ĠDream y
$$$ ________
RIPT EASE
pand ante
ĠO PT
Ġun f
arm acy
05 82
Ġte lephone
ĠUN I
ĠWOR RIES
ĠMODE LS
Ġ0740 55
Ġinfect ious
. _
ĠA CT
ĠH as
EN JOY
Ġ6 71
RE L
aut ig
Ġhe t
Ġ9 78
ang ed
ĠCUR IOUS
Ġpar lour
Un protected
Ġve autig
ĠSEXT ING
5 40
Ġ ig
il ation
AR CH
27 753
Ġcomple t
Ġdet er
Ġ69 4
Ġrock ing
ĠCOL UMB
Ġven ues
Ġcreat ive
Ag ency
Ġjun ction
ĠPiC s
Ġunleas h
re esomes
Ġw ed
ĠR ing
Ġme mber
ĠD iana
ys ha
ĠDis respectful
ĠCHEAP EST
Ġblo g
stock ings
sam my
4 855
o vo
Ġt en
Ġw uth
ĠT Y
ĠF RI
ĠF OX
OU VER
ad s
ĠMy st
Ġ40 8
Ġgr k
CUR ATE
Ġrec ents
ĠRough ness
ĠBrig itte
' !
l onely
m adzdzage
} }
ĠN IA
ĠH ASS
ĠD IAM
ut re
oo vdz
Ġ6 74
ĠK am
Ġv oovdz
Ġany wn
ner apy
ĠDO ES
ĠBo Ys
Ġpen idz
zdz y
mind z
ĠQuebec oise
Ġtn en
Ġ078581985 29
Ġ078581985 28
Ġment ally
Ġinte red
ĠINDPEND ENT
Ġpud zdzy
Ġanywn ere
ĠS elina
ĠC ICI
ĠV ac
Ġfun s
Ġapart ments
Ġthem es
Ġ= )
"" ""
Ġnature lle
JO B
yesc orts
ĠT ExT
Ġbe ll
th ugs
IN FO
ĠIn formation
Ġplay mates
UN A
ne uve
aison neuve
$ ________
6 46
9 85
j ela
ĠQ uit
ĠPR OTECTED
Ġri ding
ĠCass andra
Ġwhe el
deg deg
ĠAG REE
Ġorigin al
ĠGift ed
Ġjoh ns
4 30
Ġim perfect
arm ony
ĠSWEET EST
ĠAngel ina
Ġwelcom es
ĠIr resistibly
exp licit
ĠCount ry
ued elights
D ear
H ands
O F
ĠE st
Ġl ancaster
Ġe mb
el ine
Ġcan cel
Ġj us
ag ency
id ing
od ian
Ġdis play
61 25
ĠSAM PLE
Ġtat as
on dy
Ġw ind
ve ly
Ġhe ights
Ġen hance
Ġfull est
ĠAm A
Ġcon vert
ĠWell ness
Ġbro adway
Ġ10000 0
T own
ĠA pt
!! ..
Ġ5 85
Ġr ay
Ġal icia
ene factor
48 1
97 24
RA IGHT
505 602
================ ================
Ġterri bly
A CE
ĠM ut
se ver
ĠSE LE
ĠSTAR S
Les lie
7 289
G iC
H ORNY
w elcome
Ġt ab
Ġl ower
ĠP in
ĠH O
sc ha
ch ie
Ġun iform
kiss ed
ĠSER ENITY
Ġde lay
ĠAS IA
SER VICES
HOT EL
ID ES
Ġassoci ates
ĠINTER EST
Ġprogress es
6 49
P art
j e
r gettable
Ġb ird
vi g
Ġun question
Ġ9 18
Ġ07 405
ud g
Ġ80 3
att o
ĠRest ricted
ĠVIX EN
Ġconvert ible
2 272
P ad
Ġre ached
Ġe p
ee per
ind ulge
Ġen vir
Ġsp arkle
ĠOf fered
OND ER
add ictive
UGH TY
ĠMill ion
ĠDr ugs
ĠHOST ESS
ANC OUVER
ĠRIM MING
Ġkar ina
8 80
B A
D ays
Ġa per
Ġm all
it ifs
ad ie
Ġj ai
32 18
ĠSe rena
ĠVI VI
ĠCENT ER
ĠRare ly
t oy
ĠH ola
ĠF H
ai ble
ĠNo W
rom ise
Ġcom ments
ig i
Ġno stri
Ġperson ify
pt ed
VER SE
ĠSW LLW
Ġsw orn
ĠFR AME
ci ent
Ġ437 99
Ġpar ity
ĠSe en
Ġdefin ition
Ġimp lac
Ġpres erving
Ġpat ent
Ġavai lible
Ġ0785 27753
Ġinvest or
Ġdistract ing
ĠConsider ations
Ġhet aira
Ġunquestion ably
Ġaper itifs
Ġnostri ls
Ġimplac able
P ETITE
a R
w atersports
ĠC An
ĠO W
Ġ1 32
Ġ07 984
ĠExp lo
568 3
V P
Ġre nov
ite ment
Ġ9 19
AK ING
65 48
TON ED
AG ER
Ġemploy er
Ġwar wick
ĠDANI ELLA
M ILF
R IC
R ose
W LESS
98 2
STR AP
ĠCUDD LY
ĠSpo iled
J AB
Ġw atched
ĠH ear
il ty
Ġas well
Ġbut terfly
35 16
ĠPLEAS ING
Ġte en
Ġsc en
Ġemp ty
Ġwar ren
Ġinvest ed
Ġmis chie
KISS ING
GiC aL
S D
ĠS lippery
ĠH or
Ġin stagram
un g
IN I
ĠAn astasia
69 57
ĠHA D
Ġ' '
Ġentertain er
ĠTAL ON
Ġcu z
Ġange lic
ĠMAT TER
A ir
h ome
ĠM atures
Ġtime wise
Ġun ivers
Ġpe rect
160 6
letter head
ĠAA A
Ġp ly
ĠM ention
ĠM aisonneuve
ĠP an
ĠR OX
ĠW oR
LL IA
for ming
ĠCh arge
Ġres ident
Ġmar ble
ĠCL UBS
ĠBow manville
Tr ue
ĠMAG ICAL
Ġslut ty
ĠBOR ING
PAN OL
gabri el
Ġsucc ulent
8 16
Ġ5 20
Ġlo g
ig a
Ġmo vies
ĠPre p
ĠASS URED
ĠImp ress
Ġmill ion
review ed
ĠDefin itely
Ġabs outly
8 64
OR A
Ġ40 9
Ġse ason
ĠSe renity
Ġ55 6
ĠOFFER ED
augh n
reg istered
ĠGUARENT EED
ĠCHARIS MA
M AIL
r is
er b
Ġw inner
Ġso aker
ĠYOU VE
ash ley
Ġent er
Ġsay ing
SE A
ITT ING
Ġdiscuss ed
ĠAccommod ating
r ings
ĠY uki
15 33
Ġper t
ud ism
St udent
Ġthr u
ĠExc ited
Ġneigh bour
Ġ****************** ********
W EST
ic te
ĠT iff
Ġd at
AN FF
Ġv aughan
ĠVan illa
ĠRA CES
FR ESH
ĠStri pper
Malays ian
8 47
A V
Ġs ister
es th
ĠR OUT
ĠIN CREDIBLE
Ġtext o
15 87
ST ON
xxxxxxxx xxxx
ĠCa ress
Pe R
OVERNIGHT S
ĠAdri anna
angels escorts
ĠFam iliar
Y TON
m assages
v ar
Ġg aurant
ss exual
EX PERIEN
Ġi Pad
ott en
ĠLAT IN
ĠXoxo xo
ĠGat ineau
ĠInde pandante
EXTREME LY
Ġrais ed
7 455
T aylor
w ave
ĠS ent
Ġc oug
ĠD id
Ġor ally
Ġsome body
OM I
Ġdif ference
ĠAC CURATE
Ġthough ts
UNT ERS
ĠHASS LE
$ )
r ice
s lap
ĠC RED
ĠE AGER
ĠL UST
ut om
ĠBe a
Ġnew est
ĠES PANOL
Ġtast ing
ĠSus ana
ĠMAD ISON
ĠROUT INE
W atersports
ing wood
ĠA wa
Ġam er
** (
te ly
Ġ! .
ĠBL O
ĠShe ets
ĠCH ANEL
93 36
ĠZ ONE
Ġgir ly
ĠComm itment
ĠMonth ly
Ġmary lebone
0 275
9 36
: --
r ney
le v
Ġal though
fe mme
Ġ07 557
Ġpla za
ĠHour glass
Ġtempt ress
dz n
ĠQU IT
Ġawa it
ĠDep osit
Ġvers atile
Ma GiCaL
2 12
b al
ER VICE
ĠRe quired
atur ity
ĠTo kyo
Ġ8 5
ĠPL UMP
Ġmes ure
Ac ton
ĠTRANS PORT
) .....
* )
E c
H ead
Ġs ane
ĠC LE
EN E
Ġsweet y
ĠLo ving
Ġsub jects
Ġpussy cat
03 30
ĠPort ug
ĠJESS Y
ĠINCL UDE
ĠBET WEEN
ĠPorn Star
ĠPosit ive
Ġcheek s
ĠPuss E
4 68
J amaica
b ust
c algary
Ġf lower
ĠE lect
Ġ6 67
Ġso ber
Ġ38 3
ĠX x
Ġshe lf
Ġimmedi atly
izz abelle
ĠORI LLIA
C are
C entral
R ece
e ven
49 30
lic ated
ĠDo Do
Ġrespect ed
ĠBarb ados
NE AK
ĠBrook lyn
Ġval uable
Ġtout e
STA G
ĠINQU IRE
R EST
l antic
Ġu ber
lo l
ENT UAL
Ġ403 60
ASS Y
ĠCur ly
Ġes perience
Ġvol can
ĠVe ga
Ġfreck les
C l
k inks
Ġc n
ĠT V
ĠT ITT
Ġ4 80
Ġ7 61
37 86
35 54
ĠGET TING
ARD EN
252 3869
Ġbien ven
ĠUND EN
roll ing
LOOK ING
8 66
Ġb f
ĠS D
ĠP UNTERS
ĠH ailey
Ġsm oot
Ġclass e
23 29
Ġer upt
Ġac ton
Ġ074 696
ĠHun g
Ġgarant ie
Ġ:- *
Ġtra ffic
Rom antic
d fk
ĠH ouses
Ġr ite
Ġli ly
um m
Ġ9 46
Ġyear ning
ĠMe ghan
bl ond
Ġ20 6
ĠFe atures
tern et
ĠHy geine
------------ ---
Ġdest ination
ĠTUR NS
ĠPP V
Ġ078527753 37
Ġvolcan ic
R OW
s outh
ĠL ol
Ġ4 96
IN S
ĠV EN
Ġnot ting
ET ED
Hi ii
EL I
Ġhigh class
85 46
Ġcaptiv ated
Ġ........ ......
ĠSET T
ĠCHR IST
6 25
h f
Ġc elebr
ĠW ONDER
ĠJ ewel
min us
ĠREQUEST S
ĠENER GY
. ?
u ia
Ġf ix
Ġn D
ĠG ives
ĠU ber
qu ick
ph ones
ĠParty Girl
Ġsun shine
ĠSEL INA
ĠCRA VING
ĠAVAiLA BLE
H IGH
M IND
W AL
l ot
n at
n line
Ġf ce
ĠNo on
pp ers
VE LS
66 737
65 6
Ġweek days
Ġfind ing
G IVING
Ġf orest
Ġg im
ĠT OUR
Ġfor t
ĠOut fit
Ġ!!!! !!!!!!!!
AG S
Ġcand les
Ġ_______ ?
ĠFamiliar ity
5 882
I EST
V IR
d Independent
Ġm E
ĠN YLA
ĠP ds
ON ES
ott a
AND RA
BR INA
ĠSpank able
ĠENQUIR IES
WEL COME
ĠE TRANSFER
ĠM iami
ĠP edicured
Ġst anmore
fe el
ott ie
-------- --
Ġtempt ations
Ġsc ale
dr ink
ĠRECE IVE
Ġwin ter
inds or
ĠGOLD EN
h op
Ġa ware
en hanced
ĠM asturbation
ĠRE VERSE
40 47
ĠTh x
ĠUp Market
UL INA
Ġ20 3
65 12
Ġspo iling
Ind ependant
Tr ansfers
119 8
ĠDep ilation
Ġyouth ful
Str ong
ĠAFF ILI
7 85
P ING
Ġt ub
or ies
ĠO g
Ġin experienced
Ġha gg
ĠV oy
Ġsk y
38 5
ĠAl pl
ĠBermond esy
Sw edish
eni xx
ĠAlpl erton
8 61
P imps
i ya
p ie
Ġg ard
Ġ5 36
Ġare nt
Ġen chant
19 79
66 69
ĠMar issa
ĠSUPER IOR
Ġimpress ed
Ġsett ings
ĠSim ple
ĠVi ew
8 278
E AVEN
S im
ĠS ay
ĠC ard
ĠB oot
ĠM ckenzie
Ġ2 17
ĠIn TER
ĠEX QU
Ġ289 697
ĠAM BER
Ġsw iss
ĠLey la
82 34
++++ ++++
sam antha
ĠDRI VE
. @
B ec
S UN
V al
V ide
a el
n ch
on ym
Ġs ick
ĠL OUD
ĠR iley
ĠLong ing
Ġking ston
Ġlaugh ing
$$$$$$$$$$$$ $
. ~
6 453
B ella
is fil
ĠE jaculation
ĠN ATIVE
ĠH oli
ĠTO T
RI EST
ĠCH ANCE
Ġsu pport
Ġ89 1
ĠPU Y
AGS ANGELEYEZ
ĠInTER ETED
RIEST AGSANGELEYEZ
6 27
N ORTH
r ise
t ropical
u i
Ġ3 34
Ġe ating
30 1606
Ġ8 69
me asurements
ĠOR DINARY
iC i
Ġnaught iest
Ġ07557 301606
: #
t alented
Ġt ask
Ġc raw
Ġl it
Ġd erriere
ĠK eele
ĠIN TO
Ġhe don
ĠXOX OX
Ġbeaut ies
ĠUNI FORM
1 07
B AND
ĠT ags
Ġn ou
la ve
ĠH FH
ĠF loor
ĠD ead
Ġst yles
ĠJ EN
qu ests
19 1
id ents
Ġ705 2523869
ĠReg ulars
ĠBAR BIE
ĠWednes days
Ġgross e
B y
Ġt iger
Ġh olborn
Ġo xford
Ġ2 24
Ġserv ing
Ġgu ess
london angelsescorts
Add ison
Ġcult ural
ĠEXQU IS
D rop
I ll
T imes
ĠA y
ĠP K
ag g
24 33
pt ions
Ġmass ive
46 149
ONT ANE
ĠOri gin
Ġ0749 7
Ġ0757 2697
Ġfess e
Bay view
ĠBliss ful
ĠPhys ique
Ġ289697 3923
B elle
T ant
Ġ6 40
Ġde bit
39 7
21 23
ĠPleas urable
Ġcomplim ented
Ġ0748 1945
451 24
LIST ED
Ġ07481945 388
J apan
c ity
if ique
Ġ4 31
ton s
Ġle gged
Ġmin i
11 80
av is
57 07
ĠHE ZEL
Ġ075 39
ĠVI KI
ĠTOWN LINE
ald stone
ĠANG ELS
Ġhy genic
rett iest
ĠPUN JAB
Ver ified
2 27
5 138
8 45
A sm
m ixed
ĠS izes
ind ian
Ġk ilburn
15 9
ap et
min ed
Ġkn ights
SA P
ĠRoom mate
ĠPL US
ĠPal mer
ĠTON S
Ġcons ent
bath tub
ĠSTAY ING
ĠPho enix
Ġ074055 45124
M iN
R are
Y O
Ġt act
or sk
Ġm ke
al ienne
ĠE LEG
ĠB ailey
Ġh ide
ag orsk
atur ism
37 30
35 84
ĠUn ite
39 6
ĠEn ough
ĠLE YTON
Ġz agorsk
apple flower
Ġnorth west
ĠPrefer ably
Ġproud ly
show ing
Ġunforget tably
3636 672
ĠEXQUIS ITE
apet ia
Ġzagorsk apetia
ĠP IX
AT ERS
Ġ9 90
Ġ8 67
My a
bsol ut
Ġexpect ing
OUN G
Ġfac ial
ĠSens ation
Ġslo ane
uR u
SENS UAL
ĠTOT ALLY
Ġ07572697 684
g us
l uent
Ġb dsm
ĠF igured
ĠD ece
Ġ: .
ton ed
Ġle icester
Ġun protected
ĠDu fferin
ĠSoft est
ĠHOUR s
98 6
Ġquick er
SER VICE
Ġaff luent
FR ICAN
ĠUNIFORM S
: ..
Ġs ont
Ġ1 26
im it
erv es
ĠRe flexology
Ġ7 62
Ġ7 327
AM P
95 1
226 1
ĠPleas er
ĠBAB ES
Ġdri vers
Ash ley
8 60
F riend
R ussian
y na
Ġb ills
Ġb ank
Ġf um
ĠIN V
Ġpre fers
ĠFe b
Ġcomp la
ĠPAMPER ING
Ġeth nicities
ĠWI H
MULT I
esh es
Port uguese
k ill
n ite
Ġh anging
ĠN uRu
Ġn ord
oo oo
19 4
39 61
Ġind pendant
Ġallow s
Ġboo b
Ġyork ville
Old er
ĠFLA WLESS
ĠCURIOUS ITY
Ġerupt ion
ĠT IL
ĠG mail
Ġgood ge
ĠDisc ount
ĠDE FIN
ĠJam ac
Com panion
Ġjudge mental
Ġ0787 46149
Ġerect ile
esth ills
ONTANE OUS
h ip
m adison
w ys
ĠA BSOLUTE
ir ts
ro ke
ĠK ell
-- $
Ġ9 22
Ġv ale
ĠTH KS
go ld
ĠEnjoy s
Ġweigh ing
Ġconvenient ly
Ġpol ished
comp ar
Singap ore
0 690
6 50
C ash
L OR
T OP
n i
Ġf ond
Ġn iagara
UR ES
05 88
Ġboot ie
AND A
ĠTal on
ĠROOM S
ĠGRE K
Ġfoc used
A mer
l atina
Ġcall es
Ġ9 26
17 3
ĠSL IP
Ġtrust worthy
ĠLEG IT
Ġapolog ize
icte vely
A ffection
N ikki
S EE
c iting
e h
ĠB anff
IN DEPENDANT
Ġhot t
Ġ8 16
ream ly
Ġ27 1
OY O
ĠBrampton s
Ch loe
Ġhun ger
ĠMOM ENT
Ġorgasm ic
Bb w
ĠSUM MER
t anned
ĠS we
US CIOUS
Ġ** (
ĠST RIPTEASE
gr ades
Ġpe ace
ĠEN TR
ĠGO AL
ĠAD M
Ġpick ed
ĠER IN
Ġlimit ations
Ġ$$$$ .
ĠGAR UNT
Ġknights bridge
3 606
Z Y
b re
ĠB od
ĠB IZZ
ĠN ATAL
ĠR U
ĠD IM
AN IE
ĠAm elia
ĠBr ought
ĠFA IR
Ġsn ack
Ġlisten ing
Feel ing
Ġfet eshes
ĠPAP I
5 89
ĠC OS
ĠE m
Ġfor ms
Ġst ands
16 902
UN FOR
Incall Outcall
Bon jour
ĠNIP PLES
Ġscent ed
9 28
D is
M ilton
W OOD
s ure
Ġ1 24
ĠY Y
Ġk ay
$$$$ ____
ĠGen ie
ĠCl ub
ĠJul ie
Ġ289887 7289
ĠCRED IT
B DSM
Ġw ake
Ġf irty
ĠA ZZ
sp rings
ĠINQUIR Y
oice escorts
wa iting
Ġorg Asm
ĠMi Ka
ĠMAY A
ĠChrist ine
incl uding
( :
5 42
Ġ edu
ĠL oo
Ġ2 13
Ġ5 663
Ġj w
ĠPARTY ING
43 26
ĠSHOW ERS
Ġentertain ed
ĠSOME ONE
RO OM
ĠSeduct ress
ĠNipp les
Ġgard ens
i Ts
Ġs is
.. !
ĠK N
AR F
Ġ8 29
me m
ANT FORD
Ġwaist ers
Ġmans ion
Ġ078 27
ĠAPART MENT
ĠRICH MOND
C raving
Ġt i
ĠM ILLS
ĠY asmine
Ġ9 97
ĠTh ink
39 4
ĠDIS SAP
ĠTr ans
Ġgr ade
317 5
ĠPrefer able
Ġtw enty
Ġflav or
Ġ0782 47
O nt
u phor
ĠC yn
ĠP UT
ĠD en
Ġj ennifer
ĠWH ARF
ĠSex Y
ĠFE ES
:* .
Role play
Ġbrom pton
Ot iC
C ater
v ictor
an essa
Ġ1 190
ĠL ome
Ġin vig
ow ed
Ġat te
ess e
and ar
sh ing
17 12
Ġmass aje
Ġdeep ly
Ġwonder fully
Every one
ICH ELLE
ĠBelle ville
Ġ205 2
T ongue
c reet
w ide
ton ight
Ġk ens
lo shing
38 2
Ġ10 4
58 2
Ġfing er
ump ing
Ġ170 2
Ġsuit or
Ġ075729903 12
Ġconsider ate
_______ $$$$$$$$
Ġmusc le
Ġsof a
ĠAdv ance
Ġp ap
ĠA stonishing
ĠH US
ĠH OM
ĠF av
ĠD ue
am ina
Ġal isa
ĠLondon West
Ġ9 66
Ġres erve
ĠUn forget
Ġke lly
ĠEN T
ĠLow ballers
mb roke
sun glasses
Ġdd ict
303 22
ĠAri el
ects pam
ĠTHER APY
ĠSNAP CHAT
Ġ28993 30322
ĠRebec ca
ld er
ct ic
Ġbb f
Ġsens uelle
ĠSil k
ĠWAIT RESS
Ġ078 66737
ĠLapd ance
######## ########
Ġbienven us
Ġ07866737 737
5 50
T her
er c
Ġs udbury
ĠN asty
Ġd are
ĠR IKA
ĠD ance
OCK S
ĠEvery day
Ġcare fully
Ġmay a
iet yescorts
Ġcl oud
Ġholi days
ĠTAIWAN ESE
ĠNak ysha
var ietyescorts
N AM
l ast
Ġa ld
ĠI rena
ĠA UG
Ġl inks
ĠL yla
ĠV iet
TH IS
Ġpart ners
my amoore
Ġdesc rete
Ġstr and
Ġimpress ion
Ġtri ps
Ġmu y
Ġil ford
ĠHUS BAND
ectspam tl
H oney
H ygiene
N t
W or
Ġa sc
Ġw ished
Ġb urn
Ġn ecessary
Ġo l
Ġbo is
ens uring
ĠSE ARCH
Ġro b
cl s
ĠPRO PER
ĠAtt entive
ĠAss ets
Ġign ore
91 15
++ +
booking s
ĠZo ja
ĠNIA G
ĠAwa its
ĠF ig
Ġme aty
ĠJ enn
Ġgu ests
OT AL
25 8
Ġrespect fully
Th ese
94 29
IST IBLE
ĠJo Jo
Ġnor m
Y OUNG
Ġs carborough
Ġbe ar
Ġ3 47
Ġ3 71
Ġk orean
ol ist
riv es
Ġ07 34
ĠBLACK LISTED
Ġsens uel
Ġ----- ---
ĠHAND LE
ĠRESP OND
ste phanie
Ġoverwhel m
ĠGARUNT EED
) ::
5 24
ĠB ottle
ĠH usband
ĠF ORE
ro be
Ġr uss
Ġ647 85
ard robe
45 10
Ġass isted
ĠTr isha
Ġgr ass
Ġglass es
Ġcontin ue
K ing
Ġf isting
it ure
ĠM ARY
87 00
15 52
ĠWe re
ĠUn limited
UL ES
ĠPro per
be auty
ST ATS
ĠKim my
ĠBo Bo
ĠInter active
) &
C AM
G ifts
Ġ ick
an ia
Ġp aul
ĠM ika
ss ion
ag an
OT S
13 17
15 57
ĠSH OULD
Ġhun g
Ġ==== =
ĠSeduct ion
Ġholl and
E l
F UCK
N udism
S arah
ĠL inks
ad ina
qu ent
DD Breast
14 4
ĠSh aven
Ġpre mier
Ġpre ferences
For get
ĠJO JO
ĠWED NESDAY
G e
M orning
W ed
Ġl aughter
ĠT attoo
ĠD UR
ĠD ild
Ġ** :
but t
Ġshe pherds
Ġsc reening
ĠMin i
Ġturn ham
Open Mind
wy ch
Ġdiscount ed
ĠDix on
Tot ally
Ġappart ment
Ġw onders
Ġb ori
ĠS chool
ĠP un
ĠL IM
ĠL USCIOUS
ur t
Ġwill esden
Ġu xbridge
ĠRo bin
ĠPlay Mate
Ġ0 188
iv ating
58 22
Ġcomp are
Ġdoll is
ĠBel ow
Ġhy de
fford able
Ġpol ish
yles bury
specials I
3187 180
ĠDIAM OND
N ude
Ġg ants
Ġo val
Ġ3 26
Ġbo by
ĠBB J
Ġnew bury
Ġoff re
ĠLOC AL
Ġrom ford
WW W
En D
Ġwhe tstone
Ġpim lico
Ġleyton stone
perf ectspamtl
Ġpaul s
E O
V OR
r on
u gh
re ad
Ġm aida
Ġw anstead
Ġb ient
Ġp inner
Ġp arsons
Ġp erivale
Ġc irch
Ġh orth
Ġl oughton
ĠM ell
Ġd ulwich
Ġo sterley
Ġe uropean
if action
... !!
Ġst reatham
Ġr uislip
Ġr avenscourt
Ġr ickmansworth
Ġne asden
Ġup minster
Ġbl indfold
Ġro ding
Ġpre ston
Ġ35 48
75 1
Ġher ne
Ġreg ents
Ġfin sbury
Ġpe ckham
ĠCAN ARY
Ġput ney
43 22
TER B
Ġpic adilly
Ġlat imer
(( (
ĠGr and
Ġsouth fields
Ġmon ument
IZ ED
Ġnorth wood
Ġnorth olt
Ġstep ney
Ġsn aresbrook
ĠCa Se
Ġcr icklewood
Ġmor den
Ġtu fnell
Ġqueens bury
Ġoak wood
Ġmoor gate
ĠMOAN ER
Ġfuns bur
Ġray ners
ĠADM IR
Ġruss el
Ġcirch s
Ġhorth wick
S ame
f ie
Ġa ylesbury
at ings
Ġb ck
!! ,
Ġha inault
ke w
our s
Ġup ton
Ġup ney
Ġhigh gate
ath way
ount ain
Ġthey don
Ġturn pike
Ġwest bourne
Ġstock well
Ġcheck ing
ĠDomin ique
Ġwood side
Ġkings bury
foot prints
Ġcr oos
Ġtott eridge
Ġel ms
Ġhorn church
Sky pe
??!!!! ?!?
Ġald wych
Ġasc ot
5 959
9 60
ĠS AT
ĠS PEC
Ġh olloway
Ġh endon
Ġh anger
Ġh atton
Ġg ig
Ġg unnersbury
Ġo lympia
.... :
ĠSt ill
Ġhe athway
OR I
sh am
Ġwe aldstone
Ġ24 2
itt any
Ġhigh bury
ĠExp ert
Ġgreen ford
ĠTR AIN
ĠFe mme
Ġgr ange
ĠGold rs
ĠRO BIN
Ġut ney
Sp loshing
ĠClient ele
ĠParis ian
ĠAttend ants
Ġhar lesden
ĠSQUIR T
Ġkenn ington
Ġ078746149 37
Ġkens al
Ġick enham
6 28
Ġh ate
Ġ* ::
ack er
Ġ30 3
Ġgirls and
aters port
ĠRos ie
ĠFriend s
Ġins ist
BO OTY
Ġxxxx x
Ġpos h
P erson
d ream
ĠG INA
Ġ5 57
87 77
ENT IAL
ĠEvery time
Ġwast er
ĠEXPL ODE
Ġ0745 3187180
Ġham ilton
ĠInclud ing
gu aranteed
710 8
ĠEr ica
Ġclim ax
B es
Ġs napchat
ĠT atted
ĠR OSE
ĠG ang
Ġ2 77
Ġ2 70
ĠQ ual
Ġ[ [
ĠPer formance
ASS IE
ĠBeck y
ĠUs D
ĠCHAR GE
Ġvan essa
Ont ario
B s
F ANT
W ILL
W omen
Ġt es
Ġc ob
Ġn am
Ġin convenience
ĠK iN
Ġso cks
Ġ07 58
ĠAn nie
55 9
Ġoral s
ĠProvider Sexy
ather apy
HEY YY
Ġfavour s
fil m
ssion te
B bbj
ir mation
Ġj asmine
Ġle isure
ple ss
DE EP
Ġro les
78 3
Ġenc ore
IRE D
WH AT
LOW BALLERS
F in
P amela
_ $
es p
Ġp s
un k
Ġe astern
Ġan na
PER Y
ĠSAFE PLAY
ĠDES C
Ġ079 46
Ġ________________________ ______
ĠLES BIAN
Ġemotion less
E mily
M O
Ġs lightly
Ġw s
ĠL und
ĠG igi
LE VEL
Ġmake up
Ġtr ansfers
ĠPLAY SKIN
ĠSA BRINA
Ġche lsea
02 18
PRO PER
ĠLOAD S
ĠRefresh ing
2464 37
B I
X OXO
Ġw ana
ĠS ENT
ĠL ay
... (
Ġmin st
65 7
ĠUP ON
53 12
ĠProm pt
aj an
Ġbro ck
ĠTIP PING
ĠComp lim
Des ire
ĠDADD Y
ĠIRRES ISTIBLE
ĠDece mber
8 50
K at
ĠC ost
ĠE DU
ĠP urchase
el ible
ĠSafe play
be verage
Ġroom mates
Ġind elible
bb y
Ġign ite
Ġdelight ed
ĠZ one
Ġdomin ate
Ġorg an
BO DY
ĠPRIV ACY
ĠA rom
ĠM UL
ĠP as
ent ies
AN IAN
30 55
Ġsmile s
Ġtri ple
ĠLes bian
ĠEntr ances
D ouble
an ical
ĠP OU
Ġonly No
ĠON ly
up ont
ĠTh ats
ĠTH ATS
ĠQu iet
110 6
london escorts
Ġhygienic ally
SPE ICAL
Ġcher ish
VIR ON
- @
E astern
ĠE du
ĠW ISH
Ġ3 28
ate ur
Ġan onym
Ġ* ~
10 94
36 42
ĠAll Real
Ġhapp ily
95 6
Fant asy
ĠNaught iest
ĠWoR TH
ĠAstonishing ly
ĠCaSe Dy
it l
ĠB enefactor
ĠP le
ĠH IRING
ent ary
IL LA
Ġmar ia
Ġtell ing
Ġxx oo
Ġbal ance
+ $
0 873
C ouch
F uton
a im
p ress
ĠS ierra
ĠC ounty
ĠEscorts New
ee ly
ĠK andy
!!! )
ĠAN OTHER
Ġdis respect
Ġroom Futon
ĠMON ICA
ĠLIND A
L ONDON
S elena
Ġs on
at ineau
ĠC BT
ic he
ĠB OUN
ĠO u
un es
IN ATE
OM Y
13 53
ĠEn JOY
Br and
can o
Ġju ic
Ġrec ording
585 2
FA CE
SL IM
hotsexyk itten
ĠAdv anced
ĠBREATH LESS
Ġwise ly
ĠEdu cation
B ell
Ġw arn
Ġbut ter
ĠCan more
Ġcon v
ĠSpecial y
55 5
St ats
Ġpersonal ities
ĠSENS ATION
~~~~ ~~
Ġmet iculous
Ġtw ist
Qu iet
MED I
COU PLES
5 28
ĠS low
ĠG ILF
ac helle
oo ts
un t
36 45
iz ab
Ġhigh s
Ġaval aible
echn ique
ĠINCOMPAR ABLE
ĠJamac ian
7 87
R L
c ate
g arden
t ant
re es
it z
ĠP ackages
Ġn at
ĠO U
Ġe kh
ol bs
get ting
Ġag ed
PP ING
ĠFe minine
ULT IMATE
For mer
Ġcharg ed
ĠBED ROOM
MOR ABLE
REST RICTIONS
* ..
g ram
am s
Ġ4 87
Ġ6 35
Ġ* -
Ġ647 97
Ġbl end
Ġ07 94
ĠHA GG
68 2
gy pt
not es
ĠUNFOR TUN
ĠSuc cking
Ġxt ra
ĠAFFILI ATED
Ġconsent ing
5 29
7 28
C IAL
F uL
J ess
\ \
a ime
d er
s panish
at iful
ĠS ale
ĠA PT
ĠM obile
am user
Ġ5 79
ĠY RS
Ġst eely
Ġtreat ing
22 36
Ġprefer ably
ĠDel uxe
Ġpor ky
Ġmaintain ed
ĠEr in
Jen na
ĠMed iterranean
S EDU
f ac
g E
Ġ3 18
Ġ6 54
Ġan cient
ss ss
Ġpro ceed
ĠText e
27 87
Ġfre ndly
67 69
Ġhel ps
ĠGIRLS Niagarase
ĠFant as
Res pect
ĠAV AL
<><> <><>
F ID
M SOG
U mmmm
w ton
an al
ĠO c
az e
Ġ0 642
IA BLY
Ġ437 37
my stephanie
ĠFac ilities
ĠFr anc
ĠBond age
ĠHOST ING
ĠCle ar
Ġ________________________________ ___
Ġtrain ing
ĠPA ULINA
ĠDIV A
ĠDOL LAR
Ġtem ps
ĠUNDEN IABLY
Ġedu cation
5 26
; :
ĠA ustral
Ġam ple
Ġth x
16 7
ĠEn quiries
Ġ== (
ĠAnge ls
ĠDEPEND ABLE
6 21
A A
T iffany
T ATTOOS
b ubble
l is
ll s
Ġ2 38
end y
th or
Ġpro pre
for ced
Ġtr u
Ġmom ma
56 20
ban ese
Ġz est
988 1
Ġconsider ing
ĠDR INK
ĠELEG ANT
compar able
ĠPOU TY
VIRON MENT
1 138
W eek
k inky
s ilky
as er
ĠE DG
ĠN aturism
ĠJ asmin
40 57
Ġcurv acious
old en
ĠLe T
ĠMore somes
Ġsuck able
Ind ulge
quir ting
799 5
ĠComplim entary
W B
ĠL ynn
ĠY OYO
ess ert
40 39
15 00
Ġ50 1
ĠFre indly
84 1
ĠNe arest
aledon ia
Ġinf os
Que en
ĠEmp ty
ĠTiff en
ĠVEN EZ
esp eler
v ory
er man
ĠS elf
ĠW indsor
Ġ587 85
Ġ15 122
Ġrest ricted
ĠWITH IN
ĠLE FT
ĠEM ILY
Ġcult ured
ĠFOLLOW ING
, ..
6 79
B IT
G IN
a T
Ġc roydon
Ġh o
ĠT ANT
ĠM ade
ĠF ore
ĠL in
ĠK ass
AT OMY
ĠAN ATOMY
Ġ9 20
Ġadd ition
OUN TAIN
ok in
zz z
ĠNEGOTI ATING
oci ation
Ġcam den
ĠINT IMATE
Ġglamour ous
]] __
Ġfeed back
[[ *****
wton w
7 46
9 206
G h
N d
O o
t ra
re w
Ġl U
Ġg ri
Ġg rowing
ĠH hr
Ġal t
Ġper m
Ġdesc reet
Ext ra
334 42
Ġdynam ite
Ġ64797 33442
5 295
6 372
D RIE
F ilip
T OTAL
d ated
ĠS ANE
ĠR achelle
ĠEscorts South
__ [[*****
US ASTAGSANGELEYEZ
ham p
ne ment
ĠIM MEDI
Ġmassages real
ĠVI BER
Ġqueens way
Ġrem ain
ĠCREAM Y
__[[***** ]]__
E BONY
m ay
Ġm ult
ĠP AN
Ġbe w
Ġne ck
ig its
30 6988
Ġi d
AY LOR
14 37
ĠAm illia
ĠSh are
li xxir
ĠGent lmen
Ġ175 36
BAR RIE
Ġlack ing
6548 15
306988 654815
6 33
r ny
Ġw ilson
Ġlo ka
IC ATION
ĠGu est
Ġsp ort
Ġ10 25
CH M
Ġx O
Ġfing ering
,,,, ,,
Ġcons ist
889 8
Ġspl ash
ĠSLIP PERY
, (
5 88
in ook
ĠS ass
Ġst d
LL ING
Ġreal ise
ect ive
ĠEx OtiC
id i
Ġthick ness
ĠDisc ounts
Ġtop ics
Ġappreci ates
ĠSEL ENA
Ġreek Me
cern ed
ĠS pending
Ġh ug
ĠM ISTRESS
ĠG AG
Ġlo v
Ġbl ues
UR ANT
85 2
ĠUN PAR
Th ailand
co vered
Ġblond ie
AUGH AN
ĠMag n
On E
PLE D
iN g
Ġ|| |
Ġpc iture
Stock ing
`'..' )
ALLE LED
ĠDIM PLED
Ġgrass ette
ĠUNPAR ALLELED
Ġg iver
ĠH ARING
ri ous
Ġr ussian
Ġch oos
au la
Ġ9 95
Ġ# #
Ġ075 493
An I
person al
)( `'..')
ĠSep arate
nicole fisher
ĠHARING EY
1 27
R ENCE
g es
Ġt tr
es ional
ĠA ffordable
ĠE E
Ġh ir
ĠM olly
us k
ĠRe quests
lo ts
Ġ7 88
Ġ8 4
ĠMulti Hr
Ġhard core
CA F
ĠTHEM ED
ĠTow el
ĠNATIONAL ITIES
ĠVib r
ĠlU ka
Y N
ĠS leep
Ġl ulu
ĠON CE
Ġsex xxy
ature d
Ġro gers
Ġhigh er
ĠCurv is
ISH ED
ĠPAR IS
ĠSH I
Ġ27 6
pl ore
Ġtw enties
Fe et
ĠMa e
:)) )
Qu ick
ĠAwesome ly
ĠArt iculate
0 464
B razil
H it
m achine
ĠC innamon
Ġl av
ĠN ASTY
end ez
Ġ4 73
Ġst ick
Ġout cal
Ġ647 495
Ġ647 488
Ġ7 20
ĠSp ark
ĠCO ATED
Xo Xo
Ġpol icy
ICO KE
Ġalex andra
Int elligent
( `'..'
. ***
G mail
P orn
Ġs era
Ġf av
Ġc in
he aven
ĠB oul
Ġd ull
Ġn UMBER
Ġin k
ch on
Ġ647 55
sh ared
37 7
ĠAre as
95 4
ĠASK ING
Ġdr m
268 40
MOR ROW
Ġelect ric
vol cano
ĠENTR ANCE
Ġttr ctive
(`'..' )(`'..')
' $
2 604
B ICOKE
t it
ar i
ĠC rave
ĠC BJ
Ġg iant
Ġ07 583135054
Ġprom ote
Ġpackage Guaranteed
Ġself ies
ĠNat acha
Ġconfirm ed
ĠCondom s
Lap dance
ĠSedu ce
ĠADMIR ABLY
as ut
ex pect
ĠG ATE
ĠG EEK
00 7
Ġplay s
ĠLondon L
40 36
ĠPre book
ĠAPP RECI
Ġcont acts
ATS U
Ġ........ ...
BAR RIESTAGSANGELEYEZ
ĠMemor able
ĠALEX IS
thor pe
ĠSHI ATSU
S ome
h ound
s a
Ġp ssionte
ĠT ill
ĠT echniques
ĠM ajor
Ġn me
ĠL ing
ens es
Ġext reamly
UN PROTECTED
Ġ!!! :
ĠWater fall
May fair
Bes ide
C ATION
d aty
j anny
r ough
v ian
ish y
Ġ30 1
Ġ613 90
Ġx p
447 45
Ġaval ible
sl ot
ĠIR ISH
ĠGrey hound
ATHER APY
izab eth
CHM OUNT
H OL
P antyhose
en iably
ĠA ube
Ġn udes
st it
st yle
Ġ4 92
out ine
ĠSt yles
ĠTH OSE
ham thorpe
ĠST REET
ĠSH EM
ĠDe vil
af ael
miss j
Ġsitu ations
Ġbath urst
Ġpear ly
Ġbon us
ĠLaure l
indfold s
ĠCurve y
Ġappointe ment
fortun ately
Ġbew itching
ĠSHEM ALE
Ġt a
ĠS ON
ĠC OST
ĠA FRICAN
ĠR outine
Ġme ow
Ġcon vo
Ġ226 58
uit ive
So ph
ĠYork ville
Ġide as
EAR S
eur ism
Ġ647717 3584
9 32
I PE
M In
h at
s ur
an ston
Ġf le
Ġh ve
Ġcan ns
ple s
Ġsh ake
Ġ60 1
Ġtoo k
Ġcar ribean
81 24
ĠBoo oty
ĠFAVOUR ITE
Ġbargain ing
P URE
T OUR
ĠB ajan
ĠO s
ot ed
Ġst reak
Ġsh es
ĠServ ing
Ġ0 994
-------- ---
ĠSex iness
ĠFe es
ĠMiss ing
CAR D
Ġtant ra
Pe el
role play
Ġtantal ising
ĠBoy z
) !!
r n
in ad
Ġw ardrobe
al a
ve lle
ĠME ASUREMENTS
ĠHe el
ford shire
app ily
mble m
Ġ075 90
amb i
ech at
03 11
Ġsit es
Ġ0745 95
Ġir ish
Ġ****** **
ĠDRESS ING
Lex i
Part ies
* :*
F lower
L AT
X t
j s
m u
p y
Ġb ord
ĠB REAK
Ġh ooking
ĠN ik
ĠH IPS
Ġin ternet
Ġ6 37
eri a
ĠV ANESSA
dro ps
75 6
Ġ403 47
Ġsc ul
SO FT
FETISH ES
Ġ75 90
Ġunload ing
Female Escorts
rif at
L ayla
S ingle
m atch
re ed
ĠT our
ĠT ast
Ġha le
ĠJ ASMINE
ra ised
ET R
Ġ36 58
69 3
add ie
Ġinv rifat
ĠSmooth y
ANG EL
Ġ13 22
companion ship
Ġstro kes
ĠAROM ATHERAPY
C BT
R a
U EL
l Y
Ġw ink
Ġl anguages
ĠO IL
st ud
st ance
Ġ4 40
ĠK E
ret te
EL ITE
ĠAr isa
CAR CALL
ĠTouch ing
Ġcondom s
Ġlead ing
ĠFAVOUR S
c ash
Ġt ummy
ĠN ANA
ĠL IP
ĠR afael
Ġin q
IS TA
Ġvi be
Ġ45 1
Ġsc r
quir ter
ĠBU BB
Ġparticular ly
C urves
M ia
P ay
R os
T WO
Ġf rivolous
ĠS pectacular
Ġe uphor
Ġ7 16
ĠTO MORROW
ĠBe ach
ĠGu arenteed
ĠMan agement
Ġkeep ing
******** *
ĠTreat ed
ĠMar iana
ĠTALK ING
ĠACCEPT ING
ANC ASTER
Ġgrabb ing
ĠSETT LE
M AS
M adison
S aturday
Ġw esthills
ĠD one
end ers
Ġst ags
ey e
Ġat es
Ġli es
30 61
ĠMe ow
Ġint uitive
ĠST RI
Ġ:) ))
ĠIs lands
83 37
$$$$$$$$ $$$
Ġacc ount
926 7
str ate
Ġsep ar
Ġpref fered
1557 20
ĠEDG ING
J ane
N IE
Y I
f allen
ĠS en
ĠO l
Ġre mem
ch a
erv ant
EX CE
Ġar ts
LEAS E
33 60
Ġdel ic
ĠLe vel
Ġ.... .....
Ġ69 7
An T
pi ece
ĠPROF ILE
bbw just
585 1
ĠTUR N
Ġobs ervant
Ġequ ally
ĠAGREE ING
iga rette
ĠMagn ifique
N IA
m istress
w p
al ya
Ġg g
ĠF WB
if ull
ĠIm maculate
Ġv ag
37 3
Ġ8 14
ĠSafe Discreet
Ġsu its
Ġrece ip
ĠWANT S
Ġfollow ed
ĠQUE ENS
FIR M
ĠTRANS FER
ĠFo xxx
C UB
F L
w avy
Ġw il
Ġb ue
Ġg oogle
ĠP age
ts ville
Ġ6 26
ad z
ad or
ont aine
50 86
Ġsm o
Ġv o
99 53
Ġpri des
br uary
FF M
ĠTREAT ED
Ġappro ved
ĠSTE PH
Ġpc s
ĠArrange ment
K enn
K eele
T el
j ay
Ġm aturity
ĠS oy
ĠH OOK
Ġin sp
ĠD a
Ġ7 22
17 19
18 30
els ey
ĠWood bine
Ġ90 4
ĠLU CY
BL ONDE
Ġsatisfact ory
CAM BRIDGE
D esc
M AND
m utual
Ġd ry
ĠG ND
ĠD arling
00 74
ĠBB S
37 8
TH UGS
Ġwhere ver
ĠIndian s
ĠAPP LE
ĠKING STON
ĠNICE Mouth
ĠSEL F
ĠSec ure
ĠAug ust
ĠChant elle
Ġston y
Ġteen age
Ġscul pted
5 17
6 370
M ixed
g ian
m and
s lave
ĠC E
ĠT AN
20 16
ĠRe asons
Ġsk il
Ġ8 256
ĠUn able
Ġ80 5
Ġ0 4
ITE LY
ĠCON FID
ĠRESTRICT ED
coll ege
ĠCOU GAR
ĠDESIR ABLE
ĠRM T
ĠNature l
ĠEss ex
Inter course
Ġmischie vous
Ġlog ical
gypt ian
Ġsmo ky
4 160
6 78
: ?
B ELLA
C ANDY
G IE
Y OND
i pping
ĠS S
ĠA verage
Ġg ang
ĠM IL
Ġn ughty
un s
ĠJ acuzzi
ab el
com ple
Ġ8 39
Ġ69 6
Ġfuck k
AG INE
ĠEXOTIC A
ĠBACK GROUND
usb ands
ĠCup s
gu ys
Ġsol id
ĠPat ricia
ĠQuest ions
Ġneighbour hood
D iamond
P ol
S ize
T exts
e ast
Ġm ia
Ġm aj
ĠT AYLOR
ĠF ella
Ġ4 90
80 83
Ġj ack
60 39
Ġ40 5
Ġ07 587
---- >>
Ġ289 434
ĠFetish s
315 7
Ġ0790 8
ĠOff ice
Ġfut ure
Ġdeter mined
2329 8130
6 48
f h
r isty
ĠA uburn
Ġ( .
qu ries
AM ANIAN
UN E
65 8
Ġwork ed
Ġexperien c
ĠADD RESS
Ġsl ides
ĠJess y
va eh
ĠPROM OT
ĠBob bie
cr acker
sham rock
ĠPAN AMANIAN
ĠOs aka
E AN
Ġs omes
Ġd ro
ĠR unning
Ġe mer
Ġas leep
Ġ7 10
ĠEx ceed
35 39
ĠSweet s
bl indfolds
Ġhelp ful
Ġri m
XX Y
open minded
ĠFRESH LY
Ġve ux
Ġnicole fisher
S EL
s i
Ġm ap
ĠS al
Ġp ret
ĠB AL
ĠM AMA
ĠM ICHELLE
ĠP Ds
ver te
ch oiceescorts
ED MONTON
Ġ647 99
sh ipp
Ġch ose
Ġsweet er
ĠSpecial tys
Ġco de
New market
Ġhum an
Ġdeg ree
Ġdpla cement
Post er
Ġ______ ?
3 13
E nt
L ots
k ht
ĠA UD
and i
69 08
ĠMan i
ĠSp cls
ĠTR AN
PL S
Ġexpl ored
Ġcl if
ĠTal ent
Ġdirect ed
ific ent
Ġgentel men
Ġcompet itive
Ġ6047 246437
Rece iving
ĠVoy eurism
F a
S B
m bers
ing ers
Ġh v
ĠM AX
Ġn uts
ĠL AYA
ĠK NOWN
vi er
Ġgu ilty
ĠSweet est
Ġ8 30
ĠUn protected
ĠHigh est
ĠHE Y
girl friend
Ġfinanc ial
ĠTXT ING
ĠThere fore
Ġver ification
ĠTex r
SK ATES
Ġtx es
ĠIns atiable
Ġatte mpt
ĠUnforget able
F ac
h o
Ġc aught
Ġ4 47
Ġbo ard
Ġu m
12 80
ĠUN LIMITED
Ġpersonal ized
Ġsc reen
Ġprof essor
Ġju ices
ĠADV ENT
ĠTempt ation
3621 89
9 27
h unny
p os
ou red
Ġf ulham
Ġp ock
ĠL y
ER RI
Ġex erc
OU L
80 30
Ġsee m
ies fy
99 65
39 35
ĠSp ir
co e
ĠCA UCASIAN
04 50
amp ling
ĠMind JUICY
ĠHun gry
ĠMindJUICY EROTIC
0 184
H um
c igarette
n one
t reat
Ġs f
ĠS IX
00 02
ER T
Ġno body
AR I
ĠIm Sweet
18 25
Ġsp in
Ġ:) .
Ġ) .....
ĠSm oke
## #
Ġfr ust
ĠCl oud
ĠCarm ela
Ġling er
Ġ07507 505602
ĠNIAG ARA
ĠHAGG LING
2 35
6 10
Ġ xxxxxxxxxxxxxxxxxxxxxxxxxxxxxxxx
ou ds
Ġp ul
ĠT one
ĠP EN
am ple
Ġ3 27
ĠIN S
Ġ36 2
Ġbr antford
ĠCh ubby
Ġhigh lights
Ġgr adu
Al ina
Ġok ay
ĠSon ia
htt ps
ĠKAR INA
hamp oo
B ALL
M s
M onica
Ġb c
ĠC ool
Ġin form
Ġ2 18
Ġno vel
13 7
Ġim m
ĠBl vd
ĠOver Nights
ĠPhotos hop
ĠNat aly
Ġdem ands
Ġ0744 85
Ġ47 24
ĠTU I
Ġarrang ed
ĠSOAK ER
ĠAng ie
ĠSELE CTION
Ġcelebr ate
w alk
Ġw andsworth
Ġg arunteed
Ġd educt
Ġd enmark
Ġha vering
Ġ6 55
OU t
ĠNo va
ra ven
16 2
Ġbook s
Ġ226 45
600 2
ern ity
Ġ87 76
Ġdri ver
Ġcam berwell
Sam antha
ĠAval iable
ĠSleep over
S at
r ai
u ct
Ġb ayswater
Ġf lowing
ĠS ingles
Ġh uggable
ĠF ALL
ĠG a
ĠG arunteed
ĠG RIL
Ġme asure
Ġ: .:*.
40 48
Ġun us
Ġ8 38
ib e
TA BL
ĠEN VIRONMENT
Ġeach other
Ġje unes
!!!!!!!! !!!!!!!!
Ġhang out
ĠBoo ts
CU FF
ĠIMMEDI ATELY
7 492
G REEK
c ut
c urious
Ġ rive
at lantic
Ġb arking
Ġ2 34
Ġst rawberry
ĠU mm
be er
Ġ!!!! !!!!
gen erous
ĠPor scha
Ġcondition ed
Ġenvir ons
Ġbue atiful
9 47
D ES
m ot
v res
ĠA KA
ĠT om
Ġn unhead
ĠRE LEASE
Ġsm ack
ĠWest on
ĠQ ub
85 66
Ġ705 30
Ġdec ided
ĠLONG ER
ĠZ ERO
ĠAmerican s
IK O
CUR ITY
ĠLaure nt
Ġacquaint ed
ĠSearch ing
Ġintrigu ing
Ġamer ican
ĠTRANSPORT ATION
Ġbrock well
ĠEDU CATED
URANT EED
M ama
T ry
{ {
Ġm ist
Ġg ave
Ġd ying
ĠL ie
Ġle arning
Ġ07 769
ĠSE CURITY
85 1
95 8
57 1
Ġ074 23298130
ĠMon ika
Ġsouth gate
Ġsom etime
Ġspecific ally
ĠKi NG
ĠNi GHT
Ġencour aged
ĠMESMER IZING
chon ne
ĠBUBB LY
Ġreceip ts
ĠPROMOT ION
7 14
9 79
_ $$$$
~ :
Ġs orts
Ġme la
Ġfor play
Ġ2 68
Ġ- >
qu anta
LL s
Ġ7 490
au be
Ġ60 9
LEM ENT
64 69
ĠApp eler
ĠVIS ITS
ĠSc ale
ĠBay view
med al
Ġland line
Ġunivers itaire
Ġcin quanta
ĠSpecialtys pecials
ĠUmm aaahhh
Ġcinquanta ine
C ALGARY
T REAT
Ġd alston
ce an
Ġwh is
ig ner
Ġbr ow
36 99
49 00
ĠBO DD
65 62
ĠRes idents
ĠBab es
ĠCam ila
pl z
ĠVI PER
499 2
Ġut ter
477 14
ĠCot ton
EXCE LLENT
A lo
J oy
O ther
c opy
ĠD IE
ac c
AL TH
Ġ5 69
Ġ6 29
ey ed
10 36
ĠAl though
ĠSE U
ĠLat ex
In stagram
ĠTR ADE
ĠModel ing
look s
ostum e
ĠLick ing
ĠExplo sive
Ther apeutic
P ri
ĠC ASSIE
ĠA J
Ġplay boy
ap a
Ġnew ham
Ġres earch
55 4
Ġown er
bb ing
ĠDE BIT
Ġcol ombia
yy y
ĠVen us
Ġfluent ly
Ġ325 308
ĠTER M
ĠSton ey
T oy
ĠF ire
ĠRE LIE
Ġmin x
ĠAl wys
90 8
Ġab ilities
Ġver ry
Ext ras
ĠMa Ke
074 6669
Ġbrom ley
5707 327
itl z
0746669 6039
5 60
M ERE
T ravel
b oobs
q q
at i
Ġb rent
ĠS hampoo
ar cia
ĠC ub
ĠE TO
Ġl ar
ĠR ico
ĠW OOD
oy o
IG ITS
Ġpl atinum
ĠSte el
ĠAg ain
ĠGre k
Sub mission
Hel d
Hum il
C R
C redit
p ure
s ession
ĠS ITTING
ĠB IT
Ġg age
ĠL Y
ĠL UT
ĠK iko
we gian
ace bridge
Ġgo d
Ġprofessional s
ash y
UST ING
ĠTr ini
Ġprior ities
Ġsuit able
uff s
Ġsn ake
ĠBritt ney
Ġ4036 155720
BOOK ING
HUR ST
Ġinvig orated
ĠSEU LEMENT
* -
: .:*.
O wo
W ILD
Ġs utton
Ġm erton
ĠTO E
CT IONS
Ġ20 17
ĠCar ribean
Ġmo vie
Ġhum ble
ĠFANTAS YS
UB E
TR O
bbw candy
Ġboy z
Ġattend ant
rabb it
Ġtend e
Ġrem ove
ĠSPANK ING
7 405
A partment
D T
c uck
or is
ĠC ards
Ġh aringey
ĠP OP
Ġd agenham
Ġ1 11
ĠK aty
ĠK ourtney
Ġexp enses
99 34
ĠEX CH
Ġguarant ees
90 36
Ġear a
Ġur self
af fect
Ġexcept ion
ĠMel ody
ĠKe isha
ĠCOMPLETE LY
ĠCont acts
zi pper
Ġwall et
ĠTANT RIC
C ard
i very
Ġb exley
ai ge
IN T
Ġcall Category
Ġal ive
89 89
Ġblack gents
per t
ĠUN W
-------- -
65 3
att ractive
ST RIPPERSANGELEYEZ
io let
An caster
ĠTIM EWASTERS
Ġfire cracker
Ġtest ed
ĠMEL ISSA
ĠAssist ant
CANAD A
Ġtende resse
affect ionate
E UREUR
G F
L ICIOUS
M OUNTAIN
m ust
n ative
le arn
Ġ( :
Ġit alienne
ress ure
OO GLE
ĠExp rience
ĠAM ER
ĠSk itlz
ĠLe ena
Ġ075 62
Ġ>> >>>>
Ġcl ubs
mo king
Ġ343 3636672
Ġpur r
hands from
Ġrec ieve
213 6
Ġcreat ing
ĠGi RL
Ġcurios ity
MOUNTAIN STRIPPERSANGELEYEZ
handsfrom heaven
6 24
ĠN irvana
ĠM ail
ĠH HR
Ġre new
out going
Ġun a
Ġ40 38
Ġbooty licious
Ġhard working
ĠEng land
Ġconf irmation
Ġmultiple s
ĠYUM MY
Ġaccent u
every thing
ĠBoy friend
ĠROS ES
Ġdpla e
ĠSCH OOL
ĠBODD YY
A W
A my
c ord
g ET
t ch
u ase
Ġs arah
Ġn ite
ĠW ife
Ġon y
ĠV o
ish ment
Ġsk ily
Ġhot ter
15 7
Ġ587 800
Ġgo dd
Ġde b
49 59
uck ers
ĠLI F
54 33
Ġclo ser
ĠTxt ing
Ġpen etr
Ġrefresh ments
Ġmod ern
ĠSim one
ĠLil ia
ĠSTRAP ON
Ġbec uase
ĠDAR LING
1 17
p nds
s ara
Ġa a
Ġs pectacular
ot ict
ĠY U
ey ond
Ġv ast
ĠAs king
ĠAs leep
Ġopen mind
ĠMe agan
69 02
55 99
Ġvi ds
St acey
ĠOur selves
Ġ074 362189
73 19
74 19
Ġmagn ificent
gabriel asweet
47714 875
* ~
E transfer
H appily
N urse
s u
v ictoria
ĠG ir
Ġk am
Ġun for
ĠST RAIGHT
ĠPLAY ING
........ .......
98 20
Ġxoxo xoxo
PL ICIT
Ġhonest ly
ĠDomin atrix
aint ed
Ġ48 10
ĠSecret ary
ĠSIL VER
Ġrun way
255 38
RIPT ION
{}{}{}{} {}{}
ĠGROU P
Ġbient t
3 405
5 32
K ORE
S omething
s n
z any
ĠF YI
ĠR et
Ġan t
Ġst ories
ĠJ OUR
40 78
ip ling
Ġhot cuck
ĠTh reesomes
IR A
ĠQ K
49 58
sm oking
Ġroom mies
...... :
ICK Y
ĠMAG GIE
Jen ny
849 1901
ĠLUT ON
Ġhotcuck fun
0 444
8 48
G US
on ecall
Ġs us
as is
ex ico
ve y
ur ried
Ġplay full
ĠEx it
ĠTo pless
Ġ8 17
EW HERE
Ġseek ers
ĠBreath less
Ġwr ite
Ti Te
Ġmeticulous ly
0 353
9 444
g allery
x ie
ĠB ull
Ġl usty
ĠN ITE
ĠF avour
Ġme ch
ill age
ch ains
60 606
Ġ8 55
ĠPlay full
cl ick
ĠBLACK MEN
Ġtight ness
95 88
Ġtalk ed
ĠImp ressing
CO F
FA ITH
ĠBLOW JOB
ĠEXPECT ATIONS
LU KA
Ġtab oo
A VING
Ġm sog
ir ting
ĠJ AS
Ġv os
Ġres ent
UN G
ĠLO w
ĠCar fun
Ġother I
AZ Z
ĠSn ap
FO OT
big t
Ġ________ _____
ĠTasty Dr
OTECT ION
rock et
Ġchau de
F IVE
O OM
o xx
w ing
w ild
ĠS er
ĠN icky
ĠP rettier
ĠP akistani
Ġo ttawa
ĠH armony
ĠK ey
au d
ĠCh arm
69 65
ang o
Ġpl ans
Ġsoon er
Ġhard er
Ġ70 1
wh en
ĠNON E
ĠXoxo x
Ġ________ ___
Ġfel tham
ĠCat alina
Ġdam n
Ġsmoot her
ĠJOUR NEY
H ee
M AR
Ġc amera
ĠM ALL
ĠG REE
Ġre all
Ġe ffect
ĠK arma
ish es
Ġk orea
lo ves
Ġsk i
ĠAs ami
Ġ07 774
Ġbr ought
Ġdes erves
Ġfull l
ĠSam my
Ġhy geine
en ed
Ġf uss
Ġc aution
Ġ4 88
AT O
Ġsh own
Ġun married
ile k
25 4
05 96
Ġnew fie
ĠAc cent
ĠEvery body
ĠDe me
ĠCourt esan
wh ich
ĠPl enty
ĠMAR IANA
Ġter b
885 3
ĠSARA H
ĠAnton i
ĠFILIP INO
ĠHOM ES
K itty
y anna
Ġ ================================
in stagram
Ġt echnique
Ġm arket
Ġb om
ĠT IA
ĠL AR
Ġst iff
ĠRE L
az ine
ĠAc ross
In D
Ġpic utre
Ġspeak s
RES PECT
ĠSTA CY
iant ly
Ġcraw ling
A E
C ur
J ay
c ourtesanescorts
d el
m any
Ġp od
ĠF s
ĠG RA
Ġ- (
ĠK ANDY
LE VELS
ĠRE F
40 26
Ġv ent
14 142
Ġ289 218
ĠUN PROTECTED
67 44
ĠAr gent
ĠApp ly
ĠSur pr
ĠPe mbroke
ĠAD RI
EDU LE
04 27
ĠWHO LE
Ġsupp ly
Ġfantas ys
Love ly
ĠWhats App
Ġmech anical
Ġ289218 8547
E CH
p onible
ĠB ERRI
Ġo p
Ġre schedule
RE A
LE PHONE
ĠON T
Ġ647 70
ĠAM ELI
Ġ-- :
Ġmulti hour
Ġ075 191
~~~~ ~
ĠFac etime
Ġpur o
ĠRA CHEL
Ġlick able
ĠTi Ts
Ġwar ned
vip favours
ĠSpe aking
Ġlib idinous
STE ELES
gold en
Ġ64785 60606
copy right
+ /
t Y
ĠM AS
ĠEscorts We
Ġ3 89
50 32
VER IFIED
Ġdream boat
ĠTr ina
Ġ69 75
Ġri pped
ĠCON VERS
Ġdec orated
ĠChocolate y
ĠJay da
9 10
9 61
ĠB LAST
Ġg ain
ĠT itty
Ġme as
ĠY rs
ai zing
ers ey
ES CORT
eri ance
Ġj ul
are va
ION A
79 89
ĠParty Friendly
98 46
ĠEY ED
ĠTE LEPHONE
ĠAdult work
Ġ--------- ---
Ġfilip ino
VIDE O
ĠLIM ITS
7 120
H ope
H AND
H OST
ĠE legance
Ġg lowing
ĠH j
ĠH ook
sc ape
EN ESS
60 55
ak ura
Ġsk irt
12 89
28 13
Ġfr nd
226 2
Ġ079 25
mo vie
ĠJasmine Chloe
ĠEL SA
ĠLAW RENCE
Ġclit oris
irming ham
ĠKell ie
ĠSpark les
3 208
6 85
6 44
B C
M p
T attoos
Ġt idy
le olist
ĠM art
ĠP aula
Ġd undas
ch ances
Ġj ess
Ġ9 886
app ropriate
ĠWE B
Ġshe male
Car ibbean
ĠPl ane
lect ed
Ġbliss fully
Ġ4039 07
ĠAim ing
ĠLaure n
Ġ07399 180
ĠTw enty
vis iting
ĠINTEREST ED
Ġ075191 14142
/ \
8 31
C ourtesanescorts
F ew
M ON
Q AM
j udge
Ġf a
ĠL IL
Ġ5 83
ert fordshire
TE LY
CUR VES
ĠSTUNNING LY
ĠSin ful
209 14
XXXX XXXX
Ġwhats app
pleas ant
B ored
V ANCOUVER
Ġam aizing
ĠU QAM
__ $$$$$$$$
Ġhe he
Ġ9 96
ĠAss Mama
Ġwet ter
Ġdick k
aj estic
CO HOL
Ġupd ate
635 1
Ġxxxx xx
ĠLEX I
ĠSwe edish
ĠAUG UST
4 343
C assie
T ORONTO
T anya
le ek
ĠS LA
la pt
Ġ1 600
ĠK aren
ON NA
AN DE
ĠIN N
IS Y
07 45
16 10
ĠME MORABLE
ĠCh urch
99 10
ĠVERY Y
90 86
ĠWhat sever
ĠLe on
Ġsuck k
Ġhand ling
ĠSam ira
can ary
ĠRelie ve
Ġtantal ise
ĠAmaz on
BEL IE
ĠCONSIDER ATE
ĠCyn thia
ĠVENEZ UEL
ĠVENEZUEL AN
7 44
M any
c astle
j olie
Ġp tit
Ġh oles
ĠH OR
25 57
Ġreg istered
ash es
ĠSex xy
), (
ĠYoung er
BB F
ĠBb fs
ĠCur ling
Ġinter act
waist Fetishes
225 9
Ġmorn ings
4 32
D ressing
V C
ĠV iolet
ĠLondon M
14 89
Ġ@ @@@@
Ġte ased
79 1
Ġround ed
Ġthan x
ĠSP IR
62 888
ĠMon roe
ĠMAN OR
ĠCL IT
cup s
ĠMI D
Pre fer
ĠChat ham
Ġanonym ous
ĠETO BICOKE
5 64
H ELD
S HE
ĠT rained
ĠM as
ĠK en
ĠJ ONES
ĠTH INK
ĠAn isha
ĠPlay s
OS ITY
Ġtrue ly
ĠSWEET NESS
97 67
Ġcollect ive
Du fferin
'' ,
ĠFL IRTY
Ġunh urried
ĠLOT US
ĠDAN FORTH
relax ing
ĠSECRET ARY
Ġ49 40
Ġbes ide
8998 62888
ĠCapt ivating
eeper baby
ĠDEFIN ITELY
ĠMell issa
5 671
J anny
O p
S NS
k ink
Ġg ifts
ĠT ara
ĠG AT
Ġbe lly
Ġsh ades
ĠAn caster
self ie
ĠTime Outcall
Se ven
FA IR
Ġdeliver ing
ĠHold er
Ġfri day
spok en
Ear th
0749 6612263
ĠWONDER FUL
bsolut ly
Ġdeduct ible
B UT
.. )
Ġg ol
ĠP IN
ĠW r
ĠW ARDEN
25 69
ĠHigh lights
CENT REL
ĠFe bruary
ĠEXT END
Sh aved
ĠENT IRE
TOUR ING
C ON
Ġs ooo
ĠI V
Ġf w
Ġf its
Ġl ace
ian adel
Ġ/ //
ĠAM ANDA
79 55
Ġfin ished
ĠLe ila
ĠTr ades
Ġgr own
ĠApp reci
Ġfavour ites
ĠJan uary
ĠBoo b
ĠTan ia
ĠNov ato
Thurs day
ernity girls
ianadel ray
9 62
V ABLE
in fo
Ġl akeshore
ure nt
Ġr ise
Ġ587 717
99 69
Ġsoft ly
rest rictions
ĠTE AS
ĠAlex ia
Ġamaz on
Ġbod acious
ĠAmaz e
Tot al
ĠSteel ers
M OST
T alented
g ed
ĠH annah
Ġst ore
IG I
ĠRec om
Ġcollect ers
ĠAD OR
ĠCHEAP SKATES
Le aving
Ġknowledge able
Ġflow ers
Ġgaurant ee
m use
Ġs al
Ġb urning
ĠA vaila
et ernitygirls
Ġg ush
IN ES
bl ues
Ġac comp
Ġanswer ing
ĠPe aches
BO YS
~* ~*
Ġanimal istic
ĠCOLUMB IA
H ips
M onday
O VE
ĠI g
ĠC ONDON
ĠC iCi
Ġd un
ĠL isted
ĠW ine
ra wer
ĠLondon St
Ġ9 23
Ġdes igner
ĠSerious ly
Ġcar ibbean
64 21
Ġdesc ret
ĠEv anston
ĠPUNJAB I
CANADA USASTAGSANGELEYEZ
2 88
5 18
Ġto pped
ĠB ANFF
ĠN A
Ġd ash
40 95
Ġ9 52
Ġus ual
39 267
ĠINCALL s
Ġ20 8
ĠPR AIR
ĠCarm an
ĠNa omie
ĠComple xion
ĠBall s
489 4
ĠCle o
ĠQUICK IE
Ġthro bbing
ĠPRAIR IE
ĠN yla
ĠT IRED
Ġre dy
Ġbe lla
ass e
Ġ9 80
Ġatt ach
Ġim mature
ĠLo Ve
69 71
ĠOpen mind
Ġfre quently
Ġ0 100
Ġdel uxe
Ġfl ight
Ġshe ppard
Ġ27 4
So phisticated
ĠProf ile
word press
ĠCOURT ES
ECH LESS
U K
p arking
ĠS ANDY
ex dale
Ġd ive
ey ton
07 34
ĠCh i
ĠPlay time
Ġ@ $$
be red
Ġ150 7
Ġshe ll
car calls
62 60
ĠVis a
359 3642
ĠBright on
475 46
POL ITE
ĠBn G
ĠSEC URE
lapt op
Ġaccomp lish
) **
ĠB ON
ĠP ierced
Ġn our
ĠW as
Ġ3 76
Ġwe ird
49 33
45 56
Ġ:) ))))
55 81
Ġco chonne
98 45
________________ _
ĠPic utres
iC Y
iC y
ĠXOX OXO
Ġund eniably
princess blues
ĠEND ING
ĠBraz illian
ĠHANDS OME
fant asies
Ġtit ts
ĠAttend ant
princessblues apphire
H ouse
I OSITY
p ic
Ġa ria
it o
ĠE ls
im a
IS IA
ET NAM
Ġhair y
05 27
AM IKO
CRE EN
75 9
ĠAL COHOL
Ġreg ions
text e
wer k
ĠCUR IOSITY
ĠBEAUT Ig
iver se
ĠGen er
ĠDeep throat
Le vels
Sp a
Sp arkle
ĠSher wood
:>> --:
ĠCOLLE GE
EXPERIEN CE
Ġhedon ist
1 23
1 899
h wy
o ffering
Ġs y
ĠN ding
ĠT ila
Ġd angerous
ac cept
ING TON
Ġbr it
ĠCh ann
ram p
Ġ289 80
av ille
ĠLi berty
ĠColl ingwood
ĠAss worship
iest y
ĠMultiple s
Ġdiss apointment
ĠGem Sparkle
ĠSan itary
Ġalway dz
Ġ************************** *****
raven hurst
ĠSurpr ises
ĠONT ARIO
HOST ING
l ate
m other
an elle
ĠS ASSY
ĠT itties
ĠO ptions
ĠR ih
ĠG is
ĠG AME
Ġme e
erv iced
Ġ7 68
ub er
Ġ# :
Ġton ite
ĠAL ONE
61 16
ĠCO P
ĠPLAYFUL LY
isk u
................................ ................
Ġ0759 3593642
ĠLIF ETIME
BELIE VABLE
E va
K ensington
R ep
S ur
in G
ĠC IP
ic as
Ġ( ;
IS LAND
30 14
15 29
19 8
Ġres on
Ġ60 47714875
sm art
ĠPro s
ĠPh armacy
Sexy NEW
ĠPH OnE
Ġref lex
Full y
Br itt
ĠDESER VES
ĠSun shine
341 87
Ġdef iantly
Ġreception ists
Ġunt ill
Alex is
4 878
H ott
Ġc ars
ow o
07 27
07 73
Ġur ge
Ġdz erviced
ĠSL UT
ĠAVAI BLE
ĠPK WY
Ġ074595 47546
Ġimm ense
Ġdzerviced z
B oys
G ate
H AL
i L
i RES
l on
ĠB irmingham
ĠO CT
ĠD UNDAS
ch ange
07 8
07 583135054
ĠIm portant
ress ed
Ġmin es
IM AGINE
Ġ) ))
ĠCar la
fo xxx
Ġcare ful
ĠSENS UOUS
ĠSc reening
214 6
ĠTri ple
ĠSCH EDULE
Ġpract ice
ĠLund ys
M C
P OR
ĠT N
ĠT imer
ĠM US
ĠL ore
te as
Ġj ump
UM MY
Ġshe et
pr formnc
Ġown ed
Ġ70 4
Re g
ĠHorn ey
ĠExcept ional
ĠHo T
ĠEXCH ANGE
ĠADRI ANNA
6 60
I VER
Ġs ad
an illa
Ġh on
im do
ur ation
Ġ2 94
ant eed
ĠAN GE
ĠTH ING
Ġlet ting
ĠUn ited
iv ity
IST LER
We bsite
Ġbu y
ĠGirlfriend s
Ġ18 23
AIR PORT
Ġtick ets
ĠSuc cess
ĠChant al
Ġclif ford
A urora
M AKE
n ec
he ar
ĠC ATCH
00 14
Ġth row
ate red
ee T
Ġ7 328
ick ling
ĠBE YOND
Ġpussy y
ĠCam b
mer cial
PR ICES
Ġboun cing
ĠREG ION
disc ret
Ġ\ \
Ġplan ning
sub ject
ĠOk otoks
1394 5086
ĠSnow balling
c uffs
r ubs
s uch
Ġs Ex
Ġs issy
Ġw ent
Ġc ul
Ġh esit
ĠN apa
ĠT ue
Ġ1 22
Ġ1 800
ĠF oR
ĠL oyal
ĠL ANE
ĠG ets
ac ita
ĠU CK
80 60
Ġas h
ew here
Ġ36 6
Ġ07 78
ĠAL ISIA
Ġ613 917
ĠPh at
ĠCH EST
59 88
Ġ55 1
Ġfam ily
ĠEXCEPT ION
ĠPrest igious
ĠEt c
Ġdistract ion
DAN I
ĠMUT UAL
Ġscen ario
ĠHor tons
4 232
5 484
7 332
it udes
ĠC urious
ĠB irchmount
ĠR ules
Ġme ant
Ġ$ .
Ġcurv iness
10 80
Ġ9 88
Ġesc ap
ĠMe g
ĠFun size
ĠClass ic
ĠSp ontaneous
osit ive
ĠBrit annia
789 8
IO D
Ġtoler ance
Ġ--------------------------------- ---------------
ĠAddict ion
ĠPRI DE
LETH BRIDGE
Ġdro pp
B loor
G ING
g v
o ices
ĠC ostume
Ġn ess
ĠR ide
EN GE
ALL ENGE
Ġ7 60
ab ility
Ġch anging
ĠBe be
Ġper b
Ġ289 335
88 28
ĠSpecial ty
ĠUN BELIEVABLE
ĠCar ib
ĠCH ALLENGE
BB J
ĠMass aging
ĠAllow ed
ĠES TABL
ĠUNFORGET ABLE
$$$ _____
Ġweak ness
$$$$$$$$$$$$ $$$
Ġbareback s
ĠAnn abella
017 25
ĠDESC RIPTION
Desire e
C ross
E ct
S pend
X OX
e glinton
l ime
ĠA ble
ĠH ip
Ġ6 701
Ġr app
Ġclean ing
IL ING
Ġvisit ors
ĠSH ES
pr it
31 60
ĠDE C
03 35
fl irty
ĠDild o
( $
5 37
J ade
c ian
c ol
e mblem
p riv
ĠS ASHA
ĠC All
ĠC eline
Ġo vo
Ġre fer
Ġ2 37
est on
Ġun rushd
UR RAY
Ġkn ew
48 36
Ġ25 9965
ĠCourt ice
ĠCourt ney
Ġdr inking
ĠPER IOD
73 20
Ġtens ions
ĠYEAR NING
Ġsupp lies
Face Time
ĠPay ing
show ers
tri dent
177 358
Water loo
Ġimagin able
ĠMention ed
Ġtact fully
SEDU CTIVE
Ġconsist ently
TRO DU
m essage
ĠE yed
Ġd inners
Ġn ic
ĠH al
ĠH espeler
ĠL IMIT
Ġwh ip
Ġlo cks
Ġk al
Ġ20 45
ĠSpecial ist
200 0
68 29
ĠRec ording
Ġmar ri
ĠAd orable
ĠBes ides
ĠHung arian
andar in
Kenn edy
Ġmaj ic
C k
Ġt rophy
ĠA zz
ĠB rie
Ġl ite
ĠT a
ĠM sog
ĠM CM
Ġd ee
Ġd addies
Ġ1 34
ĠH oping
ĠG IA
ĠW TH
dy ed
ĠJ ada
EX PLICIT
Ġ289 50
ĠAsh ante
APP ING
ĠMOST LY
ĠRA ISSA
ĠSOPH IST
ĠCUB A
ĠCLE An
MiN D
ĠMCM URRAY
A VAI
C arf
G ER
N ICE
d ough
i OUS
t rained
t ianadelray
re nder
Ġm ama
Ġw inning
ĠL ake
ĠL una
Ġre dd
ET C
25 79
GR ANDE
ĠAdri ana
Ġhypnot ize
ĠNYLA H
ĠBOUN CY
ĠPRAIRIE LETHBRIDGE
ĠMCMURRAY GRANDE
Carf un
dough nut
Ġa frican
or row
ĠC ap
ĠF er
ĠD P
ĠD ED
... ?
RE G
ĠIN call
Ġ7 75
Ġ8 46
Ġsafe word
Ġrest aurant
PP ORT
Ġsuggest ions
ĠHa it
PLEAS URE
ĠHand le
HA VE
ĠiN QU
Great er
Ġdisp osition
ĠScar let
iai e
Ġaccom od
Ġquebec oise
ĠAustral ian
f re
j i
ĠP aige
ĠO D
ĠF light
Ġ5 11
Ġth ks
ust ing
40 27
riv en
ĠLat ino
Ġ27 26840
ĠDeb it
can adian
ĠMA IN
ĠTy p
7 27
O rill
l ife
n ette
Ġw echat
ĠN ath
Ġg a
Ġg url
ĠP ound
Ġd s
am anian
ind ependant
lo quent
Ġhe ard
com es
xx k
36 86
99 79
ĠExp erien
Ġtouch able
cell ence
Ġent re
59 6
:- ))
ĠAB OVE
Ġ29 2
ĠAC COM
ĠMAL ES
igg ling
ĠCOLLE CT
ĠESTABL ISHED
Ġrapp ort
Ġredd ish
ĠiNQU iRES
v ably
Ġ1 289
ĠL ANA
st oney
Ġre la
Ġ4 63
ear ing
Ġ8 59
Ġint own
95 21
Ġ075 34
Ġ075 70
WH ISTLER
Ġconnect ions
Ġpress ured
Ġ074593 25538
ĠMidd ay
ĠYY C
ĠADOR ABLE
. ).
5 456
d eeperbaby
Ġt t
ĠI BS
ĠI gn
am anda
ir gin
Ġ2 14
ĠK umm
ĠIn quiry
Ġ9 65
ĠMe me
39 5
ĠSw inging
Wh it
Ġcum m
Ġ89 3
Ġ89 8000
ĠKat ia
ĠSabrina XXXX
ĠKIND LY
ĠKnow s
ĠFair y
Ġ--------------------------------- --------------------------------
ĠTITT IES
ĠINV ITING
ĠUNFORTUN TELY
inad oll
ĠKumm ings
5 201
B OY
Ġt atted
Ġd ine
ĠL iz
Ġre lied
47 44
ĠU ll
ĠJ UG
Ġhe d
IM INATE
id s
Ġsp aces
Ġover all
FUL LY
Ġmess aging
voc ateur
ĠMost ly
ĠFive Star
ĠEL IMINATE
ĠMi y
285 7
will ing
ĠCand ice
ĠEXC ITING
samantha foxxx
Ġremem bered
ĠRih anna
' )
C la
D isease
R NY
n orth
is er
ĠA BLE
ĠE gyptian
ĠB ee
ĠB AT
Ġh ole
ĠF avor
Ġ647 50
ĠWe igh
ĠSER iOUS
Ġ; ;
Ġvis age
Ġou verte
Ġsedu cing
210 1353
Ġdest ro
Ġinvol ved
Ġchoos ing
b ay
w en
Ġa i
at ors
ĠC ould
ĠA vil
Ġg mail
oo F
Ġam d
th ought
Ġex uber
ĠV ag
Ġsh oe
Ġch anges
Ġwell ness
Ġvis a
per ky
75 16902
St riptease
Ġwarm ing
OUN TER
to day
ĠDr ink
ĠJan et
570 211696
Pleas er
ĠWin ter
Ġadvert ised
Ġ00447 570211696
! ***
A aliyah
B ianca
D ream
a et
b oys
t el
ed zt
la m
... :-))
Ġst amina
ĠCall ing
87 33
ĠInd ep
ĠSo lo
17 22
Ġ26 2
Th reesome
Ġ>> >>>
ĠSy l
fr ica
ĠCon cerned
CL UD
ĠSL O
Ġfollow s
Ġlap dancing
119 1
hunny lixxir
Ġxxxxxxxxxxxxxxxxxxxxxxxxxxxxxxxx xxxxxxxxxxxxxxxxxxxxxxxxxxxxxxxx
4 681
M idnight
S moking
a fter
g entleman
m odels
s ion
an sport
ĠN IgHT
ĠT ENS
Ġo g
ĠL UNA
ĠR ain
ĠR USS
ĠG arenteed
ur op
ĠJ J
Ġen v
ATUR ITY
ĠHYG EN
ĠDomin ant
ĠEM T
ĠRA CE
ĠWEST MIN
Pr ices
Ġdest iny
tic ip
ĠENC OUNTER
Ġfer m
ĠFig ures
Ġ*:: *
ĠQUEENS WAY
Orill ia
. !!!
H ab
n ipp
r b
in ian
Ġb iz
ĠC or
ĠP ressure
Ġ5 270
Ġor illia
Ġ6 17
irl ines
Ġtr ampling
Ġ8 89
Ġ8 52
Ġcon verse
ĠSp orts
Ġcare er
Ġ074 13945086
ĠTight est
reath taking
CL ICK
sun rise
Ġdid n
Add itional
sw edish
ĠSkill z
lap ur
ĠPan amanian
ĠDISSAP OINTED
Ġkam lapur
C up
C ASH
C armen
L ynn
Ġw th
Ġb anks
all ie
ĠR exdale
Ġbe e
Ġbe comes
Ġ5 73
Ġ3 19
Ġ6 66
ss s
ĠK END
ĠV aughn
lo cation
ĠDo es
42 3539
ĠPe ach
ĠGr ace
ĠDom me
ĠNature lle
Ag E
ĠLaid back
ĠDED ICATED
6 69
C s
J ESSY
L aw
S ilver
m ary
v et
Ġt ough
ĠT ONE
ĠL IC
ort heast
Ġph enomenal
ĠStreet s
Ġass s
Ġ0 80
Ġ90 11
Ġ>> ---->>
CO VER
ĠAnge li
Ġbes ides
Ġstro king
ffic ient
ĠGod mother
inds ay
ĠScot ian
Ġ07424 423539
Ġwind ow
CUB AN
ĠPOP ULAR
ĠFavour ite
A F
D UNDAS
F iona
L OO
W ould
d irty
Ġl y
Ġl in
ĠN ec
ĠM is
ĠM ATCH
Ġd irt
Ġsh aw
DD EN
orn wall
05 80
Ġ8 1
12 26
Ġparty ing
Ġq k
VI A
ST AND
ĠEl iza
Ġpassion s
ĠSte ph
Ġpay phone
ĠLA UR
Ġ0749 48
gu y
ĠElite maxime
pla ce
ĠRUB Y
Ġvr ai
Ġaw aken
ĠTempt ress
Ġintrigu ed
ĠSmell s
Ġbeut ifull
ĠElect ra
Ġ07570 211696
. ;
3 190
5 983
V anessa
c ain
h y
k ind
Ġ ite
ĠL B
Ġin quir
sc ar
ai ds
Ġfun ctional
ter b
ĠSE VEN
ĠUp dated
29 58
ERS T
Out Call
ans wer
ĠLe Gs
ĠBUS Y
ĠGO ES
Ġdec ad
BR OWN
Ġ________ ______
Bar b
ĠResp onse
Ġing en
Ġdim ples
ĠPortug al
ĠAUD REY
ibe i
ĠNec ole
) $
7 654
ĠS atis
is able
Ġc ab
ĠO re
Ġ2 16
Ġbe autif
vi xen
Ġch oking
OM G
ĠGENT EL
ath y
ath more
ĠSex xxy
ĠGen ies
Ġadv anced
03 22
287 84
Ġdynam ic
Col ombian
ĠCarib een
L IGHT
T ype
ĠM AKING
ĠL aje
Ġme I
ĠD awn
un esse
ĠK NIGHT
ĠK ARA
Ġr ich
ĠTO W
25 28784
05 10
low ered
29 1
79 63
Ġthere s
SE Y
Ġsedu ced
escort curvy
ĠNegoti atings
900 1317
Ġrecommend ations
acha escortcurvy
Ġengage ments
ĠSec ond
ĠSUB MISSIVE
ĠGIFT ED
Ġdef lowered
Ġclim b
agency atlantic
nat achaescortcurvy
$$$$$$$$$$$$$ ______
Companion ship
Britt ney
ĠANGE LA
ĠHYGEN IC
ĠLaje unesse
natachaescortcurvy brazilian
/ :
j imdo
r ude
ĠM aid
ĠR OM
st ers
im te
ĠRe ign
Ġsex i
Ġ9 81
ĠBLACK GENTS
Un ited
ĠNegoti ation
922 1
sam anth
mag n
ĠWR AP
Sim ply
ĠTast es
N g
r uit
er dz
ĠM ALE
ĠP ass
ĠR ich
ĠD re
ac ie
Ġex udes
ind ienne
RE VIEW
ĠJ OY
Ġ7 81
Ġch ina
ĠBL W
ĠPlay room
Ġstr ing
Ġadv isable
AME LA
BR AZIL
Ġcaress es
Ġ:( :
ĠHI DDEN
belie vably
aaa hh
ĠTY P
ĠFORE PLAY
MIn UTE
Ġutter ly
H y
L ATE
M areva
S neak
p ass
ĠT X
ĠM EX
Ġn om
Ġ1 63
ĠD t
Ġbo x
Ġr apt
Ġgu arenteed
Ġch antel
OM EN
Ġ07 772
100 4
AM I
Ġ613 2528784
ears on
ĠEY E
LO CATION
ĠAfter noon
Tr uly
ĠSincere ly
ĠAdvent ure
Ne goti
ih an
Ġbuck et
Mutual play
BUR LINGTON
prefer red
5 13
A wesome
E ven
T urn
p adzdz
Ġw aking
Ġc ore
ĠB eyond
Ġl fk
ĠT T
all starsescorts
la g
ĠF IONA
ĠR aven
Ġbe lt
OR S
Ġv ack
36 18
edu c
id a
ĠUn believable
ĠPer cent
Ġrespect ing
73 409
Ġfinanc ially
Ġuse ful
304 8546
ĠSens ational
ĠSIM PLY
Ġkenn edy
5 79
L IMIT
W EEK
p ictures
Ġm ad
ow els
ĠD s
Ġth rive
Ġ24 4
ĠSh oot
OUR S
Ġ25 9
ĠLe banese
ĠCAR MEN
Ġallow ance
ĠFit ness
ĠMel ina
Ġchat te
Ġ0747 9001317
ĠSTART ING
Ġmam acita
Ġoper ated
Man icured
ĠBOOB IES
ĠREGULAR S
Former ly
ĠCONVERS ATION
5 66
A mber
S asha
b ubbly
ĠC lock
ĠA CTION
ĠW AnT
am ent
ĠK oko
ĠJ ANE
Ġup front
19 9
ĠSW ALLOW
ĠBO OT
ĠTime IncallOutcall
78 32
Ġmass aging
ĠTr ad
Ġ180 2
Ġ46 19
Ġ__ $$$$
Ġtast ed
ĠIncred ible
lu scious
ĠCream y
ĠDevil ish
KORE AN
ĠLAR GE
N othing
P ounds
o ffer
Ġb agg
Ġg enders
Ġin stru
Ġon to
ra ine
60 12
ear l
OT T
orn ado
cl oud
UL OUS
ĠLO VING
ĠTr ail
ĠCAR FUN
ĠHE ALTH
BR ITISH
ĠDesc reet
Ġthrill ing
413 18
Pleas ure
Ad ult
ĠCas ual
Ġcondition ing
ĠGUARENT EE
Ġingen ious
ĠOre nda
Ġbagg age
9 691
I bs
it ome
ĠT AT
ens ion
80 36
IT AL
07 53
Ġch ances
ca red
mm ed
ĠIM P
Th at
ĠBR ANTFORD
ĠEXPL OS
ĠEXPL ICT
)( )()
Play G
ĠAlex ie
Ġdid z
Ġaff iliation
edic ure
Ac cept
want ing
4026 3475
5 300
R y
Ġs x
ĠE RI
ĠN arrow
ĠP AT
ĠL AP
Ġin terests
st ress
AL YN
Ġj es
Ġbl w
ĠAl b
UN I
Ġad ored
ĠPR OTECTION
less ly
Ġsw ing
Ġ074 67
Ġ70 3
ĠMAR C
Ġed ging
Ġ078 40263475
Ġvers ed
ĠRen ov
Ġ()( )()
beat able
ĠRenov ated
! -
8 43
A ng
L ate
b ondage
c K
g H
k Y
o it
Ġw ich
ĠS NEAK
Ġp urch
ĠP eriod
ĠF EL
ĠD EST
Ġso y
pe aker
26 20
Ġ9 29
15 4
Ġevery time
iz ation
27 27
UN ITY
88 38
95 3
Ġ? *
ĠPleasure Let
ather ina
Ġfantas izing
Ġcult ures
stant ial
flash light
Ġjudge ment
Ġbrun nette
ĠBIR CHMOUNT
Vide os
ouds peaker
ETNAM ESE
Ġdecad ent
Ġdidz creet
) ......
A BE
c udd
l oudspeaker
t ornado
ĠA ff
ĠO PPORT
Ġan at
ĠAn Y
35 59
Ġad apt
66 88
Ġag reed
ĠSp adina
)) ((
Ġgr ant
Ġ074 484
SS EXUAL
Be aut
ĠNe g
401 47
Ġeas ier
Is land
cc ulent
ĠZo ey
Ġ074045 41318
ĠAPPRECI ATE
ĠOPPORT UNITY
M ALE
U ltimate
W IPE
en ch
an as
Ġf ontaine
Ġp es
ĠE TRANSFERS
dy n
Ġ4 110
Ġpro jects
16 62
Ġch ild
100 00
Ġknow led
27 40
33 98
den ing
95 50
Im peccable
ĠLe a
Ġrespect full
93 60
ok es
ĠLE VEL
Ġbum p
Ġrecommend ation
Ġsla g
Ġthrill s
aur ants
219 9
:::::::: ::::::::
Ġmult itude
8 46
D INNER
J u
g ine
m ont
ĠS et
Ġo t
el ondon
de la
15 83
ĠAND REA
oc can
Ġse ins
ĠSex c
BB EAN
Ġconf id
Ġdz kill
The y
Ġpriv at
big ail
716 3055
Ad ictevely
ĠInn isfil
GEN EROUS
Ġep itome
: ---
I e
S ultry
b ased
g otten
w ants
ĠB s
ĠP i
ĠF il
ĠSt rawberry
Ġ647 499
Ġun bur
37 66
85 86
66 16
32 12
ĠEl ena
SW AY
coll ective
315 323
ĠGENTLEMAN S
ĠMor gan
izz ling
Vis it
Ġ********************************** ******
Ġ07435 315323
Ġdisplay ed
Ġdzkill dz
Ġunbur dening
, ...
C C
C OUR
C andy
D ee
S F
T ickling
w ink
en ess
he tt
ĠC ALI
ĠA ction
ly ssa
ĠD ottie
Ġ5 07
ĠJ UNE
ĠSt ars
Ġout ing
Ġ7 96
Ġi dz
Ġperson a
25 300
AI LEY
ĠWH ATE
Ġaway BBBJ
istic ated
ĠAR R
Me asurement
Don ations
KING SWAY
See king
ĠMa KING
ĠMAY FAIR
ĠMes a
Ġoper ator
ISTER ED
ĠELS EWHERE
ĠJoy ce
udg mental
*.. *
ĠSTEPH ANIE
HAND CUFF
Ġ074484 25300
9 166
n ires
t attoos
in c
ĠI VY
Ġg n
ĠH ull
ver ted
Ġ2 69
Ġ647 485
30 44
34 85
Ġ07 077
ĠEX P
ĠUN RUSH
ĠUN REG
ĠCLEAN ING
BB Y
ĠLOW BALL
ĠEl isa
OST RIPPERSANGELEYEZ
KE Y
., :
ĠAlex andra
ORONT OSTRIPPERSANGELEYEZ
Ġms gs
Ph otos
ĠSC R
ĠSC AM
ĠREGRET S
ĠKR ISTA
Ġsrv ic
Ġ07404 10
Ġinq nires
ĠUNREG ISTERED
F U
N ear
c le
l ity
p nd
Ġc ounts
ĠW it
ĠK ATE
ĠRe ihan
um bl
Ġun comp
ph o
ĠTh rough
Ġ587 33
29 77
ĠNew castle
Ġ@ (
Ġ35 8
OL IST
ST ORONTO
Ġ| //
Ġmess y
59 69
ĠPre ference
ĠPre booking
ĠCON NE
Ġcheck er
ĠEasy going
UD ENESS
72 342
350 4
391 18
Ġ41 26
Ġ======== ====
Ġ64799 72342
Hee y
STORONTO ANGELEYEZ
i E
m os
ĠA ub
ĠR UMP
Ġ2 85
Ġ6 98
Ġit self
16 4
ĠSh es
sm ile
77 85
Ġad mission
UM PT
ĠRole playing
ĠTIGHT EST
ITT ANY
ĠHun tsville
OUNT ERS
Ġengage ment
Ġneigh bor
ĠENC OUNTERS
ĠCARD ATES
Ġshaw er
Ġ0740410 4992
UMPT IOUS
6 87
l SURE
it ts
ĠC ostumes
Ġre verse
Ġ2 47
LE DGE
LE lSURE
os ed
Ġatt ent
ĠBB w
19 55
ud z
CE Y
29 83
ĠTHE IR
88 23
79 61
Ġur gent
ĠOPEN MiND
ĠMar ina
ĠPerfect ion
ICK ED
ĠOFF ICE
Ġliter ally
Mel issa
ĠWHATE VER
M B
T OY
Z ERO
Ġf lex
ĠC ob
ed e
Ġ& '
ĠR UN
ĠD d
ĠD ick
Ġth ie
Ġth ug
Ġ* $
Ġhe ld
ĠOn Ly
ĠAl cohol
ach less
Ġ0 207
play boy
In G
ĠPH AT
Ġput ting
Sweet Emily
Ġspe achless
Ġdz o
Ġaccommod ations
ii i
919 5
ĠKNOW LEDGE
ĠCONS CIOUS
MARK HAM
Mag ic
ĠAJ AX
ĠSuccess ful
SweetEmily J
2 38
7 130
D oor
G en
Ġa utom
Ġw ee
ĠS quirt
ĠS CREEN
ĠF UT
ĠR ENO
ĠD ynam
AN I
Ġ* .
Ġ7 501
Ġper dz
ĠAll y
iel d
59 17
ĠSATISF ITED
ĠLE OLIST
nes day
Ġut imte
ĠBel ieve
Ġsett ling
Ġ43 89
uel z
ĠAim s
even ing
ĠTRAN SSEXUAL
Ġpes ure
Ġperdz on
9 781
M ARY
d ango
ĠS ns
Ġc ure
ĠP umping
ĠR i
ĠG ravenhurst
ĠW END
ĠW endy
ac ity
!! *
ĠK inks
we bs
Ġdo c
Ġhe arts
Ġhe ctic
Ġun match
Ġbl ondy
Ġsp itting
ĠWith held
ĠBl w
Ġoff ic
Ġdel ivery
imul ating
ĠCAN NOT
co ise
Ġ--- >
ĠAsh lee
Am anda
ĠPa R
ĠMAR ISSA
______ $$$$$$
ĠSIL K
Ġ________________________________ $$$$$$$$$$$
poss ible
Ġgarant eed
Ġdemean our
vip escorts
ĠGabri elle
__$$$$ $$$_____
_______$$$$$$$$ $________
ARI ETY
Ġ________________________________$$$$$$$$$$$ ______
8 24
a vailability
d inary
m at
Ġm ingle
Ġw orn
Ġw ash
Ġc c
ĠR ita
ĠG ANG
sc h
ut y
ĠK as
ens vipescorts
ol ina
40 83
EXT RAS
34 45
14 24
ĠSE PT
ott awa
Ġdown s
ĠSex i
ĠFAC IL
ĠGentel man
ĠCONS ENTUAL
Ġpract ices
Ġ074593 20914
S hell
c ostumes
or dyn
ĠT ianna
ĠP ap
Ġ: -(
Ġ4 70
Ġ4 42
ĠV ic
Ġ647 96
OT OK
Ġ9 617
ĠAn swered
ĠAm ount
Ġ8 66
ann ym
Ġgreen ish
42 384
ele ct
NA OMI
Ġtri o
RIM MING
Ġ======== ==
ĠPUN CT
ĠAk iko
34187 08
BRAZIL IAN
umbl r
OTOK S
annym tl
0 455
B j
L b
M ale
Ġm al
ĠS AL
ĠR itz
ĠR UDENESS
Ġ6 77
Ġ7 72
26 4
Ġim fo
Ġtr uedelights
ĠEn Joy
Ġ) ---
Ġ613 60
437 77
Ġhand cuffs
ili ated
RICT LY
ball s
ĠAB ottom
03 47
Ġhonest y
Ġ0747 2857
Ġ0744 3418708
ĠNEGOTI ATE
London Angels
ĠISLAND S
Ġsrv ice
ATERS PORT
Filip ino
Ġ07472857 441
M ATURITY
Y AH
j essica
k ah
w s
w ilt
Ġw ys
ĠN AD
ĠM ax
ĠL akeshore
Ġan ticip
Ġle ty
Ġsh ay
Ġv s
15 10
18 53
ĠSP ONTANEOUS
girl massage
Ġ079 39118
41 26
london girlmassage
OPEN MINDED
Ġ37 33
419 1610
Ġdiv a
need s
ĠAmA z
missj annymtl
ĠTYP ES
wilt ed
Ġlety ton
Ġ07939118 323
P ark
Q EW
W ANT
m orning
~ >
ĠS qu
ĠE my
ad onn
we ar
ĠIN TRODU
.... (
Ġim maculate
Ġ:) :)
90 99
ĠCr ist
Ġ079 35
ĠTal ya
ĠKING S
Ġcol ored
On n
Ġhealth ier
Ġcount ries
Ġspir its
346 60
Ġll am
Ġindulg ence
ĠBEHA VOR
Ġsam antha
shipp ed
Ġpurch ased
Ġtruedelights collective
adonn as
R ooF
W ARNING
i ate
ĠB ored
Ġd rip
ĠO BS
ro ad
Ġ5 68
Ġwh irl
ĠNo Rush
Ġ$ $$$$$$$$
ĠRe Al
ĠRe verse
Ġas ure
15 8
Ġ587 20
Ġsoft ness
Ġsp ring
ĠCH ERRY
ĠXo X
ĠCO ZY
Ġ0757 4191610
BO GUS
ĠJUL IA
De Op
106 21
ĠELS E
ĠSMOK ER
Ġnorm ally
DeOp RooF
T iny
e asure
sc ome
ri re
Ġre mind
ad ore
ĠK H
Ġ9 39
END ER
37 47
Ġent ry
ĠPost ed
56 39
71 25
ĠGr K
Ġrec ruit
EDMONTON FT
ĠWEND Y
! $
r ation
ĠM M
ĠL ip
ĠG ONNA
Ġe X
ĠY um
ad ienne
ĠK elsey
ET A
Ġch ale
ĠPark hurst
Ġatt itudes
Ġman dy
Ġ8 34
rest ed
av annah
Ġ20 18
55 33
ĠSP OT
ĠIM AG
elcom ing
Ġworth y
Un iforms
ĠAD ULT
HOT T
Ġreturn ed
ĠYo lo
aly ss
Ġknock out
287 0
med ical
Ġstrip teas
Ġston es
elondon ladies
ĠARR ANGE
F ind
H ome
K ITCHENER
T ex
r unning
ĠC av
ĠH en
ĠR ubs
Ġam or
Ġlo cate
ĠV ARIETY
Ġpro strate
Ġwe Chat
UR OUS
Ġv ice
13 47
Ġdes iring
ĠSh andra
45 4027
23 32
Ġpre st
Ġpre fect
ĠDon na
Ġcare s
226 201
Ġspe ed
ĠASK ED
Ex pert
ues day
Ġter min
ĠMi ya
ĠLIST ED
Ġ.* .*.*
ĠPORT UG
Ġ4165 696
ĠFantas ize
Ġgodd es
Ġreson ates
226201 1322
6 701
F RI
K atie
c u
k k
Ġt ied
ĠS akura
as a
ĠT ori
Ġn IgHT
ĠR AY
th ro
mark able
Ġ647 78
07 77
Ġ9 94
15 66
49 29
Ġ613 604
ĠSensual Erotic
Ġkind ness
Ġopt imal
ATT IE
elit elondonladies
ĠStri ppers
Ġbuck s
Pleasing Nude
ĠMidd les
Teasing PleasingNude
FL IRTATIOUS
Ġunus ual
ĠSensualErotic TeasingPleasingNude
5 348
6 14
A VAILA
I BBEAN
S chool
t ake
x O
er fect
Ġs aved
ĠR ated
st unning
Ġ2 88
Ġmy a
ĠV IA
ĠIN CH
30 96
ĠBe hind
ĠBr asil
UL U
85 7
ĠSH O
Ġworld ly
ĠCo chrane
ĠInt ense
Ġdz ervice
RO PPING
Ġste am
Lo ves
ĠLUXUR IOUS
HO LA
ĠACT UALLY
ĠUNW IND
Ġrecruit ment
U X
s T
s lightly
y out
Ġt ur
Ġs unday
Ġw i
Ġf ul
ĠC ow
ĠD ONE
oo ps
Ġam ounts
end ish
ĠRE PE
um pt
Ġday Play
Ġapp lies
75 69
ĠSm othering
98 68
57 42
ĠMIN UTE
Ġwonder land
ĠSe XY
Ġexplore s
ĠNe vaeh
ĠNor wegian
819 0
Ġgenuinely Sweet
ĠYo Yo
ĠStud io
`' .
Fl irtatious
Ġgentel mens
7420 10
Ġann oun
ĠSHA VED
ĠTHR OUGH
FANT ASY
3 24
A jax
E urope
F air
F REAK
w eek
Ġs leek
le aving
ĠM iN
ĠH ang
ĠL educ
ĠW IDE
Ġ2 65
Ġbe be
Ġ5 18
end s
Ġu ve
Ġall en
Ġ* .*
Ġj et
Ġ9 91
15 45
ĠHe ather
Ġres erv
ĠSEX XXY
ĠCom b
Ġ075 35
Ġcouple d
., .
asc ul
Ġgent lmen
ĠJu i
IX IE
ĠMo ving
Fuss DISCREET
Ġ0759 3
ĠBes T
ĠSyl vie
Ġstring ent
ĠFACIL ITIES
ĠCav endish
5 12
H ard
I DAY
M AG
P rom
r upt
s ky
Ġ1 14
ĠV uL
Ġli king
ĠRe f
LL AND
Ġch inook
10 69
Ġkn o
ĠSH AVEN
Ġ[ :
du ndas
reci ated
Ġsur rey
Ġ079 47
ĠPL e
Ġ57 18
Ġaddress es
ĠCOND OS
530 7
Ġ0786 4900
ĠreekMe Nice
4078 45
Ġ07774 407845
ĠSLO PPY
ĠVuL GAR
Ġ07864900 130
S ING
p ent
.. ?
ĠT ABLE
ĠP ee
ĠR ULES
Ġst ag
Ġst ated
ĠK ali
sh aven
Ġch oices
Ġv enez
ĠBe autifull
28 20
Ġsub stantial
ĠCAN D
KY LIE
ĠBri TT
inch es
ĠKind ly
ĠDISC USS
Ġaccent ed
ĠSelect ive
ĠCub ana
ĠTila a
ĠWESTMIN ISTER
F oxy
m ask
r k
ĠM andarin
Ġn ome
ĠD iss
00 99
Ġth es
ĠK ara
and atory
ig u
ra v
com Well
ĠTh inking
Ġv il
25 40
Ġman i
ĠWILL ING
52 88
ĠNor a
Ġrequire s
ĠAmer indienne
Ġfast est
ĠSub mission
Ġmill ions
Ġob vious
ĠPho enixx
Ġsud uctive
mil ia
Ġpot ential
xxxxxxxxxxxx x
victor y
LAT INA
ĠEXPLOS IVE
V AL
W OW
f ct
Ġs d
all eries
Ġd ram
ĠF ELLA
Ġst i
Ġ647 738
ĠOUT S
Ġdes erved
rave ll
IND S
46 1
Ġ075 50
ĠGen lt
Ġball er
ĠMultiple HRS
ĠGet ting
ĠKings way
cond om
ĠHOSTESS BOYS
Pol ish
ĠJUG GS
1 272
C All
S a
S yl
T ell
T xT
h ope
l ia
n Y
Ġm er
le vels
Ġp rettiest
ĠB anging
ĠM izz
Ġin cal
ĠW ays
ul ately
-- >
ĠLondon N
ĠLondon East
ĠLondon North
60 68
ĠIm medi
Ġv y
Ġbr asil
Ġ587 78
05 54
19 6
av al
Ġcon cern
ne ck
ĠSex ier
Ġsuper b
RA IN
ĠCond ition
ĠPARTIES VIP
218 6
ĠSher man
ĠVi DeOpRooF
Ġregard ing
Ange la
ĠREASON ABLE
Ġnam ed
Ġemer ald
0 886
B W
C ouple
W ICK
s ugar
y ork
Ġs E
Ġc i
ĠT ube
am ous
Ġ: :::
Ġ5 61
Ġ5 71
ens on
Ġen velope
26 89
ĠAl tern
Ġspecial ity
18 16
ĠAM OR
ĠWood bridge
ĠNE GO
Ġ25 3
ath letic
ĠEXPERIEN CES
613 909
Ġsc rolling
Ġ079 13
Ch arming
Ġdem anding
FR OM
ĠHel en
Ġbes oin
Ġtn idz
Ġ<<< <
4 49
4 39
h ilar
s b
er otict
Ġy um
ĠA UR
Ġd er
Ġn ignt
Ġ1 36
ant i
urv aceous
pen Minded
15 2
ĠTH REE
Ġ587 89
37 00
Ġ8 25
45 2
29 30
Ġad z
ĠPh enomenal
Ġmouth s
Ġpo or
Ġx c
TR ULY
447 44
350 9
ĠVal erie
285 6
Ġfragr ant
Kiss es
Ġhorn ey
oles erotict
aki yo
nec oleserotict
Ġuncomp licated
necoleserotict ouch
B ath
i bs
Ġa zz
er ate
ĠI de
Ġm mmm
Ġb und
ĠC LA
Ġh ip
Ġd ra
Ġfor gotten
ad ult
ĠK risty
Ġ. (
Ġeyes Brown
13 57
Ġde lect
Ġtown line
ĠFin ish
ST UNNING
COL LE
COL UMB
ĠSPE ECHLESS
ĠAri a
Ġreward ing
ĠRESID ENTS
ĠDefin ately
Ġindpendant e
+ .
6 145
8 498
M ASSAGES
P ositive
l it
ĠS aint
Ġc reek
ĠC aution
ĠM at
ĠH usbands
ĠD ROPPING
Ġe ll
ĠK ITT
ol nly
ft en
13 39
24 12
ĠBB C
29 02
ĠST ILL
ĠSpecial ize
ĠEn sure
TH US
iv lie
Ġhope ful
Ġadv ised
not ch
PR OSTATE
ĠAri ana
Ġ--------------------------------- -------
ĠTRI PS
ĠAb OUt
Ca LL
ĠKN OCK
ĠArom atherapy
ĠFALL S
. ??
H ED
O ty
n ignt
in side
Ġy ah
ĠB ud
ĠN aked
ĠW t
AL ITY
__ ?
80 17
ab abe
DD CURVES
ĠTH IR
36 26
Ġim possible
ĠAm ounts
27 93
Ġ416 822
ĠDe mand
Ġ55 75
ĠCHAT HAM
ĠCert ify
othe red
Ġ6134 00
ĠHOL IDAY
HIGH LY
stud ios
ĠTom orrow
Ġaccentu ates
Ġdestro yed
ĠSCR UMPTIOUS
ĠFELLA S
b oth
l as
x ual
ic ated
ĠB ased
Ġn m
ĠL OSE
end ly
ous ands
Ġ9 73
34 64
Ġv ody
Ġmin ed
Ġsp cial
london escort
ĠBEL LE
946 3
Ġ795 9
Ġ05 75
ĠMESMER IZED
ru ce
ETR ATION
Desc ription
ĠRecom m
Ġdun geon
ĠCamb odian
alyss ababe
COLUMB I
3 384
h it
v re
w in
re ase
Ġc oc
ĠC REAT
ĠB ULL
ĠN INA
ĠM AID
Ġd vp
ĠO b
ĠH um
ĠD edicated
ec rets
Ġ6 81
ĠK AY
ind er
Ġu mmmm
ĠV rai
ĠJ ACK
act ating
Ġ9 57
so phisticated
ĠAnd jela
!!!! :
Ġnum ver
ĠCH AMP
Ġend owed
ĠPleas ured
Ġstock ed
dr ugs
ĠFILIP INA
Ġxp cs
Ġexuber ant
ĠGENTEL MEN
ĠSexc ual
ĠFUT URE
Ġsti pend
7 339
B ubble
E VER
M EL
z ition
z ted
in itely
Ġt nerapy
Ġm adzdzage
at nerapy
Ġp none
Ġn orny
ir o
AL YS
Ġ6 28
te kht
red zdz
Ġ647 799
Ġ40 40
se a
ĠCh ance
ĠAl i
ĠBE COME
eth od
Ġad zdz
Ġte kh
ĠCH OOS
Ġsw im
Ġpe au
Ġlow edzt
63 80
Ġguy dz
Ġdz ome
Ġdz ee
Ġdz ingle
Ġdz og
tr adz
dz e
dz tyle
men ian
Ġincluded z
ather ines
ĠEXTRA OR
ma an
223 1
Ġve low
Ġimmedi ate
zdz ing
ĠAIR DRIE
Ġdzekh ual
Ġfavor ites
Ġdzuck ing
zt dz
Ġkid zdzing
Ġdzt art
Ġdzt redzdz
Ġarom atnerapy
Ġintered zted
Ġintered ztdz
dzn ower
Ġcn arge
Ġnou dze
Ġekh tradz
SEL VES
ĠPEN ETRATION
Ġunfor got
Ġpod zition
iaie ivlie
Ġrela kh
padzdz ionate
Ġummmm maan
Ġtekh ting
0 168
7 40
Q V
V aughan
r ita
s panking
an ig
at ically
Ġb ars
ĠB other
Ġg low
ke pt
Ġexp eriance
Ġ7 14
Ġ9 43
15 99
ĠServ ies
11 28
Ġ# ################
44 455
ade vi
74 25
Ġrelie ved
Ġkick ing
Review ed
ĠLoyal ty
Ġness adevi
ĠACCOM OD
ĠKNIGHT BRIDGE
AVAILA BILITY
3 14
6 32
B reathtaking
C OR
O w
W OMEN
s uck
Ġm ascul
Ġc opy
ĠB ambi
ri el
ĠY r
Ġ6 25
47 8
Ġu k
um s
34 63
13 81
Ġ226 37
55 85
ĠSP ICY
ĠBODY SL
ĠSur prise
ĠStar r
APP OINTMENT
917 84
ĠSc ream
ĠPaul ina
ĠPart ner
ĠMARK ET
915 9
Location s
767 3
Ġgag ging
ĠDIV INE
ĠArrange ments
ĠNATAL IE
Ġvent ures
ĠCOURTES AN
S y
h att
w hether
Ġa C
in at
ĠE ither
ĠL aila
ĠG url
ĠG OOGLE
ĠD ie
AL EX
ĠY A
if ax
Ġcom fy
Ġplay I
ie kh
ry kah
Ġgood ies
Ġtr ini
19 57
Ġpre nd
88 85
Ġ? :
lb y
ĠCO n
ĠHY DE
Ġchest nut
ĠSu PeR
Ġlap dance
ĠCudd le
ĠEXPECT ED
515 8
ĠSUCK ING
Ear ly
ALLE JO
ĠEst ab
bubble butt
Ġeuphor ic
HOTT EST
: ##
C uba
E EN
H ay
b ella
Ġp ac
ĠT UMMY
Ġd anger
ĠL ANCASTER
th ank
Ġe ff
IN CLUD
ĠK in
16 00
op ol
ĠWH ICH
Ġfl ash
AG NE
ĠRece ive
ĠMorn ingside
ĠStress ful
ĠBet ween
ĠSOPH IE
Ġapproach able
ĠOPT ION
ĠVac aville
Ġpock ets
COLLE GE
. <
9 65
A ve
B ondage
G IEN
G RY
s ens
Ġt ense
Ġm other
Ġc atered
ĠH ay
st ressing
ess es
20 69
Ġi bs
ĠWh ich
Ġ8 58
ĠWITH HELD
ĠDUO s
ĠSEE ING
Ġcl icked
GET TABLE
96 11
ĠRa e
ANN Y
ĠCa use
)))) ))))
achel ors
ĠRead ing
ĠJane iro
ĠKam asut
ĠCLUBS PARTY
ĠBIT C
0753 47
K elly
L isa
d elicious
m idnight
in nd
Ġw arden
ĠS unny
Ġyou d
ĠC FS
ĠM ILD
ĠG IGI
Ġcom pl
Ġgu elph
get own
Ġ9 64
Ġrelax able
Ġ587 600
Ġ8 28
49 47
75 7
65 305
iv ed
ĠCo Me
Ġcomp ens
Ġ519 800
the y
Ġmes mer
ĠMI K
ĠSL IDE
Ġdd ictive
ĠDelicious ly
oup ons
Ġsof isticated
Ġamong st
whel ming
dani elle
iti us
ĠChamp agne
ĠMiy uki
Ġ519800 5581
C lass
C OND
S on
T aking
h j
m ills
t u
w arm
ar ley
Ġl us
ĠN ikk
ĠN ELLY
ĠT AB
la wn
ĠD ANCE
ĠD essert
Ġthe me
AL A
Ġlove able
20 55
Ġsh ag
Ġ7 26
Ġ! :
ĠAm ira
Ġ60 8
45 98
Ġ; *:*
Ġcar nal
CH N
67 3
Ġ514 416
74 24
ĠSmall er
ett ite
ĠROLE PLAY
Ġdiscrimin ation
Hell oo
ĠHO LLAND
STAG RAM
POR ARY
Ġhesit ation
Ġenv ision
ĠAub rey
Ġwhirl wind
Ġ;*:* """"
. }
6 390
9 416
B anks
L I
i ie
m antel
s quirting
Ġt ou
Ġs izzling
ĠS f
ĠS rious
ĠC oupons
ur itius
our g
ort ure
Ġbl uish
ĠTh ousands
25 36
38 87
ĠAl inadoll
ter m
Ġke en
Ġsw ett
Ġfl uffy
ĠFe isty
Ġfr on
br ush
Ġ115 7
403 47
ĠBR OOK
ĠAMAZ iNG
ĠChe ers
ĠFE ATURE
09 87
It aly
ĠGF X
En large
Ġ........ ..
Ġpain ful
ĠBoo bies
ĠPassion te
Ġsla p
Ġjou ng
ĠQual ified
mantel piece
H er
K itchener
o T
t alk
v enson
Ġd udes
Ġo xox
sc a
Ġe ch
... $
Ġplease Yes
34 68
15 61
ĠWest ern
ĠAll isha
Ġwor se
ĠSW T
ĠGENTLEMEN S
que en
ĠWant ed
59 10621
ester mere
ĠPor celain
Ġkid s
fantasy studios
tant ric
ĠSON I
ĠADVENT UROUS
Ġ587717 0580
ĠBITC OIN
0 120
5 49
6 858
b right
g roomed
h ui
k at
Ġt ats
Ġm Y
Ġb urlington
Ġyou self
la imer
Ġbe aches
IN CH
Ġ6 41
ĠK atherine
ĠIN FORM
80 91784
IS TY
Ġ7 84
60 33
?? .
18 41
Ġkiss s
Ġ20 14
48 39
Ġadd ing
ĠAr menian
pr ince
Ġshort ly
ĠTr acy
61 34
CEPT ION
OTH ING
Ġfu uck
Ġsmell s
ĠPat ient
ĠNipp le
ĠBomb Shell
Ġtax is
ĠYU KI
ĠAMELI IA
0773 3645
Ġ074948 65305
COLUMBI ASTRIPPERSANGELEYEZ
5 23
6 36
C e
N icole
P USSY
o ow
en es
Ġs ection
Ġp edicure
ĠC uR
ĠB ANG
ĠY e
ce e
Ġen viron
Ġ36 14
Ġdes ign
ĠHe idi
Ġ587 408
ĠWh os
Ġlady in
289 0
AND AL
.: *
ĠDE MAND
ĠPRE M
blo g
Ġadv ice
escort book
down e
Go ddess
VIS IT
Vi DE
ĠOPT IONS
ĠGREE CE
ĠTrad itional
ĠLOWBALL ING
innd arling
Ġlus ious
M o
N UMBER
g alleries
i ew
r l
Ġt urning
ĠS LE
Ġc y
ĠA GES
ĠN S
ĠL INA
ĠD uring
ill ion
ers ian
and ina
ĠRE CIE
Ġ07 76
Ġmin imal
DE P
ĠEX PER
Ġ289 22
Ġus u
Ġ!! :
atch ban
Ġ) ,
Ġking dom
ĠDes ired
Ġ89 8
ĠOK OTOKS
ĠUnder ground
>>>> >>>>
ĠRespect full
Ġ0750 8
CED ES
Ġ___ ?
jour d
Sk illed
BLUE MOUNTAINSTRIPPERSANGELEYEZ
5707327 145
................................................ ....
atchban anas
0 333
B IR
G RE
W ATER
l ton
ĠS th
Ġp rettier
ĠM ESSY
ĠO live
Ġ2 19
Ġr ns
20 50
80 24
Ġ647 4
kiss es
Ġ40 6
ĠCh ick
85 885
Ġfre el
Ġprofessional ism
no ons
ĠAL BER
Ġrel xed
ĠOr dinary
ĠQu antity
ĠUP D
Ġupd ating
Ġ\ :
GAR ASTAGSANGELEYEZ
Sub missive
Show ers
ĠLOL ITA
ĠFo xx
ĠSEx Y
ĠBitcoin s
ĠINCOMPAR ABLY
Ġadm ire
ĠMut i
uia atie
Bec ause
bigt its
Ġash ley
ĠOD ALYS
613909 3398
Ġrns ts
1 297
9 13
J az
K ES
ĠS ound
ĠS eek
ĠS issy
ar ound
Ġto ps
ic orn
ĠP earl
Ġd ild
ĠH AR
ĠL ULU
st a
Ġe jaculation
Ġ7 47
89 68
ale s
Ġpla cer
Ġint ent
ĠBr ant
ĠCH ANGE
ĠTr inity
ĠPER KEY
Ġ!!!! !!!!!!!
He art
................ .......
ANY A
ĠDec ent
ĠMAY BE
ĠSkill ful
ĠWi LD
Ġtour ing
Ton ight
STR APPING
Sk in
Ġimprove ment
ĠCHRIST INA
ĠCONFID ENTIAL
ĠPREM ISES
G ent
N at
P assion
d esc
f ied
g ous
it age
Ġl ashes
Ġg atineau
ĠP earson
ĠF h
ri anna
Ġre q
im acy
ur ance
un less
ay e
ge o
Ġ6 43
ian ce
Ġen quires
50 56
Ġ7 701
ENT LY
36 43
Ġtr ashy
CRE TE
TA W
Ex plore
Ġcomp lain
Ġmid town
SH OW
ĠAP RIL
Ġarr ay
mac ulately
ĠDISCOUNT S
ĠChamp ion
ĠBT W
Ġunforgot table
0 986
5 62
A VA
F et
c rystal
d Y
in ate
ĠS ud
ĠS ooo
ĠE p
Ġh int
Ġg oin
ĠG ays
Ġ( *
... )
we ary
36 48
Ġ587 80
ĠNEW LY
ĠSp oken
ĠRecent ly
Open minded
09 78
ĠRos es
ĠPROM O
ĠKy ra
uren teed
Ġpap ineau
may be
Fa C
ĠRUSS IAN
ĠMiddles ex
L F
M U
V OURS
Y ears
Ġa va
ll ars
ĠS LLS
ĠA ctual
Ġ6 19
47 16
Ġli xxir
Ġun fortunately
34 89
Ġapp oint
RI ED
ĠAm rita
29 18
Ġnum ero
air o
Ġdark est
Ġ27 46
ĠCAR ESS
ĠEnd less
ĠVal ent
pin up
Ġmile s
ĠYO u
1036 3157
ansport ation
Ġyah oo
ĠCHOOS ING
TAW ASTRIPPERSANGELEYEZ
5 339
: '
E VA
H WY
Q K
u ing
in n
re ach
Ġs ERVICE
Ġc av
Ġc uis
ĠB ird
ĠO p
ĠF ancy
ĠL ou
Ġme al
ĠD VP
Ġex cl
ĠK rissy
ĠSt orm
Ġ0 91
ĠCar ling
95 7
St ress
Ġ90 270
61 23
ĠTe lephone
93 11
ĠADDICT ED
ĠBarb ara
ouc he
455 3096
WA RE
Ġ0740 4553096
Ġbang in
ĠGROU PS
nipp les
STAND ING
umpt ious
$ :
A ss
D a
O m
f lexible
i ing
u z
ĠE transfers
Ġh ire
ĠL indsay
47 48
Ġr aw
ĠYou th
____ ?
ap ed
Ġim mers
ĠQ v
bon es
Ġhapp ier
Out CALL
Ġag entleman
Th ose
ĠMin x
Ġ28 6
ĠFr ame
ĠZ h
Can ada
sweet spa
318 4
Ġ________ ?
ĠVal eria
Ts FaC
ĠAvai lible
Ġencour age
ĠHoli day
Ġ224 482
Ġpeace ful
UNFOR GETTABLE
ĠGenlt men
TsFaC iN
) ]
+ :
5 120
8 168
K enzie
N ext
S ens
g ene
Ġa irlines
ĠC AT
ic ure
ĠB IAN
-- >>
Ġr s
Ġk ayla
Ġ9 881
49 20
ĠSh aving
77 27
uck y
app reciated
Ġsafe play
ĠLe Ts
He Y
500 5
ĠTE CHN
Ġinter action
285 9
Ġwicked ly
414 3
9208 221
Ġunc ertain
Et obicoke
ĠExperien ces
ĠNAD IA
Ġ07935 742010
ĠPee erfect
W ood
l ick
m icks
n atured
Ġf h
es prit
is panic
ĠT n
ĠD y
Ġ647 795
Ġsh iny
orn ey
69 870
irst y
Ġprom ised
ff esional
Ġpar is
74 49
Ġcomp romise
ĠInt imacy
ĠMouth Experience
ĠINCL USIVE
Ġau jourd
ĠYoU r
ĠPACK AGES
ĠKay lee
Ġpartic ip
HY GIEN
ĠSpir it
ĠACCOMOD ATE
hatt an
ĠRECIE VE
7 482
I aL
W ET
f anie
Ġs UCK
Ġc ake
Ġh urontario
ĠM ens
ĠM ine
ĠP anties
ĠR io
Ġon wards
call girl
ĠIN CA
ĠON Y
Ġ647 38
40 60
Ġi au
25 77
24 31
Ġany body
ĠMe as
Ġ8 82
Ġour s
11 30
les bian
Ġ+ (
ff ers
ĠTr icks
Ġsmall est
Ġquick y
96 60
Ġinformation s
ĠMI AMI
Ġlif es
ĠRoleplay s
ĠSINGAPORE AN
ĠRox anne
Ġpun ctual
Ic E
Ġsquir ting
ĠMul atto
ĠLoo K
) ..
7 42
B reak
G re
n ia
re f
Ġs ci
ll b
ĠS la
ĠB bs
et er
ĠG URANTEED
00 5
Ġ4 97
il ia
iss aga
87 94
Ġ7 71
Ġch oke
ĠOUT calls
UR IES
ĠSE EN
Ġ8 389
ĠSh pherds
29 69
Ġpl se
Ġsub stances
uis ness
res a
61 14
Ġblock d
ĠEY EZ
Me ghan
Don ation
ĠBo king
399 9
330 9
Ġ077 11
ĠAlbert a
386 27
fold ed
ĠHEL EN
ĠAddict iv
626 4
Ġfreel ance
: @
F our
Ġs ara
Ġf ixed
al se
Ġg spot
Ġo x
ĠH u
st anding
ag ging
Ġv illage
Ġ07 879
15 6
ĠWe ber
99 54
Ġ226 9208221
21 07
Ġ[ (
Ġfl irting
ĠFA B
ISS Y
Ġ54 80
ĠVI ETNAMESE
Ġbit coin
09 26
ĠFr anais
Ġrub bing
ĠMor occan
ĠGentle Men
GIRL FRIEND
ĠAPPE AL
Ġbon ne
Show ler
Ġgross es
Ġadvert ising
Ġobs ess
ĠAnton ia
ĠPOSIT IVE
Cl ick
Ġ078247 38627
ĠFav s
ĠREF LEX
Ġkal ena
ĠFavor s
Ġinquir ing
3 102
7 664
M sog
k ay
re ina
at ian
ĠN ico
ĠT ATT
Ġd rives
Ġ3 99
Ġ3 29
Ġr u
ĠV ol
Ġk andy
ĠJ ersey
ĠPark er
Ġ9 1
ĠInd ustry
ann asweet
67 6
ĠRates Incalls
cross ed
Ġco qu
ĠSw eeT
Ġprof il
!!!!!!!! !!!
ĠSon ya
Ġob ide
ĠMet ro
sub missive
SP ANISH
ĠWIN TER
ĠCI ARA
Ġfort une
Ġchale ure
inat own
$ ...
? .
T ina
h azel
Ġt ag
Ġs en
ĠS it
Ġp uss
Ġc armen
ĠC ent
ĠA LY
et ie
ĠM exico
Ġin stant
ĠD erriere
ĠK eri
Ġfun ctions
30 2870
Ġapp ropriate
ham ilton
18 3
ĠGENT AL
70 48
ooth ing
200 4
IND I
ĠSEE KING
250 9
400 7
ĠStrap on
OXOX OXOX
ĠHAB LO
ĠOrigin ally
Amer icas
ĠQub ec
5 22
: [
; ).
A st
f reaky
i ER
w ers
Ġb rill
Ġc if
ĠC assy
ĠA bsolutly
Ġ1 87
ĠL OST
el izabeth
60 47
Ġnow here
27 86
Ġpr fct
Ġher itage
ĠEnjoy ment
ĠDis ponible
fr ut
600 6
RO KE
ĠCHO ICES
ĠPrest wick
Ġaff iliated
IQU ES
Tight est
215 7
ĠDRESS ES
309 87
Ġexperiment ing
OF FER
EUREUR k
Law rence
ĠCOn DOM
R N
S OUTH
h ygiene
n T
ĠI deally
le ah
ĠB LA
Ġh urs
et e
ĠF AT
ĠD IGITS
Ġ6 07
LE EN
Ġbody rubs
os a
07 438
ale e
ct uary
Ġper verted
36 87
Ġ587 32
AM Y
69 78
Ġsp cl
ĠSW ALL
sp lay
66 52
Ġupscale d
Ġpo ised
IF Y
ĠMOUTH Party
ĠMAR CH
Ġfu c
ATAL INA
0752 23
Ec IaL
Ġ074362189 29
ĠSPIR IT
Ġbrit annia
! <
0 289
M ut
S i
S utton
n k
p as
t ies
v ador
Ġw ll
ĠN AT
ot ion
ul b
Ġ647 9
Ġ24 8
ĠUp grades
Ġcon stantly
________ _
Ġse a
ĠPR OO
65 63
ath ensvipescorts
HE IGHT
tr uedelights
ĠAB HAL
TR UE
Ġunderst ands
FF F
Pro ps
Ġ58 69
Go ing
Ġpin ata
ANTAL IZING
ĠCOLUMBIA CALGARY
G LASS
H arley
n otic
or ia
ĠA ct
ĠT re
ĠM OOD
00 718
Ġwith hold
ĠMy la
pan e
um mmmmmmmm
Ġsh ave
16 13
oll ie
73 17
ĠMI DD
Sex xxy
ASH LEY
candy cain
Ġavaila b
Ġlatin as
443 11
NEGOT I
SUB MISSIVE
ĠEntertain ment
43777 44311
candycain bbw
6 206
K AT
R OS
] -
n ast
s est
z h
Ġb tw
ĠE Z
ĠW ATERSPORT
Ġ5 72
ul ce
Ġsh ift
atur days
Ġ60 2
88 88
pro vid
Ġac adienne
Sexy exotic
ĠSex uality
Ġwaist ing
150 1
Ġgr in
Ġcoll age
Ġbene fit
390 159
~* ~
Pl us
ĠKI KI
FIN CH
ĠMad ame
Ġ6477 390159
LETH AL
ĠFranc isc
Ġgradu ate
ĠAppreci ate
Ġsheet scome
ĠSPOT LESS
Syl vie
ĠImmedi ate
07733645 476
Ġiau dzn
ĠFAB ULOUS
075223 93447
' :
K ay
R INA
j apanese
t here
ĠI CE
Ġm ckenzie
Ġh ush
Ġg iggling
Ġo R
ĠF ET
ĠG ALL
Ġre born
im s
Ġlo king
Ġ7 63
ĠTH X
Ġapp o
ĠAl iyah
Ġ587 400
17 39
apan ee
Ġexotic xxx
ans downe
Ġsw all
ĠFre quently
add itional
ĠHeaven ly
etr ansfer
ĠSens itive
334 1
Ġvac atin
Ġbudget s
appleflower one
Ġvo ir
neck tie
ĠGALL ERY
Ġexoticxxx angel
0 354
8 106
A bby
B lock
E glinton
M AD
x n
Ġc ub
Ġ1 956
ĠF ine
ĠR uff
ĠG arant
st asy
89 67
OO LBS
27 64
TY PE
ĠFOR TH
48 23
57 41
Ġlat est
BER G
330 2859
Ġpat ience
601 26
Ġleg al
Ġcharg ing
FA VOURS
Ġ77 87
713 9
ĠBrand i
Ġbeut iful
ĠHoli days
city scape
hett o
Ġbrill iant
5 250
8 27
P O
V iv
d ch
v oluptuous
it ly
ĠM ai
Ġ4 66
ĠNO w
Ġex ha
out fits
Ġcan e
34 56
ĠAn jela
Ġspecial ized
647 79
UN NY
app s
12 87
39 55
pro file
ĠCo ver
io log
Ġign or
Ġdelight fully
08 25
Ġoccas ional
ĠKat reina
!!!!!!!! !!
Ġsn ap
415 1
Ġexch anged
Ġcoco a
ĠRED HEAD
ĠLUCK Y
iche ver
Ġbord er
Ġmist ake
ĠKH LOE
ĠRecomm ended
P ure
T urkish
v anilla
Ġa in
Ġs inks
Ġw y
Ġb ent
ĠC BC
ĠM AND
Ġ1 77
ĠW il
ac are
Ġ: :*
Ġ5 75
ore s
qu a
ph acare
ĠOUT Calls
Ġup beat
Ġback pane
ĠFun Size
ĠPro ve
CH ANT
ĠIM PRO
ĠMel rose
ĠHYGIEN IC
As ia
505 7747
Ġ819 2101353
Ġair ports
Ġagree ment
kok o
Ġlip stick
unn ies
ĠMont ral
ĠED MONTON
ĠDUR ING
Ġrapt urous
Ġannoun ce
ĠComb ination
E e
J ASMINE
b ud
d ian
f irm
p ick
Ġa hold
Ġc ave
ĠA ra
ic hell
Ġl otta
Ġo akville
ĠL aval
ĠD ICK
Ġre markable
ass andra
Ġ4 464
60 25
ĠME ANS
Ġbr on
ĠRo gers
69 67
Ġ0 20
ĠMan hattan
44 39
ĠEN OUGH
Ġpic utres
Ġelegant ly
82 29
ĠGer many
:, .*
ĠMa uritius
Ġkink ier
ĠPor sha
Ġappart ement
ĠAssist ants
Hands ome
K iller
V o
Y uki
p ri
s educt
Ġs illy
Ġs ingles
an ut
Ġp rav
Ġl ush
ĠN ou
Ġwh ipping
Ġan tics
Ġr um
IC URED
Ġi vory
Ġch anged
34 82
49 64
Ġus uia
45 65
ĠGo es
ĠWANT ED
ĠGR k
ĠFr ancais
ett es
ĠPa ola
Any way
ĠSub ject
net ic
ĠOFF ICES
Ġed ible
stop watch
Ġpast ime
jo bs
Ġstrap on
LB s
Ġwar ship
ĠMOT ELS
Ġden y
aci as
ĠStill et
00718 64
- >
2 475
4 357
B ust
D estiny
P ERS
Y UM
Z E
t umblr
Ġf ais
ĠN urse
ĠP OR
ĠO PE
Ġo asis
ĠH omes
ĠR ack
ĠG al
AL SO
ĠJ azz
vi le
Ġj aime
ĠTEXT E
Ġ416 5057747
Ġ@ @
xt ra
Ġ226 80
ST OCK
Ġref use
ĠCond mm
RESS ING
ĠCon cord
ĠBubble Butt
ĠExc itement
ĠBoun cing
ĠFalls view
Ġpun ishment
ĠTy ra
Ġsquir ter
nor mal
ĠNY C
ĠCOLLECT IVES
Ġite ms
Ġautom atically
MAG IC
Vo IcE
A ke
D OU
N ine
V ATION
W ED
m t
Ġa f
ĠS port
ĠB ORN
ĠP AMELA
Ġo pin
il ated
Ġst opping
IS EXUAL
Ġsex soft
Ġ40 37
24 41
Ġ587 70
27 62
Ġ416 85
ĠSEX iER
lim es
Ġvis ited
Ġthick er
my a
ĠLOOK Ing
ĠWEL C
ient e
ĠTal ia
TR INI
DIS CRET
DIS CRETE
Ġrough ness
she male
ĠCount ies
Ummmm aaahh
andina vian
HYGIEN E
elizabeth splay
C ILLA
G erman
H ertfordshire
b oots
m ys
p ine
ĠS OCKS
Ġp ier
ic ion
ĠN isku
ĠM ERB
ĠR IDE
un am
47 80
80 42
ession s
19 60
ĠCALLS NO
anc ers
Ġ416 56
li kes
55 3
ĠUN LESS
Ġse Ex
Ġarous al
ĠMin imal
Ġnature d
447 9
ĠNa uru
Ġ51 47
ANY WHERE
Review s
Ġsil ic
SUN DAY
sn atchbananas
Ġtt f
ĠTENS ION
Ġshay lynn
ĠEXTRAOR DINARY
Ġ587408 4322
ĠIMPRO VED
0 958
5 43
C ER
F reak
O ri
S abrina
T is
V D
b et
b ird
Ġs ast
Ġp ssy
ĠM annered
ĠR u
us ing
Ġr ue
ig ator
Ġbody rub
sh irt
au g
100 0000
Ġsensual it
24 37
id o
eth at
ĠUn Rushed
Ġ35 25
ĠAsk ed
Ġdr unk
An t
wh atever
ech asse
ord in
Ġdar l
Ġok otoks
ĠSam ple
ĠPLA y
Ġ39 75
Ġskill ful
Ġdiscuss ing
Ġ10000 00
Sc reening
Com fortable
Ġplan et
ĠSi Mp
ĠUnd ivided
Ġaccomod ate
Disease Free
ĠTOW ELS
ĠINFORM ATION
ĠStillet oes
Ġsexsoft curves
unam used
ĠSiMp Ly
B ur
L ee
en anig
ar ra
ar ia
ĠC ornwall
ĠB ITCH
om s
Ġl ayla
ĠH OOD
ĠR OUGH
st em
Ġ2 12
Ġ5 22
Ġor Al
ĠIN STAGRAM
ĠONLY NO
Ġplay ers
40 79
ĠOn LY
ub limes
Ġ07 704
ĠCh ain
45 48
Ġear n
98 25
ĠDisc erning
ĠSuper man
Ġend e
ĠVIP FAVOURS
Ġexpl oration
gg in
ĠApp eal
ĠMon a
ĠRoom ies
ĠSy d
Ġlist ing
ĠZ ara
ĠUNFORGETTABLE time
Ġmod elling
Sc ottish
PA IG
spe ech
HUR ONTARIO
aton ic
Su aL
ĠWr ite
ĠChann els
ĠDynam ite
adonnas ecrets
ĠTECHN IQUES
* (
8 339
L UM
ic ecall
ĠB ISEXUAL
Ġth urs
ant elle
Ġu pper
Ġso apy
ĠIN G
Ġen quiry
ENT IVE
ĠYOU LL
DD IS
45 24
Ġdis frut
67 43
In terested
xxxx xx
ĠPer haps
ĠTe resa
ĠBR ITTANY
MY A
Ġcover ing
ĠMi Mi
334 8
ĠTEM PORARY
Christ mas
ĠBurn hamthorpe
Ġgener al
ROLE PLAY
ĠBell echasse
Soph ia
Ġinsp ire
ĠFoR get
ĠIndep ed
Ġcompl te
ĠHOOD LUM
D UR
F t
G ays
Q URIES
j uelz
Ġa k
Ġt am
Ġt une
le en
Ġh ust
Ġg ender
ĠG ntmn
ri gu
Ġre pe
Ġ2 29
ai ka
Ġbo ards
.... !
ĠRE LA
80 23
Ġ647 87
Ġsh enanig
Ġ. :**
Ġfe ature
25 89
ĠLo Ng
ĠWh or
65 36
CH EST
Ġpl atonic
Ġpri mary
:) :
Ġ075 6390
ĠMISS ING
ĠMAR RIED
ĠMorn ings
Ġinter l
Pe TiTe
Ġmel issa
Ġsla pping
ĠSIN FUL
Ġimagin ative
ĠTrain ing
comple tely
Ġanat omy
ĠBIAN CA
5 169
A DD
D d
O k
O AKVILLE
S ET
` `
k m
w ed
ĠS ask
Ġc ree
ĠC airo
Ġg ar
ĠM ASTER
ĠL ist
ĠL imit
ĠW ow
ĠD USTING
Ġth ai
Ġbo king
30 32
ag ine
ĠSh ip
29 21
OL LY
Ġ300 0
Ġpersonal ty
ĠPRE BOOK
Ġ079 18
Safe play
iC ck
ALG AR
ĠDiamond s
ĠMi X
ĠFair view
ĠKar la
ĠAbb y
ĠSECRET LY
ĠDISCOUNT ED
ĠUND RESSING
ĠALWAY s
ĠDen ise
ĠRefreshing ly
ĠFore play
Ġ@@@@@ @@@@
Ġdropp in
ĠCONNE CTIONS
Ġneighbor hood
ĠREPE AT
B all
B ANG
T alon
b a
j er
v ice
w rap
ĠI c
Ġc ent
ĠM ET
ĠO H
Ġo shawa
ĠL on
oo ches
!! ----
Ġ6 20
Ġ6 99
20 42
ĠYou ka
40 17
ie urs
Ġ34 4
Ġ07 398
RI VE
Ġboot ys
23 11
28 62
Ġ437 77
ĠCUR VE
ier a
doll l
Ġcum s
escort files
ĠCur l
ĠBet ty
868 4
ĠTri ps
Ġ((( (
mmmmmmmm mmmm
ĠMil an
Booking s
dress ed
880 203
Amer ican
Cater ing
ĠPun ctual
Ġ647488 4007
ĠSIX TY
ĠPUNCT UALITY
7 100
9 101
C ici
O shawa
R ead
f lag
p edi
Ġd ous
ĠH ob
ĠD IC
Ġ4 62
IN C
ĠU ng
ĠK end
ue ill
Ġserv ic
ĠIn quries
Ġj ade
Ġ7 87
Ġ7 30
Ġ30 46
17 78
Ġint rested
Ġde er
id ote
UN LIMITED
Ġ200 1
90 69
uk o
water ing
03 27
ĠBri d
Ġcomm ute
ĠCL UB
Ġ00 73
Ġpur rr
To es
215 2
ĠEND LESS
Ġspark ly
ĠCand ace
ĠSEARCH ING
Ġvag ina
ĠChi lean
iekh u
ĠNou velle
C im
D el
E AH
H APP
p et
Ġa ffect
Ġp a
Ġl ift
ĠP VC
AL S
Ġ6 31
Ġbo ast
ĠV AUGHAN
Ġcan more
ip er
ĠGu arentee
ud ed
99 52
ix ie
Ġro ja
ĠPLEAS UR
ĠTime wasters
ĠSm okin
In n
68 44
ĠFA ITH
ĠYoung est
ĠContact ing
Ġ11 30
Ġsl ick
ĠHar ris
head ing
ĠEll ie
ĠDesc ent
ĠImag ination
Ġ267 34660
Ġ489 8
Ġindividual s
ĠStay ing
ĠAPPE L
ĠMOM ENTS
Ġ725 8
ĠCapt ain
ĠVIVI D
STAG STORONTOANGELEYEZ
ĠOc cas
ĠAngeli que
Ġgoddes st
ĠPROO F
Ġ26734660 64
2 166
3 22
8 341
P ersian
R og
T ORONTOSTRIPPERSANGELEYEZ
X XT
c reek
p orn
s ave
t iest
v t
Ġa e
Ġs unny
all as
Ġ& .
ĠG ise
Ġ5 58
Ġam ours
Ġe uro
ĠIN calls
red its
Ġup grades
ĠPro gram
Ġ0 1
75 39
ĠMix ture
amb odian
SS S
ĠLE O
ĠMAN ICURED
Ġcont r
Ġrock in
Ġ0747 218
417 6
ĠDrug DiseaseFree
Com ing
Ġschool girl
920 3
CANAD IAN
ĠTam ara
Ġgim micks
ĠCALI ENTE
ĠPaR tY
Ġ4165696 275
INDS OR
ĠBULL SH
Ġcomplain ts
mys ite
Ġdarl ings
Rog ers
Ġ0747218 8828
D Breast
H AN
o h
Ġm akiyo
ĠC IR
Ġl as
Ġd re
sc r
ĠD ANG
ec ial
Ġ6 12
Ġserv ed
ĠRE WARD
Ġsh aking
Ġun n
Ġsk irts
Ġmin uts
min ts
14 53
Ġres ult
ĠSh oes
iling ual
Ġ# ##
ĠSoft er
Ġincl us
cross bones
OL O
ĠPleas ed
ĠApp ro
Ġmag netic
92 30
Ġbelie ver
230 2
rill s
Ed monton
Ġintri gue
Ġhom mes
ĠResp ons
ĠScot ia
ĠSEC OND
Ġenhance ments
Ġaware ness
Ġ07587 454027
Ġant idote
ĠMEX ICO
ĠRENO VATION
ĠIMAG INATION
Ġenviron nement
3 879
M exican
O uts
Ġb ounds
Ġp arent
.. ####
Ġe ls
Ġon tario
ĠY R
ĠV AC
Ġun appreciated
Ġch ica
Ġbl vd
Ġ9 10
ĠTh ornhill
Ġbr ink
RI EnD
99 59
99 63
Ġ8 869
ESS E
67 25
62 29
miss victoria
ĠEl ina
Ġ55 33
Ch arl
Ġste el
708 4439
arent ed
607 490
Ro omie
Ak o
Ġ0786 7084439
ĠAROM A
Ġprson it
Ġdur ation
Ġbell es
Ġgri ps
3766 348
Ġ07913 607490
Ġprav ya
..#### #:
missvictoria xx
5 222
L adies
R D
e mily
Ġs an
Ġs av
Ġs elena
ĠS x
Ġg orge
end ary
... #
ĠK att
and er
40 49
ie ia
13 88
Ġar riving
Ġgood time
Ġapp ric
Ġgreat er
ĠAsian s
ĠBr acebridge
ĠPLEAS ANT
Ġad ap
ĠNOT NEGOTI
ANT S
ĠDon wtonw
ĠCom mercial
ĠIs abelle
Ġstr anger
Ġsc rub
96 16
ĠMassages Real
889 7
Ġbro ken
Ġ0795 125
Ġhypnot ized
Ġscream ing
MULT IPLE
Fin land
Ġfle sh
COR D
callgirl files
ĠWhor shipped
ĠNOTNEGOTI ATE
A ldgate
T ri
W elcoming
t le
Ġb isc
Ġc ow
Ġc assie
.. ,
Ġd igits
ers hip
Ġserv es
Ġsexy es
Ġ7 50
30 37
ip ro
dd ds
36 61
ĠAm or
22 99
oc ence
75 4
ĠCar a
Ġdrama free
PS PS
ĠExt end
Ġans wers
63 37
Ġrece ived
Ġsl iding
ĠVer ification
ĠJUICY Y
Ġ16 40
ĠGIRLFRIEND S
585 8
Ġsweep ing
ĠAir brush
Sam reign
gress ive
CU K
Ġliter ature
Ġfell at
lev ard
Hab lo
ĠDEST INY
Ġunmatch d
2 370
4 23
I ve
P edi
u a
w ow
ĠI rs
an ch
is he
Ġp nds
as es
as ex
Ġg hetto
ĠP EARS
Ġ1 100
ĠH INDI
Ġst ret
Ġr ican
Ġperson lity
ĠTh irsty
39 759
per forming
Ġse ks
Ġpe ux
ĠDisc rimin
ĠEN JO
ĠTr u
ĠDe vi
416 1
Ġfrench i
ord elia
water melon
ĠOUR SELVES
ESH OWER
Ġ0747 5910621
Ġtri mmed
Ġmu jer
Down Town
THE AST
ĠAri anna
ĠbOO bs
ĠCarol ina
790 14
ĠBIR D
bre ast
stit utes
ĠWOOD STOCK
Ġ416822 2123
ummmmmmmmm mmmmmmmmmmmm
Ġopin ion
HAPP Y
ĠGise le
ĠPEARS ON
ummmmmmmmmmmmmmmmmmmmm ah
1 346
1 870
N I
S assy
T witter
b oot
c ourtesan
g ia
z ed
Ġa irdrie
Ġt l
Ġs inner
ĠS ister
ĠC atherine
ĠB ES
Ġh urt
ĠR I
Ġin it
Ġre v
Ġ2 99
** ---
Ġwh ore
ĠJ ourney
17 62
Ġ8 63
49 36
23 28
ME EN
Ġhard ness
ms by
ĠLook in
ĠSL IDES
Ġfill ing
ĠNOR THEAST
ĠSQUIR TER
ĠNIP PLE
orm ous
Ġge orgous
Ġ078247 39759
ĠJAS MEEN
MARY LAND
ĠCAND ICE
Ġcav ities
Ġdisfrut ar
) ....
C Brown
O u
c orn
Ġs v
ĠS ave
Ġp unjabi
ĠA utom
ĠE ase
Ġg si
ĠM AP
Ġ1 226
Ġme re
Ġfor th
ur ray
Ġam ber
** ,
ers ection
Ġst eeles
lo la
Ġ647 695
07 71
dd s
15 725
Ġbab ies
Ġsp ray
Ġ# /
Ġ15 77
play mate
ĠCar Calls
Im agine
Ġgr and
ĠCAR IBBEAN
Ġ70 6
500 7
Ġsupp osed
ĠBreak fast
Ġcam bridge
Per ky
ĠPay ment
867 3
ĠInde pend
ĠFEL T
ĠENJO YS
79014 277
Ġgsi ig
/ .
7 43
H eal
M ost
T IC
V ori
k im
o i
o xxx
p osition
Ġ vel
Ġb othered
ĠC reat
ĠA less
Ġg as
Ġn ut
ĠO CK
ĠR iver
ĠG rown
ri msby
un icorn
Ġe va
Ġwh ith
ation ally
ish amy
Ġexp rience
Ġno va
30 20
Ġun fold
Ġ! ....
36 8684
mail s
Ġ8 20
ĠPLEAS URES
Ġindependent Available
ĠDIS AP
Ġ15 14
Ġvi x
ĠSensual ity
ĠDay time
Ġ079 79014277
ĠGr xxk
MIN UTES
asc ination
ĠFa Vori
Ġpim p
Sp inner
Ġ4036 12
ĠAIM ING
conf ided
ĠLES LIE
Ever body
Ġ07984 368684
Ġ07827 8190
xO x
ĠCOLUMBIACALGARY EDMONTONFT
DUR HAM
Ġinterl ude
ishamy st
ĠFaVori Te
Ġ078278190 10
6 990
d ances
m ild
t ia
Ġf ield
ĠS ally
Ġp ages
ĠC n
ĠE rykah
ts r
Ġ3 135
EN IX
IN ING
Ġ6 46
ĠK ipling
Ġcom me
Ġch ocol
ĠOUT STANDING
Ġ9 12
24 67
99 16
77 42
45 70
hh hh
ANT IC
Ġte aser
Ġ20 48
28 33
ĠHA W
ĠBar gain
ĠSH EL
und ays
ĠExt ensive
ĠMin dy
TE OUS
Me gan
ĠPART NER
Ġdep lace
Ġpass ing
716 649
ĠCHAR gE
ĠTrust ed
413 9
274 4057
Ġtransportation will
des anges
Ġ^_^ .
asturb ate
Ġsam ple
Ġdiv ine
Ġreco is
yd ia
fleur desanges
Ġink ed
ĠSen SuaL
ĠCHEST MERE
pho enixx
Ġprest igious
Ġdelect able
Ġkisss ess
! ?!
0 854
4 36
E th
F ollow
b dsm
p icture
s view
w an
Ġs ou
Ġf lo
Ġc lls
00 34
Ġha ha
Ġlo yal
ĠV ALLEJO
ig th
OT TAWASTRIPPERSANGELEYEZ
Ġ07 983
29 33
Ġ10 1
ĠST AYS
ILL IA
Ġrush es
ĠBl W
Ġ;) )
In cred
Ġqu ench
IEN CE
86 55
ĠBaby lon
Be ing
Wh ips
ĠGR OOM
ĠATT END
Ġed monton
DON ATIONS
Sc ot
ti ig
hel p
inid ad
ĠPOST ING
ĠTEX XT
ĠBEHAVI OUR
ĠPOSIT ION
cond ition
Ec T
DANI ELLA
ĠVag inal
Ġidz C
igu an
Ġbesoin s
P AID
U s
ll bs
Ġf ox
ĠC old
Ġo ve
ĠF lex
ĠR im
ĠG ianna
Ġha blo
ass el
ond ays
ĠV ary
Ġun rush
are ign
Ġ24 67
19 51
27 15
ĠAL OT
ĠLe ft
gr ace
Ġco chrane
42 2540
Ġmag azine
ĠBOOTY LICIOUS
705 5
83 60
83 19
Ġcut tiest
sweet samanth
ĠCLI ENT
Relax ation
Ġair b
Ġmir r
De v
CRED IT
ĠResp ond
Ġ07925 422540
Ġ07550 716649
ĠBODYSL IDES
aug thy
ESHOWER ING
sweetsamanth areign
0 112
C ONS
G a
P ar
T itty
c ook
s ingle
t H
z tiig
Ġm ie
Ġb ur
Ġc ounty
ĠA WA
al ate
ic ain
Ġh es
Ġl n
Ġn OT
Ġo aid
ĠH ilton
ĠR id
ĠK EL
Ġall ishamyst
ĠV ers
ĠJ AY
ĠJ ordyn
Ġ7 4095
30 97
Ġreal ities
Ġold s
Ġ587 855
17 1
row l
Ġsoft er
Ġoff ensive
ĠMar ianna
--- :
ĠVI EW
ĠHar ley
ek s
Am A
ĠSam reign
PLAY MATE
GG ING
Ġest oy
ĠMAG N
Le isure
215 9
bo ard
ĠSat iny
Ġmel ns
Ġgarant ee
Ġundoub tably
ĠCARE FULLY
ĠWeekend s
Ġ.: .:*.
ĠGod ess
Ġ6134 177358
iai etie
ĠHUN GRY
quick ies
ESCORT S
ĠCREAT IVE
ĠPLEASUR ABLE
Ġappric iate
Ġoaid ztiig
Ġ74095 2918
0 657
4 303
F i
L ew
U Y
f ingers
g l
m olly
ou levard
Ġf alse
ĠP aid
Ġre n
Ġ2 22
Ġ2 271
Ġ* :*
Ġexp ensive
fer t
07 48
Ġi ien
26 36
ap ointments
Ġ8 48
ĠBlack men
Ġ60 43
Ġ289 20
33 95
pro vide
ĠUN ABLE
Ġac ts
ang ry
Ġcontact ed
Text ing
68 24
Ġtalk s
ĠMAN AG
ĠBec ome
Wh ole
ĠWAST ER
Ġab road
BR UN
Ġ________________________ _______
ĠCOUR TEOUS
Ġ725 4
Ġ------ >
Ġtit le
Ġrejuven ate
Ġinvol ve
ĠPet it
4047 780
ĠJEN NA
ĠLin ens
expect ed
ĠSTRI P
Bath urst
ĠGENTAL MEN
Ġiien ieia
! ....
' -
C ambodian
F lexible
L ic
L DS
T ie
T asty
p ensive
s in
w ry
le te
Ġp ep
Ġl t
ĠN ANCY
ĠP our
Ġn yl
ĠW aster
LY N
ian n
and D
07 9845
up licated
Ġ07 46
ĠHe at
647 7163055
Ġ289 769
sm other
45 81
85 97
ĠSEX INESS
22 13
be hind
ĠOr gy
Ġfin al
Ġ< --
Ġgr ound
lie ai
TE M
Ġlate ly
ĠLE AVING
Ġgent ille
ĠSu cculent
AIL AND
Ġmet ro
som etimes
ĠDEL IVER
415 8
Shower ing
Ġreput able
ĠTim mies
Ġnerv es
546 1
Ġexperienc ethat
SHE PPARD
Ġmarri age
ĠYouth ful
! +
H J
Ġa y
Ġw iting
[...]
