{"<s>":0,"<pad>":1,"</s>":2,"<unk>":3,"<mask>":4,"!":5,"\"":6,"#":7,"$":8,"%":9,"&":10,"'":11,"(":12,")":13,"*":14,"+":15,",":16,"-":17,".":18,"/":19,"0":20,"1":21,"2":22,"3":23,"4":24,"5":25,"6":26,"7":27,"8":28,"9":29,":":30,";":31,"<":32,"=":33,">":34,"?":35,"@":36,"A":37,"B":38,"C":39,"D":40,"E":41,"F":42,"G":43,"H":44,"I":45,"J":46,"K":47,"L":48,"M":49,"N":50,"O":51,"P":52,"Q":53,"R":54,"S":55,"T":56,"U":57,"V":58,"W":59,"X":60,"Y":61,"Z":62,"[":63,"\\":64,"]":65,"^":66,"_":67,"`":68,"a":69,"b":70,"c":71,"d":72,"e":73,"f":74,"g":75,"h":76,"i":77,"j":78,"k":79,"l":80,"m":81,"n":82,"o":83,"p":84,"q":85,"r":86,"s":87,"t":88,"u":89,"v":90,"w":91,"x":92,"y":93,"z":94,"{":95,"|":96,"}":97,"~":98,"¡":99,"¢":100,"£":101,"¤":102,"¥":103,"¦":104,"§":105,"¨":106,"©":107,"ª":108,"«":109,"¬":110,"®":111,"¯":112,"°":113,"±":114,"²":115,"³":116,"´":117,"µ":118,"¶":119,"·":120,"¸":121,"¹":122,"º":123,"»":124,"¼":125,"½":126,"¾":127,"¿":128,"À":129,"Á":130,"Â":131,"Ã":132,"Ä":133,"Å":134,"Æ":135,"Ç":136,"È":137,"É":138,"Ê":139,"Ë":140,"Ì":141,"Í":142,"Î":143,"Ï":144,"Ð":145,"Ñ":146,"Ò":147,"Ó":148,"Ô":149,"Õ":150,"Ö":151,"×":152,"Ø":153,"Ù":154,"Ú":155,"Û":156,"Ü":157,"Ý":158,"Þ":159,"ß":160,"à":161,"á":162,"â":163,"ã":164,"ä":165,"å":166,"æ":167,"ç":168,"è":169,"é":170,"ê":171,"ë":172,"ì":173,"í":174,"î":175,"ï":176,"ð":177,"ñ":178,"ò":179,"ó":180,"ô":181,"õ":182,"ö":183,"÷":184,"ø":185,"ù":186,"ú":187,"û":188,"ü":189,"ý":190,"þ":191,"ÿ":192,"Ā":193,"ā":194,"Ă":195,"ă":196,"Ą":197,"ą":198,"Ć":199,"ć":200,"Ĉ":201,"ĉ":202,"Ċ":203,"ċ":204,"Č":205,"č":206,"Ď":207,"ď":208,"Đ":209,"đ":210,"Ē":211,"ē":212,"Ĕ":213,"ĕ":214,"Ė":215,"ė":216,"Ę":217,"ę":218,"Ě":219,"ě":220,"Ĝ":221,"ĝ":222,"Ğ":223,"ğ":224,"Ġ":225,"ġ":226,"Ģ":227,"ģ":228,"Ĥ":229,"ĥ":230,"Ħ":231,"ħ":232,"Ĩ":233,"ĩ":234,"Ī":235,"ī":236,"Ĭ":237,"ĭ":238,"Į":239,"į":240,"İ":241,"ı":242,"Ĳ":243,"ĳ":244,"Ĵ":245,"ĵ":246,"Ķ":247,"ķ":248,"ĸ":249,"Ĺ":250,"ĺ":251,"Ļ":252,"ļ":253,"Ľ":254,"ľ":255,"Ŀ":256,"ŀ":257,"Ł":258,"ł":259,"Ń":260,"Ġa":261,"in":262,"re":263,"Ġt":264,"ou":265,"on":266,"en":267,"er":268,"or":269,"Ġs":270,"ll":271,"ĠI":272,"Ġm":273,"le":274,"an":275,"Ġw":276,"at":277,"ing":278,"Ġb":279,"nd":280,"Ġf":281,"es":282,"it":283,"ĠS":284,"ar":285,"is":286,"Ġp":287,"Ġc":288,"Ġand":289,"Ġy":290,"he":291,"Ġyou":292,"ĠC":293,"ĠA":294,"al":295,"Ġto":296,"as":297,"ic":298,"ĠE":299,"ex":300,"..":301,"ĠB":302,"om":303,"Ġh":304,"et":305,"ed":306,"Ġl":307,"ĠN":308,"Ġg":309,"ĠT":310,"all":311,"ĠM":312,"ve":313,"ĠP":314,"Ġd":315,"Ġn":316,"ts":317,"la":318,"ĠO":319,"Ġ1":320,"Ġo":321,"ĠH":322,"ent":323,"ĠF":324,"ĠL":325,"Ġ&":326,"ly":327,"ĠR":328,"Ġin":329,"ith":330,"ot":331,"ĠG":332,"ĠW":333,"ow":334,"Ġme":335,"sc":336,"ĠD":337,"ion":338,"st":339,"am":340,"ut":341,"ri":342,"Ġthe":343,"Ġfor":344,"orts":345,"00":346,"ĠEsc":347,"ac":348,"Ġre":349,"im":350,"Ġwith":351,"ir":352,"ur":353,"ill":354,"oo":355,"!!":356,"AL":357,"ĠEscorts":358,"gh":359,"Ġ:":360,"ver":361,"Ġ2":362,"Ġbe":363,"un":364,"ay":365,"Ġof":366,"Ġha":367,"ro":368,"ge":369,"'m":370,"ble":371,"Ġ5":372,"ck":373,"ul":374,"Ġ3":375,"Ġam":376,"Ġmy":377,"Ġyour":378,"ark":379,"end":380,"Ġor":381,"th":382,"Ġe":383,"Ġth":384,"el":385,"Ġon":386,"Ġis":387,"us":388,"ec":389,"dy":390,"ght":391,"ke":392,"ĠY":393,"ai":394,"ext":395,"::":396,"ant":397,"our":398,"leas":399,"ome":400,"**":401,"EN":402,"ER":403,"ure":404,"ate":405,"ce":406,"Ġ(":407,"Ġ-":408,"ass":409,"ond":410,"Ġwill":411,"ALL":412,"if":413,"ous":414,"est":415,"call":416,"art":417,"Ġ4":418,"ook":419,"Ġ100":420,"ime":421,"exy":422,"Ġhave":423,"Ġwh":424,"ĠNO":425,"IN":426,"ers":427,"ice":428,"Ġ6":429,"Ġcall":430,"Ġex":431,"Ġlo":432,"irl":433,"ive":434,"very":435,"ES":436,"il":437,"ell":438,"Ġan":439,"iss":440,"Ġare":441,"out":442,"OU":443,"ch":444,"Ġpleas":445,"eri":446,"...":447,"ton":448,"ss":449,"ĠNo":450,"erv":451,"Ġbo":452,"Ġst":453,"ad":454,"ee":455,"ust":456,"47":457,"vai":458,"ight":459,"ĠU":460,"ey":461,"ĠK":462,"ind":463,"bs":464,"Ġtime":465,"ore":466,"isc":467,"ation":468,"lay":469,"RE":470,"vaila":471,"pp":472,"mark":473,"LE":474,"Ġat":475,"ld":476,"--":477,"__":478,"de":479,"entle":480,"ON":481,"Ġu":482,"vailable":483,"aut":484,"Ġall":485,"Ġr":486,"we":487,"LY":488,"AN":489,"ace":490,"Ġgirl":491,"AT":492,"ess":493,"entlem":494,"ĠV":495,"ens":496,"ish":497,"IC":498,"ual":499,"reet":500,"ĠCall":501,"te":502,"Ġcan":503,"riend":504,"age":505,"Ġonly":506,"Ġ,":507,"Ġne":508,"ake":509,"pec":510,"Ġfun":511,"Ġso":512,"ity":513,"ian":514,"Ġ$":515,"ue":516,"Ġvery":517,"ĠMy":518,"pan":519,"Ġserv":520,"Ġk":521,"way":522,"ĠJ":523,"Ġlove":524,"ĠIN":525,"rom":526,"ood":527,"Ġthat":528,"20":529,"ooking":530,"red":531,"Ġsexy":532,"own":533,"vi":534,"ĠIn":535,"reat":536,"ĠON":537,"CALL":538,"Ġcom":539,"....":540,"Ġli":541,"'s":542,"and":543,"Ġdo":544,"ED":545,"ort":546,"ĠRe":547,"lo":548,"ĠSt":549,"weet":550,"ig":551,"ra":552,"one":553,"ast":554,"Ġ*":555,"ict":556,"heart":557,"act":558,"Ġbody":559,"Ġexp":560,"pend":561,"ĠRE":562,"ite":563,"80":564,"oy":565,"ame":566,"LA":567,"Ġout":568,"Ġplease":569,"Ġhe":570,"erien":571,"lean":572,"ondon":573,"Ġtext":574,"Ġen":575,"Ġj":576,"urv":577,"Ġal":578,"Ġle":579,"ple":580,"iscreet":581,"ING":582,"EX":583,"Ġno":584,"pen":585,"87":586,"ady":587,"qu":588,"entlemen":589,"ĠONLY":590,"Ġas":591,"ĠYou":592,"lack":593,"Ġ647":594,"autif":595,"able":596,"autiful":597,"riendly":598,"Ġpro":599,"Ġplay":600,"LL":601,"ĠLondon":602,"ol":603,"assage":604,"ont":605,"OR":606,"outh":607,"um":608,"fe":609,"Ġsh":610,"50":611,"Ġ.":612,"40":613,"os":614,"IT":615,"IS":616,"erience":617,"Ġ7":618,"60":619,"ĠCALL":620,"Ġ/":621,"ft":622,"30":623,"igh":624,"Ġhour":625,"Ġgu":626,"ways":627,"ys":628,"UT":629,"ew":630,"AR":631,"Ġfrom":632,"Ġreal":633,"Ġun":634,"ENT":635,"ful":636,"Ġavailable":637,"ak":638,"kiss":639,"'t":640,"ong":641,"ĠYOU":642,"89":643,"yes":644,"AS":645,"fer":646,"ack":647,"Ġnot":648,"ty":649,"07":650,"Ġsk":651,"Ġservice":652,"erson":653,"Ġit":654,"ret":655,"Ġlike":656,"for":657,"calls":658,"Ġmore":659,"ents":660,"ĠText":661,"ull":662,"!!!":663,"Ġsex":664,"ear":665,"ale":666,"joy":667,"ick":668,"ial":669,"get":670,"pendent":671,"hed":672,"Ġmake":673,"Ġname":674,"ET":675,"ie":676,"ab":677,"ĠAN":678,"16":679,"ally":680,"ip":681,"heck":682,"CK":683,"atis":684,"ect":685,"sh":686,"ph":687,"ire":688,"ag":689,"Ġi":690,"ist":691,"atisf":692,"ĠTO":693,"afe":694,"Ġwhat":695,"Ġsee":696,"Ġlooking":697,"ree":698,"Ġcurv":699,"DD":700,"Ġwant":701,"inded":702,"Ġch":703,"Ġeyes":704,"Ġcome":705,"Ġwho":706,"Hey":707,"Ġ34":708,"Ġexperience":709,"esc":710,"lbs":711,"ound":712,"ving":713,"ĠIm":714,"atur":715,"Ġsome":716,"ĠPark":717,"ensual":718,"oin":719,"Ġbeautiful":720,"au":721,"Hi":722,"ost":723,"check":724,"Ġsm":725,"ment":726,"pe":727,"Ġenjoy":728,"ile":729,"Ġfe":730,"up":731,"EXT":732,"com":733,"Ġ36":734,"pecial":735,"ĠOut":736,"otic":737,"ics":738,"26":739,"riv":740,"ct":741,"ĠME":742,"ine":743,"ry":744,"ices":745,"Ġsweet":746,"ello":747,"ĠEx":748,"ushed":749,"ress":750,"ĠOUT":751,"US":752,"10":753,"Ġwe":754,"iting":755,"Ġhair":756,"ail":757,"lease":758,"lass":759,"Ġup":760,"Ġfriendly":761,"Ġhot":762,"Ġold":763,"ush":764,"ĠREAL":765,"OT":766,"OM":767,"ies":768,"Ġperson":769,"____":770,"dd":771,"lax":772,"atural":773,"Ġbl":774,"lock":775,"are":776,"Ġ24":777,"reen":778,"ures":779,"with":780,"Ġcalls":781,"Ġ9":782,"34":783,"etish":784,"UR":785,"Ġcompan":786,"Ġ**":787,"Ġget":788,"ĠTh":789,"ĠReal":790,"ĠOn":791,"Ġatt":792,"Ġv":793,"oll":794,"ĠBe":795,"ng":796,"ub":797,"Ġ40":798,"oot":799,"az":800,"ĠSexy":801,"face":802,"ĠAs":803,"arant":804,"VE":805,"Ġopen":806,"Ġnow":807,"Ġ07":808,"ĠInd":809,"IR":810,"ia":811,"arty":812,"Ġwa":813,"Hello":814,"Ġgentlemen":815,"Ġ!":816,"oint":817,"ession":818,"13":819,"Ġjust":820,"ĠSouth":821,"right":822,"orth":823,"xx":824,"----":825,"Ġbr":826,"Ġmassage":827,"Ġdiscreet":828,"se":829,"15":830,"100":831,"ĠTEXT":832,"ĠCh":833,"Ġar":834,"ĠRo":835,"$$":836,"Ġgood":837,"ĠTH":838,"Ġmeet":839,"Ġday":840,"orn":841,"CALLS":842,"Ġmin":843,"pect":844,"ates":845,"ĠIf":846,"ĠAvailable":847,"ated":848,"Ġblack":849,"ky":850,"ven":851,"Ġface":852,"ĠWe":853,"ap":854,"Ġoffer":855,"IM":856,"Ġper":857,"36":858,"fect":859,"Ġbut":860,"25":861,"Ġdes":862,"Ġneed":863,"38":864,"Ġclean":865,"END":866,"Ġhere":867,"ĠAND":868,"Ġrelax":869,"ality":870,"Ġalways":871,"hr":872,"ave":873,"ings":874,"ĠWest":875,"Ġsatisf":876,"rivate":877,"ictures":878,"ult":879,"so":880,"Ġskin":881,"min":882,"Ġapp":883,"ĠPlease":884,"Ġprovi":885,"Ġman":886,"AY":887,"Ġready":888,"Ġyear":889,"locked":890,"Ġsensual":891,"ĠAl":892,"OO":893,"ĠCome":894,"ĠHe":895,"FE":896,"24":897,"ature":898,"ependent":899,"RI":900,"ren":901,"ham":902,"Ġany":903,"Ġim":904,"her":905,"Ġph":906,"ard":907,"ION":908,"ĠLo":909,"Ġkn":910,"azing":911,"Ġ587":912,"arm":913,"Ġesc":914,"Ġ30":915,"ĠBB":916,"Ġlong":917,"37":918,"ese":919,"Ġwom":920,"BLE":921,"Ġgo":922,"??":923,"Ġbest":924,"edu":925,"erious":926,"usty":927,"ery":928,"ĠClean":929,"'ll":930,"Ġtr":931,"DE":932,"PE":933,"ina":934,"ter":935,"Ġgreat":936,"05":937,"ĠWh":938,"ĠSER":939,"asy":940,"ĠSo":941,"19":942,"Ġthis":943,"14":944,"ĠAll":945,"Ġgive":946,"ĠEast":947,"Ġevery":948,"Ġif":949,"OW":950,"IG":951,"xo":952,"ĠMe":953,"Ġone":954,"iz":955,"pt":956,"Ġfull":957,"ber":958,"ĠLet":959,"auty":960,"Ġguys":961,"day":962,"Ġservices":963,"ĠAn":964,"Ġfeel":965,"AI":966,"35":967,"low":968,"retty":969,"Ġpics":970,"onde":971,"ington":972,"ĠGu":973,"ĠThe":974,"17":975,"scale":976,"ĠAm":977,"Ġshow":978,"Ġnew":979,"ĠGentlemen":980,"ud":981,"Ġback":982,"ĠIndependent":983,"entleman":984,"ould":985,"ĠOnly":986,"ĠGirl":987,"mail":988,"99":989,"ix":990,"Ġmen":991,"ram":992,"ĠDiscreet":993,"ĠTo":994,"ĠIncall":995,"ĠCan":996,"ĠHill":997,"Ġpleasure":998,"ĠSE":999,"eed":1000,"****":1001,"Ġknow":1002,"AM":1003,"aught":1004,"ious":1005,"row":1006,"Ġfree":1007,"Ġfant":1008,"Ġminded":1009,"Ġwor":1010,"ĠPIC":1011,"Ġres":1012,"ĠSweet":1013,"Ġright":1014,"Ġdon":1015,"ĠYour":1016,"bout":1017,"ĠServ":1018,"Ġ8":1019,"EST":1020,"69":1021,"ford":1022,"Ġdesire":1023,"but":1024,"itt":1025,"Ġpla":1026,"EL":1027,"Ġspecial":1028,"ĠEX":1029,"ther":1030,"ody":1031,"Ġint":1032,"ĠNorth":1033,"Ġbab":1034,"Ġnatural":1035,"ute":1036,"ract":1037,"ww":1038,"ĠBL":1039,"ĠBlack":1040,"647":1041,"aughty":1042,"ĠGreen":1043,"assion":1044,"EW":1045,"Ġyears":1046,"ps":1047,"ĠFor":1048,"ĠQ":1049,"Ġpersonality":1050,"VER":1051,"27":1052,"Ġde":1053,"Ġwoman":1054,"Ġsoft":1055,"TY":1056,"ĠALL":1057,"49":1058,"ĠAnd":1059,"ĠPlay":1060,"ĠFOR":1061,"Ġbig":1062,"ited":1063,"Ġpictures":1064,"Ġdisc":1065,"id":1066,"elf":1067,"king":1068,"ĠSh":1069,"ĠMassage":1070,"ury":1071,"ĠAsian":1072,"ĠOpen":1073,"ater":1074,"CE":1075,"LEAS":1076,"Ġclass":1077,"PEC":1078,"Ġwell":1079,"cation":1080,"ib":1081,"18":1082,"Ġsp":1083,"==":1084,"Ġ60":1085,"button":1086,"ions":1087,"ĠMY":1088,"Ġ289":1089,"me":1090,"Ġalso":1091,"ild":1092,"Ġro":1093,"OCK":1094,"Ġguarant":1095,"sm":1096,"ĠRoad":1097,"wn":1098,"ĠCALLS":1099,"Ġperfect":1100,"ream":1101,"Ġtake":1102,"orge":1103,"Ġ%":1104,"Ġprovide":1105,"Ġnice":1106,"77":1107,"ĠSW":1108,"ills":1109,"Ġcurves":1110,"Ġabout":1111,"Ġby":1112,"Ġus":1113,"ross":1114,"anc":1115,"Ġover":1116,"ĠBr":1117,"etite":1118,"action":1119,"Ġour":1120,"arrow":1121,"!!!!":1122,"ĠHot":1123,"Ġext":1124,"bon":1125,"ĠBE":1126,"ral":1127,"Ġattract":1128,"ĠOR":1129,"VAI":1130,"Ġhours":1131,"ĠVery":1132,"ĠNOW":1133,"orgeous":1134,"IGH":1135,"45":1136,"uck":1137,"ĠUp":1138,"fession":1139,"ley":1140,"ĠFun":1141,"Ġboot":1142,"29":1143,"ĠAlways":1144,"rushed":1145,"ain":1146,"ich":1147,"hh":1148,"23":1149,"Ġyoung":1150,"Ġcompanion":1151,"Ġinde":1152,"NO":1153,"Ġ120":1154,"ĠFriendly":1155,"UN":1156,"VIC":1157,"rama":1158,"Ġcurvy":1159,"self":1160,"eth":1161,"Ġbooty":1162,"app":1163,"Ġ~":1164,"Ġescort":1165,"ĠPLEAS":1166,"Ġblocked":1167,"Ġlet":1168,"No":1169,"cl":1170,"ĠSafe":1171,"Ġ416":1172,"ner":1173,"Ġsafe":1174,"ually":1175,"fessional":1176,"ĠBBW":1177,"ide":1178,"OS":1179,"rs":1180,"VAILA":1181,"ves":1182,"educt":1183,"ĠUn":1184,"come":1185,"IAL":1186,"ĠSERVIC":1187,"USH":1188,"Ġlook":1189,"ship":1190,"Ġprivate":1191,"ob":1192,"ise":1193,"11":1194,"GE":1195,"Ġleave":1196,"Ġindependent":1197,"les":1198,"els":1199,"its":1200,"tt":1201,"Ġtreat":1202,"Ġwaiting":1203,"Ġlbs":1204,"wo":1205,"Ġpre":1206,"Ġbeauty":1207,"ating":1208,"ance":1209,"phone":1210,"arge":1211,"OUS":1212,"Ġad":1213,"ize":1214,"My":1215,"Ġnight":1216,"Ġ10":1217,"sp":1218,"iling":1219,"ary":1220,"ATE":1221,"ug":1222,"ĠWith":1223,"ĠBody":1224,"ontact":1225,"Ġ;":1226,"rest":1227,"VAILABLE":1228,"ĠHigh":1229,"ouch":1230,"ning":1231,"ĠStreet":1232,"33":1233,"ife":1234,"assionate":1235,"Ġhigh":1236,"pectful":1237,"Ġsexual":1238,"UL":1239,"PECIAL":1240,"Ġbrown":1241,"bury":1242,"forget":1243,"icy":1244,"ĠFetish":1245,"85":1246,"Ġnum":1247,"ĠNOT":1248,"gether":1249,"ock":1250,"ĠST":1251,"ILL":1252,"av":1253,"ĠBLOCK":1254,"dro":1255,"LAY":1256,"IGHT":1257,"oun":1258,"alk":1259,"Ġamazing":1260,"ĠOutcall":1261,"Ġ...":1262,"Ġattractive":1263,"table":1264,"IRL":1265,"PEND":1266,"Ġrush":1267,"cated":1268,"drople":1269,"12":1270,"Ġass":1271,"ANT":1272,"Ġcompany":1273,"DY":1274,"Ġ..":1275,"ĠNew":1276,"ĠTHE":1277,"uss":1278,"Ġ130":1279,"Ġ@":1280,"bony":1281,"view":1282,"ĠSEX":1283,"Ġsmile":1284,"ries":1285,"ank":1286,"ĠPro":1287,"Ġ80":1288,"forgettable":1289,"ene":1290,"don":1291,"apan":1292,"ĠHam":1293,"Ġmature":1294,"Ġbusty":1295,"66":1296,"eductive":1297,"Ġblonde":1298,"ĠExp":1299,"Ġnaughty":1300,">>":1301,"OUT":1302,"uper":1303,"Ġtogether":1304,"Ġlady":1305,"ĠGIRL":1306,"Ġkiss":1307,"ĠAVAILABLE":1308,"arts":1309,"dge":1310,"ott":1311,"Ġpretty":1312,"ann":1313,"urn":1314,"uicy":1315,"op":1316,"DEPEND":1317,"ĠGENT":1318,"ĠAS":1319,"od":1320,"ĠService":1321,"hib":1322,"swe":1323,"qui":1324,"22":1325,"70":1326,"ase":1327,"Ġbre":1328,"ERS":1329,"Ġte":1330,"39":1331,"otos":1332,"ands":1333,"Ġgentleman":1334,"IL":1335,"ane":1336,"Ġbook":1337,"Ġfre":1338,"Ġ38":1339,"li":1340,"air":1341,"elcome":1342,"ĠIt":1343,"Ġ+":1344,"ĠAM":1345,"rench":1346,"den":1347,"Ġdown":1348,"Ġwould":1349,"smiling":1350,"xt":1351,"88":1352,"ĠBeautiful":1353,"lim":1354,"ude":1355,"ĠSPECIAL":1356,"Ġhapp":1357,"Ġcon":1358,"ĠLO":1359,"thing":1360,"oc":1361,"be":1362,"ĠOUTCALLS":1363,"Ġvis":1364,"Ġgirls":1365,"ĠOF":1366,"ĠBl":1367,"ulti":1368,"star":1369,"ittle":1370,"eal":1371,"ooth":1372,"CT":1373,"Ġ:)":1374,"ling":1375,"Ġmost":1376,"ĠCurv":1377,"hearts":1378,"ĠPLAY":1379,"night":1380,"ied":1381,"ĠBLOCKED":1382,"DEPENDENT":1383,"Ġthen":1384,"SA":1385,"ĠINCALL":1386,"ĠSerious":1387,"LACK":1388,"Ġsexually":1389,"bl":1390,"ĠHour":1391,"Ġ#":1392,"ĠOUTCALL":1393,"79":1394,"friend":1395,"Ġnever":1396,"Ġparty":1397,"ĠPLEASE":1398,"ach":1399,"Ġlips":1400,"Ġdream":1401,"uch":1402,"Ġskills":1403,"Ġ!!":1404,"ĠBLACK":1405,"Ġ22":1406,"Ġthere":1407,"Ġ20":1408,"ĠKens":1409,"ĠDIS":1410,"entral":1411,"Ġlife":1412,"sweat":1413,"droplets":1414,"ĠSpecial":1415,"terest":1416,"gi":1417,"ĠYOUR":1418,"ls":1419,"ĠSk":1420,"ridge":1421,"CRE":1422,"Ġtown":1423,"Ġ35":1424,"lic":1425,"ep":1426,"IME":1427,"ars":1428,"Ġ21":1429,"ĠPICS":1430,"Ġhow":1431,"Ġer":1432,"OME":1433,"here":1434,"ible":1435,"pm":1436,"ĠBO":1437,"Ġ200":1438,"Ġq":1439,"pro":1440,"per":1441,"Ġ50":1442,"28":1443,"ĠVER":1444,"rict":1445,"Ġ226":1446,"120":1447,"mation":1448,"oth":1449,"________":1450,"ĠDO":1451,"ĠSA":1452,"Ġgents":1453,"ĠMEN":1454,"Ġfetish":1455,"Ġrates":1456,"Ġ;)":1457,"onto":1458,"ĠGreat":1459,"Ġgen":1460,"time":1461,"Ġ0":1462,"ower":1463,"55":1464,"ouple":1465,"ĠSEXY":1466,"AK":1467,"ĠParty":1468,"ĠUN":1469,"ces":1470,"ette":1471,"Ġton":1472,"ĠHA":1473,"aking":1474,"Ġerotic":1475,"ĠWE":1476,"ert":1477,"spark":1478,"Ġoutcall":1479,"ESS":1480,"iam":1481,"Ġlittle":1482,"Ġwild":1483,"Ġxo":1484,"Ġmind":1485,"Ġse":1486,"Ġac":1487,"Ġspend":1488,"ĠINDEPENDENT":1489,"ĠRUSH":1490,"//":1491,"Ġrushed":1492,"Ġplace":1493,"Ġhappy":1494,"Ġinterest":1495,"Ġunforgettable":1496,"ĠWood":1497,"75":1498,"ink":1499,"alf":1500,"ointment":1501,"oronto":1502,"rete":1503,"aw":1504,"ican":1505,"Ġke":1506,"Ġtouch":1507,"48":1508,"atch":1509,"Ġprofessional":1510,"ĠX":1511,"ĠVERY":1512,"587":1513,"ĠEn":1514,"ĠOutcalls":1515,"ĠUpscale":1516,"Ġask":1517,"hibited":1518,"apanese":1519,"Ġsession":1520,"rave":1521,"--------":1522,"ang":1523,"irst":1524,"LEAN":1525,"Ġsure":1526,"ays":1527,"lowing":1528,"ometh":1529,"Ġtoo":1530,"'ve":1531,"~~":1532,"Ġcar":1533,"OUR":1534,"TH":1535,"ĠPics":1536,"omething":1537,"Ġmom":1538,"ĠNatural":1539,"Ġpassionate":1540,"Ġpetite":1541,"ĠSatisf":1542,"Ġeven":1543,"ĠCalls":1544,"ĠWill":1545,"ĠDon":1546,"Ġbaby":1547,"'re":1548,"ĠCentral":1549,"asies":1550,"ĠCom":1551,"PER":1552,"Ġsatisfy":1553,"eyes":1554,"Ġtrue":1555,"ough":1556,"ĠLat":1557,"unette":1558,"90":1559,"ilky":1560,"uality":1561,"ĠBar":1562,"IOUS":1563,"ĠSAFE":1564,"prohibited":1565,"Ġwww":1566,"ope":1567,"ĠNEW":1568,"lephone":1569,"ĠPR":1570,"ĠARE":1571,"orny":1572,"Ġgorgeous":1573,"Call":1574,"Ġtoday":1575,"use":1576,"Ġ)":1577,"Ġbb":1578,"ney":1579,"ĠTime":1580,"ĠGuarant":1581,"oney":1582,"ouse":1583,"enham":1584,"ĠIS":1585,"iamond":1586,"ĠSERVICE":1587,"omin":1588,"BS":1589,"ments":1590,"Ġhaving":1591,"ĠBEST":1592,"cent":1593,"ages":1594,"telephone":1595,"........":1596,"ITH":1597,"two":1598,"inner":1599,"ĠLooking":1600,"Ġstress":1601,"aste":1602,"UM":1603,"imate":1604,"ced":1605,"eek":1606,"32":1607,"eep":1608,"Ġplayful":1609,"Ġ15":1610,"Ġ32":1611,"Ġlocation":1612,"ĠMan":1613,"play":1614,"ames":1615,"Ġmuch":1616,"ĠKensington":1617,"ĠLove":1618,"78":1619,"IP":1620,"reme":1621,"Ġclassy":1622,"go":1623,"iness":1624,"raz":1625,"ĠShe":1626,"Ġwhen":1627,"Ġnumber":1628,"ĠSm":1629,"port":1630,"ygi":1631,"200":1632,"65":1633,"Ġpr":1634,"ORE":1635,"Ġexc":1636,"Ġ23":1637,"ĠBest":1638,"Ġtight":1639,"ĠDISCRE":1640,"cla":1641,"ĠWH":1642,"ĠCar":1643,"no":1644,"quiries":1645,"QU":1646,"OOK":1647,"ĠAL":1648,"ĠUS":1649,"irc":1650,"ange":1651,"ĠCLEAN":1652,"$$$$":1653,"Ġupscale":1654,"CH":1655,"igure":1656,"ĠTIME":1657,"Ġdis":1658,"ĠNow":1659,"panish":1660,"hour":1661,"Ġmiss":1662,"Ġrest":1663,"well":1664,"Ġ613":1665,"Ġmix":1666,"quare":1667,"ĠWITH":1668,"Ġher":1669,"Ġreg":1670,"ĠHOT":1671,"RIEND":1672,"Ġfantasies":1673,"ounds":1674,"ever":1675,"rictions":1676,"IVE":1677,"att":1678,"asts":1679,"ĠINCALLS":1680,"uit":1681,"URE":1682,"PEN":1683,"Ġsatisfaction":1684,"irty":1685,"blue":1686,"minded":1687,"excla":1688,"exclamation":1689,"uous":1690,"ĠFUN":1691,"67":1692,"FUL":1693,"ooty":1694,"ĠExperience":1695,"IND":1696,"uine":1697,"Ġ150":1698,"Ġ403":1699,"Ġexotic":1700,"Ġseductive":1701,"hand":1702,"Ġguaranteed":1703,"Ġbooking":1704,"ĠGuys":1705,"Ġphotos":1706,"ĠPh":1707,"ĠNE":1708,"Ġcharm":1709,"TA":1710,"Ġyourself":1711,"cept":1712,"iving":1713,"IAN":1714,"gue":1715,"ĠGU":1716,"ĠIncalls":1717,"Ġlu":1718,"Ġblue":1719,"44":1720,"Ġincall":1721,"Ġsize":1722,"ĠOver":1723,"ĠRush":1724,"Ġsens":1725,"Sexy":1726,"Ġcontact":1727,"utes":1728,"ITE":1729,"Ġaway":1730,"Ġoutcalls":1731,"ĠEscort":1732,"Ġwelcome":1733,"ISH":1734,"ical":1735,"AYS":1736,"ights":1737,"Text":1738,"REE":1739,"ĠPAR":1740,"Ġwork":1741,"tongue":1742,"Ġwon":1743,"Ġsmooth":1744,"ĠFull":1745,"Ġpl":1746,"ĠDu":1747,"Ġguarantee":1748,"Ġear":1749,"Ġvi":1750,"ĠFin":1751,"remely":1752,"old":1753,"ĠPrivate":1754,"Ġneeds":1755,"nder":1756,"ĠWILL":1757,"itude":1758,"stone":1759,"Ġsomething":1760,"ĠWhat":1761,"ĠAc":1762,"Ġeasy":1763,"ca":1764,"LEM":1765,"ĠSoft":1766,"ĠFace":1767,"ward":1768,"Ġway":1769,"Out":1770,"***":1771,"Ġpark":1772,"Ġ110":1773,"Ġag":1774,"Ġprom":1775,"Ġoff":1776,"ead":1777,"diamond":1778,"ulf":1779,"ĠSensual":1780,"Ġ***":1781,"ĠDo":1782,"ĠDoll":1783,"gate":1784,"ĠCH":1785,"Ġadd":1786,"ygiene":1787,"Ġgreen":1788,"fter":1789,"ĠAmazing":1790,"Ġappointment":1791,"ĠClass":1792,"Ġsoon":1793,"wood":1794,"ouples":1795,"289":1796,"Ġage":1797,"ĠReady":1798,"going":1799,"In":1800,"ne":1801,"Ġtrave":1802,"ĠDU":1803,"Ġkeep":1804,"Ġmass":1805,"less":1806,"ĠBA":1807,"ĠBusty":1808,"ĠJust":1809,"Ġgirlfriend":1810,"ourt":1811,"ĠAre":1812,"town":1813,"ĠCross":1814,"Ġreview":1815,"Ġur":1816,"ĠSp":1817,"ĠDD":1818,"Ġprovid":1819,"Ġvisit":1820,"ĠBlocked":1821,"IES":1822,"fort":1823,"ATION":1824,"ĠCurvy":1825,"large":1826,"ips":1827,"ĠBooty":1828,"Ġrel":1829,"Ġfantasy":1830,"Ġrespectful":1831,"Ġloves":1832,"Ġbabe":1833,"Ġhotel":1834,"ĠOf":1835,"bridge":1836,"xxxx":1837,"iv":1838,"Ġdrama":1839,"AP":1840,"Ġgoing":1841,"ĠGENTLEM":1842,"Ġinterested":1843,"Ġ25":1844,"stead":1845,"ash":1846,"Ġhost":1847,"Ġmouth":1848,"Ġserious":1849,"vers":1850,"back":1851,"21":1852,"UST":1853,"ĠGood":1854,"ĠSH":1855,"male":1856,"Ġhorny":1857,"ĠPerson":1858,"ĠLOVE":1859,"68":1860,"Ġ[":1861,"Ġbeen":1862,"Ġhh":1863,"Ġbus":1864,"Ġpo":1865,"ans":1866,"unning":1867,"uring":1868,"Ġweek":1869,"Ġboth":1870,"Ġother":1871,"ĠToronto":1872,"ĠFrench":1873,"ĠLocation":1874,"Ġfind":1875,"vent":1876,"ĠBig":1877,"ose":1878,"95":1879,"Ġ140":1880,"gs":1881,",,":1882,"ussy":1883,"ĠTown":1884,"Ġdel":1885,"Ġ?":1886,"appoint":1887,"retion":1888,"Ġqu":1889,"cell":1890,"Ġbet":1891,"Ġplaces":1892,"ign":1893,"Ġtry":1894,"ds":1895,"Ġprefer":1896,"Ġ705":1897,"Ġrelaxing":1898,"ĠIs":1899,"Ġround":1900,"ations":1901,"ĠDISCREET":1902,"ĠFRIEND":1903,"ĠOPEN":1904,"ĠSO":1905,"ĠDrama":1906,"ply":1907,"ĠGents":1908,"ĠRes":1909,"rent":1910,"Ġfigure":1911,"Ġemail":1912,"Ġcomple":1913,"Ġfulf":1914,"Ġjuicy":1915,"ath":1916,"TUR":1917,"Ġ!!!":1918,"cellent":1919,"cy":1920,"upt":1921,"Ġthan":1922,"bly":1923,"ĠRates":1924,"IEN":1925,"IE":1926,").":1927,"ĠOr":1928,"oobs":1929,"Ġincl":1930,"urther":1931,"ĠExotic":1932,"ik":1933,"oys":1934,"Ġquality":1935,"gmail":1936,"Ġrecent":1937,"licit":1938,"ĠLong":1939,"ĠGFE":1940,"Ġart":1941,"ĠCla":1942,"ICT":1943,"ĠHi":1944,"ĠSatisfaction":1945,"ons":1946,"odel":1947,"ny":1948,"RIV":1949,"erie":1950,"Ġbreasts":1951,"ocol":1952,"blowing":1953,"ĠSpanish":1954,"Ġent":1955,"VI":1956,"Ġmins":1957,"ĠGentleman":1958,"Ġforget":1959,"ĠHair":1960,"Ġsilky":1961,"ĠPretty":1962,"://":1963,"ĠPictures":1964,"ecret":1965,"Ġkind":1966,"ĠSex":1967,"Ġpromise":1968,"Ġsw":1969,"Ġfl":1970,"olupt":1971,"du":1972,"erve":1973,"ĠFRIENDLY":1974,"ocolate":1975,"ĠHave":1976,"Ġcute":1977,"St":1978,"Ġexperien":1979,"Ġslim":1980,"Ġshe":1981,"Ġphone":1982,"fore":1983,"YS":1984,"cess":1985,"Ġextra":1986,"Ġsub":1987,"bsol":1988,"ĠLane":1989,"TURES":1990,"ĠHAVE":1991,"orry":1992,"ĠQue":1993,"ĠFR":1994,"Ġwarm":1995,"Ġhr":1996,"AST":1997,"yle":1998,"pton":1999,"Ġfresh":2000,"ĠPH":2001,"ĠMature":2002,"ĠLatina":2003,"ĠAr":2004,"illed":2005,"46":2006,"ĠSERIOUS":2007,"obile":2008,"Ġunrushed":2009,"ĠBlonde":2010,"aven":2011,"VERY":2012,"DAY":2013,"anna":2014,"ĠHOUR":2015,"und":2016,"Ġrelaxed":2017,"ĠEbony":2018,"mins":2019,"Ġwait":2020,"lish":2021,"suit":2022,"Ġcater":2023,"Ġfin":2024,"hell":2025,"Ġpleasing":2026,"Ġdesires":2027,"bsolute":2028,"Im":2029,"Ġ45":2030,"Ġdays":2031,"Ġtonight":2032,"ĠSP":2033,"mate":2034,"Ġgenuine":2035,"ĠWell":2036,"ĠPICTURES":2037,"Ġfriend":2038,"PS":2039,"ONT":2040,"ĠLe":2041,"ĠCanad":2042,"cross":2043,"Ġdiscrete":2044,"Ġever":2045,"ircle":2046,"ĠMulti":2047,"ition":2048,"Ġarea":2049,"gr":2050,"ouble":2051,"ails":2052,"ingerie":2053,"Ġforward":2054,"Ġfurther":2055,"ddess":2056,"ITY":2057,"circle":2058,"istic":2059,"ĠLi":2060,"_-":2061,"oluptuous":2062,"ĠBeauty":2063,"ants":2064,"WAYS":2065,"mm":2066,"Ġunder":2067,"Ġextremely":2068,"Ġhalf":2069,"Ġdet":2070,"ATUR":2071,"Ġkissing":2072,"Ġsuper":2073,"Ġwithout":2074,"sparkles":2075,"point":2076,"ĠClassy":2077,"part":2078,"Ġbub":2079,"Ġcomfort":2080,"Ġ....":2081,".....":2082,"ĠKiss":2083,"Ġtall":2084,"Ġsatisfied":2085,"ĠHarrow":2086,"ictor":2087,"rose":2088,"Ġafter":2089,"ĠPer":2090,"Ġ125":2091,"ATES":2092,"EET":2093,"ĠGuaranteed":2094,"Ġtravel":2095,"Ġcoming":2096,"ci":2097,"ĠSK":2098,"razil":2099,"Ġinto":2100,"orean":2101,"Ġebony":2102,"Ġdisappoint":2103,"OWN":2104,"Ġattitude":2105,"OL":2106,"room":2107,"Ġdreams":2108,"Ġlegs":2109,"ĠNice":2110,"Ġroom":2111,"Ġinquiries":2112,"ĠMen":2113,"tone":2114,"ERE":2115,"Ġcharming":2116,"imul":2117,"Ġ160":2118,"ĠServices":2119,"Ġbusiness":2120,"ĠFree":2121,"Ġcompanionship":2122,"ction":2123,"ĠFREE":2124,"Ġdiscretion":2125,"ĠTR":2126,"inky":2127,"wich":2128,"Ġsomeone":2129,"AUT":2130,"AD":2131,"ictoria":2132,"EE":2133,"Ġdoor":2134,"ĠEvery":2135,"Ġshower":2136,"Ġbrunette":2137,"ĠFre":2138,"bian":2139,"********":2140,"fo":2141,"Ġmany":2142,"atford":2143,"ĠNW":2144,"Ġearth":2145,"ĠFinch":2146,"Ġreally":2147,"ĠYes":2148,"Ġthick":2149,"Ġtalk":2150,"aling":2151,"alian":2152,"Ġcare":2153,"udent":2154,"Ġpe":2155,"rain":2156,"Ġstimul":2157,"Ġposs":2158,"Ġfew":2159,"Ġrequ":2160,"mond":2161,"Ġco":2162,"pr":2163,"gy":2164,"Ġthings":2165,"UG":2166,"Ġescorts":2167,"IA":2168,"ĠALWAYS":2169,"Come":2170,"ĠActon":2171,"Ġhel":2172,"Ġeverything":2173,"ellig":2174,"ĠGENTLEMEN":2175,"index":2176,"ĠBODY":2177,"Ġwaist":2178,"let":2179,"ĠAsk":2180,"Ġpounds":2181,"Ġminutes":2182,"Ġsend":2183,"Ġboys":2184,"ATURAL":2185,"Ġ420":2186,"aring":2187,"Ġaround":2188,"ĠAny":2189,"PP":2190,"ĠFA":2191,"Ġapart":2192,"OND":2193,"que":2194,"Ġfirst":2195,"Ġbefore":2196,"got":2197,"Ġshort":2198,"Ġhtt":2199,"ĠOur":2200,"REAT":2201,"Ġtal":2202,"pointing":2203,"Ġpri":2204,"fits":2205,"ĠNever":2206,"cas":2207,"pper":2208,"Ġhelp":2209,"alth":2210,"ĠCAN":2211,"wick":2212,"omination":2213,"====":2214,"Ġarous":2215,"ĠEyes":2216,"98":2217,"uis":2218,"ara":2219,"Ġmoment":2220,"QUIR":2221,"Ġmeeting":2222,"ĠRec":2223,"erous":2224,"ĠFinchley":2225,"Ġhands":2226,"57":2227,"Ġ--":2228,"RIVATE":2229,"mor":2230,"Ġboobs":2231,"),":2232,"Ġmust":2233,"Ġhas":2234,"backhand":2235,"INDED":2236,"ople":2237,"64":2238,"Ġ300":2239,"Ġits":2240,"Ġnext":2241,"Ġ437":2242,"HR":2243,"ĠJapanese":2244,"Ġfit":2245,"goti":2246,"athr":2247,"Ġrestrictions":2248,"Ġnon":2249,"Ġind":2250,"Ġxoxo":2251,"ETISH":2252,"Ġ438":2253,"irm":2254,"ĠDisc":2255,"Ġfulfill":2256,"text":2257,"ĠSWEET":2258,"FOR":2259,"ĠSERVICES":2260,"athrow":2261,"ĠSuper":2262,"PT":2263,"full":2264,"wer":2265,"mon":2266,"ictive":2267,"Ġdu":2268,"ĠNATURAL":2269,"Ġdress":2270,"ĠBab":2271,"ĠUSD":2272,"na":2273,"ĠExt":2274,"ĠEN":2275,"ĠSkin":2276,"ĠDollars":2277,"ence":2278,"Ġ514":2279,"Ġche":2280,"Ġexciting":2281,"ĠFU":2282,"Ġareas":2283,"ollow":2284,"phistic":2285,"Ġty":2286,"Ġbeing":2287,"????":2288,"Ġmar":2289,"pham":2290,"ĠEar":2291,"scious":2292,"Ġlive":2293,"ST":2294,"Ġcur":2295,"pping":2296,"CENT":2297,"ASSA":2298,"mouth":2299,"Ġapartment":2300,"ff":2301,"Ġhome":2302,"Ġpart":2303,"ting":2304,"ĠClapham":2305,"Ġcli":2306,"ĠVictoria":2307,"Ġet":2308,"ĠTr":2309,"res":2310,"ĠGorgeous":2311,"imes":2312,"elligent":2313,"nights":2314,"Ġinclud":2315,"ĠTreat":2316,"ISS":2317,"ĠYoung":2318,"ĠPARTY":2319,"31":2320,"ston":2321,"ackage":2322,"ape":2323,"ĠAdd":2324,"Ġult":2325,"Ġshy":2326,"ADY":2327,"UE":2328,"leg":2329,"ĠDe":2330,"Ġdetails":2331,"aid":2332,"my":2333,"ention":2334,"ool":2335,"Ġevening":2336,"AZ":2337,"ICE":2338,"vid":2339,"TEXT":2340,"bsite":2341,"ĠPetite":2342,"ented":2343,"180":2344,"where":2345,"inese":2346,"ĠBrown":2347,"If":2348,"pstead":2349,"Ġbetter":2350,"ica":2351,"Ġgot":2352,"educated":2353,"Ġ|":2354,"Ġdont":2355,"iel":2356,"Ġpam":2357,"ĠShower":2358,"ĠCUR":2359,"ĠFe":2360,"Ġcomfortable":2361,"ĠOak":2362,"##":2363,"ired":2364,"Ġdark":2365,"Ġpussy":2366,"ster":2367,"ĠCourt":2368,"edi":2369,"You":2370,"Ġlots":2371,"ĠBEAUT":2372,"_-_-":2373,"Ġbbw":2374,"PERIEN":2375,"Ġoffering":2376,"rie":2377,"Ġfr":2378,"Ġsmall":2379,"Ġwithin":2380,"ana":2381,"150":2382,"ities":2383,"AKE":2384,"ĠPr":2385,"fire":2386,"lb":2387,"160":2388,"ĠGIRLS":2389,"itch":2390,"ĠSquare":2391,"Ġend":2392,"ager":2393,"ĠPersonality":2394,"Ġpersonal":2395,"razilian":2396,"RAM":2397,"ĠJuicy":2398,"ĠINQUIR":2399,"Ġcomplete":2400,"bsolutely":2401,"Ġener":2402,"42":2403,"ĠMORE":2404,"ility":2405,"IONS":2406,"ĠEnjoy":2407,"yrs":2408,"PL":2409,"Ġultimate":2410,"Ġdisappointed":2411,"ĠThis":2412,"Ġexcellent":2413,"ĠEaling":2414,"fin":2415,"ĠCompan":2416,"ount":2417,"226":2418,"Ġeducated":2419,"ried":2420,"ĠAT":2421,"ĠDown":2422,"Ġ90":2423,"ĠPRIVATE":2424,"ĠContact":2425,"Ġwhile":2426,"ox":2427,"ĠTott":2428,"phisticated":2429,"))":2430,"usive":2431,"ĠHeathrow":2432,"ĠEXPERIEN":2433,"ORT":2434,"ative":2435,"vail":2436,"ĠNot":2437,"ĠHampstead":2438,"ĠRespectful":2439,"rive":2440,"ĠMiss":2441,"ĠANY":2442,"Ġbed":2443,"ME":2444,"Ġdesc":2445,"mpt":2446,"avor":2447,"Ġthem":2448,"Ġspecials":2449,"UAL":2450,"Ġwhich":2451,"HH":2452,"ĠMix":2453,"lex":2454,"Ġstand":2455,"FER":2456,"Ġ<":2457,"ĠSee":2458,"ASSAGE":2459,"ĠEd":2460,"lip":2461,"ALE":2462,"bers":2463,"Ġexpect":2464,"Ġput":2465,"ĠWa":2466,"ĠEXT":2467,"Ġlovely":2468,"Ġmyself":2469,"ique":2470,"ĠJun":2471,"car":2472,"ĠIT":2473,"Ġwanting":2474,"Ġsame":2475,"ĠBOOK":2476,"Ġmo":2477,"Ġgr":2478,"ĠEVERY":2479,"mobile":2480,"Ġincalls":2481,"ular":2482,"58":2483,"ĠKing":2484,"Ġ074":2485,"onder":2486,"Ġ26":2487,"Ġfreak":2488,"Ġrespect":2489,"ĠCOME":2490,"ĠThank":2491,"Ġinfo":2492,"rap":2493,"ĠRECENT":2494,"ĠGirls":2495,"br":2496,"Ġmay":2497,"Ġstyle":2498,"Ġyrs":2499,"Ġhttp":2500,"Ġrate":2501,"Ġans":2502,"Ġaim":2503,"ARANT":2504,"AND":2505,"ĠFETISH":2506,"ĠPRO":2507,"Ġlim":2508,"61":2509,"Ġcoll":2510,"Ġ11":2511,"lie":2512,"ĠNaughty":2513,"ĠRATES":2514,"oice":2515,"ork":2516,"land":2517,"ĠBre":2518,"Ġfeeling":2519,"Ġstunning":2520,"rip":2521,"Ġworld":2522,"ĠRole":2523,"rotic":2524,"Ġpar":2525,"ĠThick":2526,"Ġwomen":2527,"ĠHere":2528,"akes":2529,"Ġcond":2530,"ĠKent":2531,"Ġ250":2532,"Ġ69":2533,"gel":2534,"clusive":2535,"ras":2536,"ĠLI":2537,"ĠHeight":2538,"icious":2539,"uly":2540,"ĠGENTS":2541,"Ġtaste":2542,"ĠMIN":2543,"ĠNon":2544,"ĠItalian":2545,"rop":2546,"Ġhighly":2547,"Ġcup":2548,"ĠCam":2549,"HE":2550,"ably":2551,"Ġseek":2552,"escorts":2553,"Ġexperienced":2554,"ĠAtt":2555,"Ġvoluptuous":2556,"incess":2557,"ĠLey":2558,"Ġmess":2559,"Ġhygiene":2560,"utual":2561,"Ġthey":2562,"Ġ115":2563,"Ġdeserve":2564,"ĠIM":2565,"ially":2566,"Ġpeople":2567,"urope":2568,"ĠPlayful":2569,"ĠDUO":2570,"ĠLu":2571,"Ġhard":2572,"ĠKorean":2573,"Ġadvent":2574,"Ġpossible":2575,"RUSH":2576,"state":2577,"Ġdeep":2578,"MENT":2579,"416":2580,"Ġdate":2581,"Ġ'":2582,"fiel":2583,"ĠTight":2584,"Ġoutgoing":2585,"ĠWater":2586,"ĠMASSAGE":2587,"ĠOvernight":2588,"Let":2589,"lse":2590,"Ġstimulating":2591,"ombs":2592,"ONE":2593,"ĠAge":2594,"ĠMar":2595,"ĠADD":2596,"Ġtxt":2597,"gem":2598,"ĠPHOT":2599,"ĠGUARANT":2600,"BB":2601,"Ġenc":2602,"ĠEXPERIENCE":2603,"icture":2604,"legant":2605,"Ġalluring":2606,"Ġmaking":2607,"Ġfemale":2608,"exts":2609,"ĠLeyton":2610,"Ġlight":2611,"acy":2612,"ĠGo":2613,"Ġcert":2614,"Ġbubbly":2615,"ats":2616,"alg":2617,"ĠProfessional":2618,"ombshell":2619,"97":2620,"ĠMore":2621,"FT":2622,"62":2623,"ĠHH":2624,"www":2625,"ĠPleas":2626,"adies":2627,"Ġthose":2628,"Ġdif":2629,"WO":2630,"Ġstr":2631,"Ġ180":2632,"Ġwebsite":2633,"ĠUnrushed":2634,"af":2635,"til":2636,"other":2637,"ored":2638,"ĠEng":2639,"Ġown":2640,"ĠCompanion":2641,"Ġgiving":2642,"ĠHey":2643,"miss":2644,"ATIS":2645,"ĠDay":2646,"black":2647,"ier":2648,"Ġsuck":2649,"asure":2650,"sk":2651,"Ġstart":2652,"Ġconf":2653,"Th":2654,"ugg":2655,"Ġ27":2656,"lington":2657,"ĠCURV":2658,"Ġmulti":2659,"Ġwonder":2660,"pecially":2661,"algary":2662,"ĠCAR":2663,"Ġexplicit":2664,"ah":2665,"INE":2666,".:":2667,"ency":2668,"ENS":2669,"ATISF":2670,"UMB":2671,"New":2672,"ĠStr":2673,"OTIC":2674,"ĠCity":2675,"ĠGive":2676,"Ġdescri":2677,"itional":2678,"300":2679,"ORN":2680,"quire":2681,"Ġlow":2682,"ĠGate":2683,"Ġ[]":2684,"bb":2685,"ĠNight":2686,"All":2687,"ĠRelax":2688,"Ġhouse":2689,"ĠBrazilian":2690,"Ġ=":2691,"Ġanswer":2692,"cause":2693,"ade":2694,"co":2695,"anned":2696,"arf":2697,"Ġexclusive":2698,"ichmond":2699,"Ġclients":2700,"Ġsecret":2701,"ĠWant":2702,"urs":2703,"Japanese":2704,"Ġfuck":2705,"59":2706,"uk":2707,"Ġking":2708,"ĠRest":2709,"Ġlingerie":2710,"DDD":2711,"irt":2712,"ĠStock":2713,"cher":2714,"ĠFULL":2715,"Ġgames":2716,"Ġnumbers":2717,"ors":2718,"Available":2719,"Ġknows":2720,"ĠRecent":2721,"Ġpamper":2722,"Ġbecause":2723,"add":2724,"udd":2725,"irport":2726,"Ġmodel":2727,"Ġspo":2728,"ĠChinese":2729,"ĠDE":2730,"Ġanytime":2731,"Ġbreast":2732,"ĠHE":2733,"Ġrelation":2734,"ms":2735,"ĠCo":2736,"EED":2737,"aucas":2738,"attoo":2739,"ident":2740,"Ġmatch":2741,"Ġcap":2742,"ĠSM":2743,"Ġinv":2744,"Ġreviewed":2745,"ĠSU":2746,"INA":2747,"uropean":2748,"Ġrelationship":2749,"aucasian":2750,"Ġ1000":2751,"ama":2752,"ness":2753,"ege":2754,"ĠLow":2755,"RUSHED":2756,"ĠSw":2757,"---":2758,"ĠErotic":2759,"ental":2760,"Ġ70":2761,"ĠPhotos":2762,"ives":2763,"ĠTottenham":2764,"ĠCanadian":2765,"iet":2766,"ĠPerfect":2767,"63":2768,"ĠBook":2769,"ĠCol":2770,"OUN":2771,"imble":2772,"ACT":2773,"ĠPHOTOS":2774,"Ġred":2775,"imbledon":2776,"Ġappeal":2777,"usic":2778,"ferent":2779,"Ġchocolate":2780,"ĠREADY":2781,"Ġsessions":2782,"Sweet":2783,"ĠFant":2784,"613":2785,"140":2786,"ella":2787,"pher":2788,"ĠTe":2789,"ĠSeductive":2790,"ĠVIP":2791,"Ġstudent":2792,"Ġagain":2793,"Ġtell":2794,"Ġparking":2795,"ĠEnd":2796,"Minded":2797,"Ġtype":2798,"ĠVis":2799,"Ġspe":2800,"Ġnegoti":2801,"anth":2802,"sparkling":2803,"ĠSe":2804,"reci":2805,"......":2806,"Ġwaste":2807,"Ġexpl":2808,"portant":2809,"Ġgenerous":2810,"43":2811,"ĠSHOW":2812,"Ġreply":2813,"ĠSPECIALS":2814,"uislip":2815,"Ġarousing":2816,"ĠMENU":2817,"Ġcity":2818,"Ġxx":2819,"Ġtot":2820,"ĠLook":2821,"ĠDuo":2822,"ĠEnglish":2823,"ĠHello":2824,"COME":2825,"medi":2826,"ĠQu":2827,"437":2828,"ears":2829,"ĠWHAT":2830,"ĠBUS":2831,"Ġlux":2832,"Ġwants":2833,"Ġeach":2834,":-":2835,"ĠMake":2836,"minster":2837,"Ġgoddess":2838,"ĠDuos":2839,"Real":2840,"Ġuntil":2841,"mble":2842,"PSC":2843,"iers":2844,"ĠAlso":2845,"403":2846,"Ġbutt":2847,"ners":2848,"Ġbored":2849,"ĠPut":2850,"you":2851,"fully":2852,"ĠMinded":2853,"ĠBIG":2854,"olite":2855,"Ġthank":2856,"ilton":2857,"Ġolder":2858,"gg":2859,"ga":2860,"Ġstation":2861,"ĠSATISF":2862,"ĠBR":2863,"ugs":2864,"Ġnotice":2865,"ĠFACE":2866,"oman":2867,"range":2868,"amel":2869,"ĠASK":2870,"ĠApp":2871,"Ġfetishes":2872,"ets":2873,"inking":2874,"IFUL":2875,"ĠCurves":2876,"PSCALE":2877,"ĠRushed":2878,"ĠSpecials":2879,"real":2880,"ĠCouples":2881,"Ġfirm":2882,")-":2883,"ĠRuislip":2884,"ured":2885,"ĠOral":2886,"ĠJunction":2887,":)":2888,"Ġwast":2889,"ĠSEE":2890,"Ġanything":2891,"ĠASIAN":2892,"Ġtempt":2893,"ĠFROM":2894,"OTY":2895,"Ġmusic":2896,"Ġtop":2897,"Ġ135":2898,"ĠNUMB":2899,"sexy":2900,"ĠMon":2901,"Ġtwo":2902,"safe":2903,"Ġsc":2904,"especially":2905,"ĠMin":2906,"ĠPla":2907,"ĠNEVER":2908,"ax":2909,"Ġhum":2910,"undred":2911,"Ġtill":2912,"Ġdr":2913,"ĠDAY":2914,"pl":2915,"ĠWimbledon":2916,"reath":2917,"Ġappreci":2918,"ĠMal":2919,"Ġdefin":2920,"ĠBush":2921,"ĠOVER":2922,"girl":2923,"wind":2924,"Ġside":2925,"ĠOWO":2926,"Ġfound":2927,"ĠLOW":2928,"ole":2929,"94":2930,"NEW":2931,"mbley":2932,"iver":2933,"ĠEl":2934,"Ex":2935,"TER":2936,"Ġdates":2937,"ulge":2938,"Ġtits":2939,"Ġrole":2940,"Ind":2941,"ĠPER":2942,"Ġwish":2943,"Ġreviews":2944,"ĠProvid":2945,"ĠINQUIRIES":2946,"Ġmag":2947,"any":2948,"TE":2949,"Ġ28":2950,"ICK":2951,"ĠShepher":2952,"oyal":2953,"RAMA":2954,"Ġ075":2955,"Ġintelligent":2956,"Ġhand":2957,"ĠFresh":2958,"ĠAMAZ":2959,"ĠBark":2960,"----------------":2961,"Ġyet":2962,"Ġdeal":2963,"73":2964,"Ġpic":2965,"ĠHours":2966,"ĠPost":2967,"Ġsophisticated":2968,"ĠREST":2969,"Ġmixed":2970,"ffect":2971,"Ġfrench":2972,"Ġ905":2973,"Ġlate":2974,"ĠBOOTY":2975,"Ġcharge":2976,"Ġpackage":2977,"ĠQueens":2978,"io":2979,"aster":2980,"ĠDON":2981,"Ġmutual":2982,"Ġplaymate":2983,"RA":2984,"VIEW":2985,"Please":2986,"Ġladies":2987,"Ġbring":2988,"mp":2989,"Ġtruly":2990,"OST":2991,"ĠGard":2992,"ĠReg":2993,"orest":2994,"ĠEuropean":2995,"74":2996,"hot":2997,"atters":2998,"ĠHygiene":2999,"Ġwonderful":3000,"Ġsur":3001,"itty":3002,"Ġlocated":3003,"ĠBrom":3004,"ONDON":3005,"An":3006,"81":3007,"Ġsu":3008,"Ġovernight":3009,"uru":3010,"Ġregret":3011,"Ġdifferent":3012,"ĠBut":3013,"Ġreality":3014,"Ġ54":3015,"Ġ>>":3016,"Ġwilling":3017,"orning":3018,"square":3019,"Ġcallers":3020,"ĠDUOS":3021,"ĠChe":3022,"Ġhead":3023,"Ġluscious":3024,"ĠCOM":3025,"Ġbene":3026,"altham":3027,"ĠRES":3028,"ĠColl":3029,"________________":3030,"Ġ55":3031,"light":3032,"ĠGuarantee":3033,"ĠCro":3034,"ĠPre":3035,"ĠSkills":3036,"Ġkinky":3037,"ĠBEAUTIFUL":3038,"raving":3039,"KE":3040,"lt":3041,"Ġrece":3042,"ĠHotel":3043,"Ġguy":3044,"Ġturn":3045,"ydon":3046,"ware":3047,"asing":3048,"Ġaccept":3049,"\"\"":3050,"man":3051,"ĠGen":3052,"ĠBarn":3053,"wh":3054,"uston":3055,"ĠRoyal":3056,"Ġri":3057,"Ġhad":3058,"Ġeager":3059,"ĠFrom":3060,"oints":3061,"ified":3062,"-)":3063,"osit":3064,"itting":3065,"worth":3066,"705":3067,"Ġtexts":3068,"Ġhighest":3069,"Ġcapt":3070,":$":3071,"86":3072,"Ġdirty":3073,"ric":3074,"Ġdowntown":3075,"ĠGold":3076,"Ġquick":3077,"ĠAss":3078,"Ġtrad":3079,"ĠOne":3080,"astic":3081,"Ġperky":3082,"orough":3083,"ili":3084,"ĠEuston":3085,"93":3086,"Very":3087,"biance":3088,"ĠREVIEW":3089,"ists":3090,"oor":3091,"Ġ!!!!":3092,"by":3093,"iest":3094,"Ġey":3095,"Ġmemor":3096,"ĠFetishes":3097,"Ġcomp":3098,"Ġelegant":3099,"ffection":3100,"OIN":3101,"amb":3102,"Ġ519":3103,"Ġcouples":3104,"Ġpassion":3105,"ĠNIGHT":3106,"hundred":3107,"ester":3108,"Ġpicture":3109,"ĠBUSTY":3110,"Ġx":3111,"ĠGreater":3112,"points":3113,"ĠBaby":3114,"ĠDRAMA":3115,"RICT":3116,"ĠGREAT":3117,"ĠBrunette":3118,"ĠOri":3119,"XT":3120,"ĠForest":3121,"ĠADDICT":3122,"ĠCalgary":3123,"amaican":3124,"ĠWA":3125,"Ġvisiting":3126,"ingle":3127,"ĠSlim":3128,"ĠCr":3129,"ĠWANT":3130,"love":3131,"ĠAngel":3132,"Ġtoned":3133,"Ġnear":3134,"mber":3135,"ounter":3136,"ĠWembley":3137,"ansfer":3138,"Ġdescribe":3139,"SS":3140,"thy":3141,"ech":3142,"84":3143,"sign":3144,"enn":3145,"ĠPassionate":3146,"ĠPoster":3147,"Ġbelow":3148,"ĠUPSCALE":3149,"Ġlondon":3150,"itely":3151,"ĠNON":3152,"mb":3153,"Ġstay":3154,"gware":3155,"double":3156,"comm":3157,"Ġball":3158,"Ġavail":3159,"Ġsl":3160,"Ġsteal":3161,"WN":3162,"ĠLOOK":3163,"ĠInt":3164,"Ġlaw":3165,"aceous":3166,"ĠLONDON":3167,"Ġmassages":3168,"ĠOld":3169,"Ġtease":3170,"Ġrequest":3171,"ĠDont":3172,"Ġcould":3173,"Ġcollect":3174,"nt":3175,"Ġlot":3176,"mers":3177,"rib":3178,"ĠBAB":3179,"Ġattention":3180,"ancing":3181,"rece":3182,"elcom":3183,"aving":3184,"LS":3185,"Ġhope":3186,"OOD":3187,"ĠDiscrete":3188,"Ġpleased":3189,"ĠGUARANTEED":3190,"versation":3191,"ĠToys":3192,"250":3193,"Ġwhere":3194,"Ġmasse":3195,"ĠEmail":3196,"asm":3197,"oke":3198,"ĠSmooth":3199,"ĠSENS":3200,"ĠMultiple":3201,"ĠGUYS":3202,"400":3203,"Ġ400":3204,"Ġsim":3205,"THING":3206,"Ġambiance":3207,"olving":3208,"ered":3209,"Ġmeetings":3210,"ĠAR":3211,"XX":3212,"ĠRichmond":3213,"ĠMUST":3214,"ok":3215,"Ġoral":3216,"ĠXo":3217,"addington":3218,"Ġstar":3219,"ĠIndian":3220,"Ġstreet":3221,"ribbon":3222,"missive":3223,"ĠEdgware":3224,"Ġexplore":3225,"Be":3226,"Ġlimited":3227,"ĠReview":3228,"ĠMINDED":3229,"ĠOFFER":3230,"ĠAd":3231,"Ġ12":3232,"ĠNeed":3233,"istress":3234,"438":3235,"ĠSte":3236,"ĠHouse":3237,"outcall":3238,"ĠPERS":3239,"uggest":3240,"ongue":3241,"Ġduo":3242,"ĠSorry":3243,"ĠWor":3244,"Al":3245,"ĠLike":3246,"56":3247,"Ġease":3248,"olloway":3249,"'d":3250,"ĠAddictive":3251,"ĠRestrictions":3252,"Ġ****":3253,"Ġwhite":3254,"54":3255,"ĠHeels":3256,"Ġ&&":3257,"Ġspent":3258,"ertain":3259,"SO":3260,"130":3261,"PECT":3262,"verse":3263,"Ġthr":3264,"ĠLips":3265,"Ġabsolutely":3266,"money":3267,"ĠAMAZING":3268,"auga":3269,"ince":3270,"DER":3271,"Ġproper":3272,"Ġtraditional":3273,"Ġdz":3274,"ĠManor":3275,"Ġlat":3276,"ille":3277,"body":3278,"Fetish":3279,"ord":3280,"iller":3281,"ender":3282,"ĠDes":3283,"Ġheels":3284,"ĠName":3285,"Ġfeet":3286,"OUTCALLS":3287,"ĠBarb":3288,"Ġpls":3289,"Ġwont":3290,"Ġhear":3291,"Ġbust":3292,"ground":3293,"Ġtempting":3294,"ject":3295,"Ġtanned":3296,"burn":3297,"Ġsense":3298,"xxxxxxxx":3299,"agenham":3300,"ĠVI":3301,"now":3302,"IST":3303,"ĠDowntown":3304,"Ġbreath":3305,"side":3306,"Ġtoys":3307,"Ġign":3308,"ily":3309,"We":3310,"Ġblock":3311,"avorite":3312,"esit":3313,"Ġencounter":3314,"REAL":3315,"Clean":3316,"slow":3317,"ĠRuss":3318,"ĠHERE":3319,"issauga":3320,"Ġalone":3321,"glowing":3322,"Ġlarge":3323,"Ġwanna":3324,"Ġgetting":3325,"Ġclo":3326,"LAX":3327,"ĠRed":3328,"Ġyours":3329,"Ġenergy":3330,"ĠCON":3331,"ĠBridge":3332,"Ġwalk":3333,"ĠEXPL":3334,"DS":3335,"Ġrelationships":3336,"Looking":3337,"Ġintimate":3338,"Ġbedroom":3339,"ilburn":3340,"tr":3341,"Ġresp":3342,"ĠRESTRICT":3343,"):":3344,"ĠPRE":3345,"Outcall":3346,"Ġshould":3347,"ecut":3348,"ĠDONT":3349,"Ġdefinitely":3350,"Ġdaytime":3351,"ĠWelcome":3352,"ounslow":3353,"Ġpolite":3354,"Ġcompletely":3355,"ĠTODAY":3356,"appy":3357,"Ġable":3358,"reek":3359,"ĠBlue":3360,"ambeth":3361,"ĠMass":3362,"OINT":3363,"otect":3364,"Ġdoll":3365,"ingdon":3366,"ducated":3367,"medium":3368,"Ġcl":3369,"ointments":3370,"Ġappealing":3371,"Ġdinner":3372,"ĠLOC":3373,"Ġbombshell":3374,"water":3375,"ball":3376,"ĠQueen":3377,"Ġparam":3378,"Ġfinanc":3379,"ĠHolloway":3380,"Ġbenefits":3381,"Ġtheir":3382,"ĠMay":3383,"Ġpleasant":3384,"ying":3385,"ĠPutney":3386,"OX":3387,"Independent":3388,"antic":3389,"ACTION":3390,"Ġtimes":3391,"Ġclassical":3392,"bility":3393,"Ġconversation":3394,"ĠWhite":3395,"Ġbu":3396,"hrs":3397,"sbury":3398,"83":3399,"ĠWaltham":3400,"ĠDES":3401,"TON":3402,"GET":3403,"Ġexecut":3404,"Ġrelaxation":3405,"Ġ778":3406,"ĠShow":3407,"winking":3408,"CAR":3409,"iny":3410,"Ġ220":3411,"ĠUP":3412,"ĠLET":3413,"ĠDagenham":3414,"Ġdelight":3415,"Party":3416,"elle":3417,"eters":3418,"ĠWeight":3419,"ination":3420,"REME":3421,"Ġstealthy":3422,"ĠHR":3423,"ĠKissing":3424,"actly":3425,"ĠUnforgettable":3426,"ĠWoodford":3427,"Ġcraving":3428,"Ġparameters":3429,"otting":3430,"ĠLE":3431,"ĠNe":3432,"ĠPLEASURE":3433,"ĠPERSON":3434,"onest":3435,"party":3436,"ena":3437,"So":3438,"NG":3439,"person":3440,"Ġdoing":3441,"ĠFl":3442,"ĠDeep":3443,"ĠRoom":3444,"oose":3445,"Re":3446,"ought":3447,"ĠAB":3448,"rived":3449,"Ġregular":3450,"avour":3451,"LBS":3452,"Ġtant":3453,"604":3454,"ĠBack":3455,"ĠIF":3456,"ĠWEL":3457,"ayla":3458,"tease":3459,"quires":3460,"nam":3461,"Ġsorry":3462,"Ġque":3463,"ĠGet":3464,"tie":3465,"ORNY":3466,"ĠCroydon":3467,"ĠMAN":3468,"][":3469,"ĠKenton":3470,"ĠNotting":3471,"Ġallow":3472,"800":3473,"uge":3474,"Ġprior":3475,"Hot":3476,"Ġ604":3477,"Ġfac":3478,"ĠLIKE":3479,"dz":3480,"Ġthink":3481,"Ġentertain":3482,"96":3483,"ĠWharf":3484,"hing":3485,"ĠSKILL":3486,"76":3487,"ĠRELAX":3488,"ove":3489,"blo":3490,"ĠUNRUSHED":3491,"82":3492,"ĠHar":3493,"ĠSur":3494,"sey":3495,"Ġsay":3496,"more":3497,"ĠAg":3498,";)":3499,"PAR":3500,"esitate":3501,"ĠFirst":3502,"iably":3503,"Ġact":3504,"ĠBro":3505,"head":3506,"Ġworth":3507,"Ġdoes":3508,"ĠFit":3509,"Ġadv":3510,"ĠGreenwich":3511,"ĠEarls":3512,"Ġlets":3513,"doll":3514,"ĠLady":3515,"Ġproviding":3516,"Ġbookings":3517,"ingap":3518,"urous":3519,"Ġcollectors":3520,"ishing":3521,"ĠTxt":3522,"AG":3523,"BJ":3524,"po":3525,"Ġexcept":3526,"ĠTOWN":3527,"Ġ401":3528,"FS":3529,"isa":3530,"earch":3531,"Ġcaptiv":3532,"ĠAt":3533,"erton":3534,"220":3535,"Ġtalented":3536,"ĠStratford":3537,"Ġoutings":3538,"Outcalls":3539,"Ġfoot":3540,"ĠCA":3541,"Ġ105":3542,"ATURE":3543,"skin":3544,"ITING":3545,"urple":3546,"ĠKilburn":3547,"llip":3548,"ĠHamilton":3549,")(":3550,"ĠTurn":3551,"ressing":3552,"Ġphys":3553,"ĠPe":3554,"atious":3555,"Ġlust":3556,"uri":3557,"stal":3558,"mer":3559,"Ġsuggest":3560,"reverse":3561,"llipop":3562,"~~~~":3563,"Ġmarried":3564,"Ġconfident":3565,"Ġrom":3566,"Ġnothing":3567,"green":3568,"urst":3569,"Ġdelicious":3570,"esden":3571,"rown":3572,"augh":3573,"Ġphil":3574,"ĠDomination":3575,"ĠBub":3576,"ĠAPP":3577,"Ġmenu":3578,"IF":3579,"irtatious":3580,"yers":3581,"mith":3582,"Ġset":3583,"ĠLets":3584,"ĠJUST":3585,"small":3586,"Ġref":3587,"glass":3588,"IRE":3589,"ĠMeet":3590,"Ġlawyers":3591,"Ġthing":3592,"asha":3593,"Ġlooks":3594,"Ġfinanciers":3595,"panking":3596,"Ġexecutives":3597,"Ġloving":3598,"ĠExtra":3599,"Ġblond":3600,"OY":3601,"Ġwildest":3602,"Ġluxury":3603,"anthrop":3604,"Ġphilanthrop":3605,"ĠDream":3606,"Ġcertif":3607,"Ġwhole":3608,"03":3609,"rystal":3610,"Ġphilanthropists":3611,"Ġ780":3612,"ĠPleasure":3613,"ĠSy":3614,"lollipop":3615,"ĠFac":3616,"atus":3617,"UGH":3618,"ssom":3619,"Ġ079":3620,"Ġunwind":3621,"ĠMouth":3622,"ĠTRUE":3623,"imer":3624,"ĠHORNY":3625,"Ġmorning":3626,"He":3627,"Ġappreciate":3628,"Ġcertifiably":3629,"NIGHT":3630,"52":3631,"Ġsubject":3632,"zel":3633,"rove":3634,"ackney":3635,"ĠWhe":3636,"Ġsit":3637,"MINDED":3638,"Ġrelie":3639,"Ġthrough":3640,"Incall":3641,"urvy":3642,"500":3643,"mersmith":3644,"ĠGirlfriend":3645,"Ġcurvaceous":3646,"ulham":3647,"ĠFantasy":3648,"Ġarrange":3649,"ĠFANT":3650,"Ġwhy":3651,"ldgate":3652,"ĠDDD":3653,"Ġmoments":3654,"riptease":3655,"not":3656,"Ġcont":3657,"ĠCanada":3658,"blossom":3659,"ĠTAL":3660,"Ġdrive":3661,"53":3662,"ĠCIM":3663,"ĠSOFT":3664,"razy":3665,"Ġ??":3666,"Ġsubmissive":3667,"ILD":3668,"ĠJess":3669,"The":3670,"ĠSENSUAL":3671,"cred":3672,"Ġ==":3673,"Ġbum":3674,"ĠGO":3675,"ĠRUSHED":3676,"ĠDis":3677,"wa":3678,"Ġsec":3679,"INCALL":3680,"ĠPort":3681,"240":3682,"rampton":3683,"rey":3684,"ĠPaddington":3685,"ĠJamaican":3686,"awa":3687,"Ġbit":3688,"ational":3689,"Ġplz":3690,"ATED":3691,"Ġhesitate":3692,"ĠMISS":3693,"ĠTake":3694,"asty":3695,"ĠSize":3696,"Ġbad":3697,"ele":3698,"vailability":3699,"GH":3700,"ĠAirport":3701,"oto":3702,"pendant":3703,"imum":3704,"onely":3705,"OUTH":3706,"Ġdec":3707,"ĠWillesden":3708,"ĠDel":3709,"ĠSKILLS":3710,"attoos":3711,"va":3712,"ONG":3713,"ĠUpper":3714,"idence":3715,"aiw":3716,"Ġ29":3717,"ĠSingap":3718,"nal":3719,"Your":3720,"urch":3721,"Ġexactly":3722,"ek":3723,"ULT":3724,"ĠAldgate":3725,"Car":3726,"ĠWEBS":3727,"ĠInquiries":3728,"KY":3729,"Ġmessage":3730,"Ġcondo":3731,"receiver":3732,"Ġhill":3733,"woman":3734,"ĠWestminster":3735,"Full":3736,"OUTCALL":3737,"Ġpriv":3738,"/$":3739,"ĠThen":3740,"Ġwest":3741,"ĠLambeth":3742,"Ġtexting":3743,"rev":3744,"ĠPhone":3745,"ĠFE":3746,"ĠEXOTIC":3747,"LD":3748,"ĠWELCOME":3749,"ĠJapan":3750,"Open":3751,"Ġcheap":3752,"ĠAllow":3753,"lsea":3754,"ĠGoddess":3755,"Ġmoney":3756,"angu":3757,"Ġbeh":3758,"ĠCl":3759,"ĠVIS":3760,"ĠWaiting":3761,"___":3762,"Ġline":3763,"ugar":3764,"Ġ---":3765,"Ġgoal":3766,"Safe":3767,"andy":3768,"ĠPl":3769,"Ġdomination":3770,"Ġchance":3771,"revolving":3772,"loo":3773,"Ġused":3774,"osp":3775,"ĠLOCATION":3776,"((":3777,"ĠGET":3778,"Discreet":3779,"ines":3780,"asurements":3781,"!:":3782,"ĠJU":3783,"ĠCHE":3784,"Ġstock":3785,"field":3786,"Ġlist":3787,"Ġsatisfying":3788,"ĠBri":3789,"ICIT":3790,"ĠNuru":3791,"ville":3792,"ĠPROVI":3793,"fr":3794,"ĠFulham":3795,"ĠCO":3796,"ĠCURVY":3797,"Ġimp":3798,"asmine":3799,"Ġteasing":3800,"Ġheaven":3801,"ilip":3802,"AUGH":3803,"ĠBarking":3804,"ayswater":3805,"ĠSUPER":3806,"ilf":3807,"ĠSATISFACTION":3808,"ĠVisit":3809,"Ġlast":3810,"Ġweekend":3811,"ĠONE":3812,"Ġpure":3813,"ĠKensal":3814,"Ġcudd":3815,"ĠBec":3816,"ĠGOOD":3817,"ighs":3818,"ĠMalays":3819,"CEPT":3820,"491":3821,"Un":3822,"Ġwelcom":3823,"letic":3824,"aiwan":3825,"ESE":3826,"dollar":3827,"Ġcheck":3828,"Ġanywhere":3829,"ĠMassages":3830,"91":3831,"ĠBarrie":3832,"ĠTXT":3833,"Ġsingle":3834,"ĠHa":3835,"ĠSTAR":3836,"ĠProvider":3837,"ient":3838,"ital":3839,"stow":3840,"atter":3841,"thers":3842,"Are":3843,"COM":3844,"ATS":3845,"ircus":3846,"purple":3847,"Ġagency":3848,"Ġskilled":3849,"Ġspeak":3850,"SW":3851,"ĠPic":3852,"ĠES":3853,"Ġvide":3854,"411":3855,"Ġfake":3856,"-$":3857,"ĠAbout":3858,"getic":3859,"vel":3860,"Ġjob":3861,"TABLE":3862,"OUND":3863,"ooting":3864,"ĠHounslow":3865,"600":3866,"ĠOpenMinded":3867,"Ġchoice":3868,"ĠGEN":3869,"ns":3870,"495":3871,"ched":3872,"Wh":3873,"Ġcum":3874,"ĠADDICTIVE":3875,"ĠBooking":3876,"Ġflat":3877,"Ġcomm":3878,"acious":3879,"ĠMixed":3880,"arning":3881,"Ġmasseuse":3882,"ĠTaiwan":3883,"Ġcrazy":3884,"lite":3885,"ĠArch":3886,"LASS":3887,"orous":3888,"cat":3889,"Ġfreaky":3890,"ĠTal":3891,"ABLE":3892,"$$$$$$$$":3893,"ĠHackney":3894,"ĠMary":3895,"ĠNor":3896,"110":3897,"ĠFri":3898,"ĠExplicit":3899,"ĠJo":3900,"bj":3901,"ĠAsh":3902,"SE":3903,"Ġhazel":3904,"ĠMill":3905,"lexible":3906,"OINTMENT":3907,"Ġeyed":3908,"atever":3909,"Ġstatus":3910,"lect":3911,"ĠHighbury":3912,"ĠMag":3913,"ĠKings":3914,"ĠEXTREME":3915,"Ġothers":3916,"giving":3917,"ACK":3918,"ANK":3919,"Ġcomb":3920,"ĠWhen":3921,"ITS":3922,"ĠShepherds":3923,"ĠOvernights":3924,"Ġfavorite":3925,"ĠCL":3926,"ĠSKIN":3927,"onday":3928,"Ġfing":3929,"addy":3930,"ĠHY":3931,"ĠHammersmith":3932,"Ġprovider":3933,"Ġkiller":3934,"Ġpreferred":3935,"WH":3936,"Ġeast":3937,"Ġsearch":3938,"Night":3939,"Ġindulge":3940,"HI":3941,"Ġworking":3942,"ĠWEBSITE":3943,"ĠOUR":3944,"ĠFuck":3945,"thletic":3946,"over":3947,"urable":3948,"??????":3949,"ĠTalk":3950,"ĠLingerie":3951,"ĠMel":3952,"ĠChelsea":3953,"Ġbas":3954,"the":3955,"onge":3956,"ĠCond":3957,"isky":3958,"rist":3959,"ĠTel":3960,"ĠMATURE":3961,"roat":3962,"ĠBayswater":3963,"ĠBrompton":3964,"Ġsenses":3965,"Gu":3966,"leb":3967,"Ġopt":3968,"=$":3969,"ĠAD":3970,"amy":3971,"formation":3972,"ĠKING":3973,"778":3974,"round":3975,"wark":3976,"Ġlatina":3977,"Ġ>":3978,"ĠTu":3979,"ĠModel":3980,"Ġmemorable":3981,"****************":3982,"Ġprof":3983,"idd":3984,"ĠGrove":3985,"AME":3986,"EDU":3987,"ĠNICE":3988,"ĠEXPLICIT":3989,"FECT":3990,"ĠNEED":3991,"Ġeng":3992,"Ġhips":3993,"!!!!!":3994,"Ġincludes":3995,"uban":3996,"ĠAnal":3997,"to":3998,"Educated":3999,"iC":4000,"PM":4001,"ea":4002,"ulg":4003,"ĠPussy":4004,"ILF":4005,"92":4006,"Ġhonest":4007,"ĠGR":4008,"Ġadventurous":4009,"tern":4010,"ario":4011,"ĠYOUNG":4012,"Ġmultiple":4013,"Ġcol":4014,"vide":4015,"val":4016,"ĠWild":4017,"raw":4018,"Ġwet":4019,"ĠMAKE":4020,"SEX":4021,"non":4022,"ift":4023,"droplet":4024,"Txt":4025,"ason":4026,"Ġ108":4027,"lebone":4028,"ĠTower":4029,"ĠSara":4030,"ĠThai":4031,"ision":4032,"Ġ500":4033,"ĠFeel":4034,"gging":4035,"ved":4036,"aturally":4037,"ĠTHAT":4038,"cup":4039,"514":4040,"ween":4041,"Ġpriority":4042,"ĠABOUT":4043,"Ġpm":4044,"08":4045,"Ġaffection":4046,"ĠPlaymate":4047,"*****":4048,"ĠQuality":4049,"anstead":4050,"Ġignored":4051,"ĠBrit":4052,"ĠBrampton":4053,"SAFE":4054,"ĠEasy":4055,"Ġonce":4056,"Ġpay":4057,"Ġbelie":4058,"Ġaddict":4059,"Ġreceive":4060,"ICY":4061,"Ġtow":4062,"Ġclose":4063,"ĠBoys":4064,"ĠOriental":4065,"Ġpleasures":4066,"ĠHOURS":4067,"free":4068,"ĠRESTRICTIONS":4069,"41":4070,"ĠWELL":4071,"AUGHTY":4072,"box":4073,"vir":4074,"lor":4075,"Ġdressed":4076,"ĠPL":4077,"ĠHIGH":4078,"udbury":4079,"ĠCircus":4080,"anding":4081,"member":4082,"Ġnw":4083,"wix":4084,"HELL":4085,"ĠCamden":4086,"Ġkisses":4087,"09":4088,"ĠEC":4089,"ĠBACK":4090,"ken":4091,"ux":4092,"izing":4093,"ĠFANTAS":4094,"ĠSilky":4095,"ĠFr":4096,"ottom":4097,"ĠTHIS":4098,"ietnam":4099,"Ġphoto":4100,"Ġprincess":4101,"ellas":4102,"PECTFUL":4103,"GOT":4104,"ĠMO":4105,"ithe":4106,"Ġmanner":4107,"ĠBabe":4108,"Ġminute":4109,"++":4110,"MY":4111,"Ġtotally":4112,"oring":4113,"ĠPal":4114,"UTE":4115,"ĠFreak":4116,"ĠCollege":4117,"iscus":4118,"hibiscus":4119,"RESS":4120,"ĠTer":4121,"Ġdev":4122,"Ġfantastic":4123,"ĠHorn":4124,"Ġcaramel":4125,"Ġfriends":4126,"zy":4127,"ĠLocated":4128,"Ġsmart":4129,"ĠIr":4130,"ĠRIGHT":4131,"ĠEY":4132,"71":4133,"ĠWar":4134,"Play":4135,"RY":4136,"Ġje":4137,"ĠGr":4138,"nic":4139,"420":4140,"Ġyes":4141,"Ġgentle":4142,"entive":4143,"OP":4144,"eriz":4145,"ikk":4146,"ĠMonday":4147,"fields":4148,"Ġasian":4149,"pool":4150,"caucasian":4151,"key":4152,"Ġwatch":4153,"Ġupon":4154,"Ġ//":4155,"ĠHeath":4156,"Ġseeking":4157,"rodu":4158,"ĠNum":4159,"vsafe":4160,"coll":4161,"Ġstop":4162,"unny":4163,"ĠExcellent":4164,"Ġunim":4165,"ĠYork":4166,"peach":4167,"warning":4168,"Ġappointments":4169,"SER":4170,"ĠHOTEL":4171,"Ġspending":4172,"ARY":4173,"minutes":4174,"ILE":4175,"ĠProm":4176,"On":4177,"ifor":4178,"ĠWatford":4179,"ĠMississauga":4180,"Ġunimportant":4181,"Ġmarital":4182,"ĠHYG":4183,"ulip":4184,"Ġsweetheart":4185,"tulip":4186,"OK":4187,"Sh":4188,"Ġextras":4189,"ĠBow":4190,"ĠCanary":4191,"ances":4192,"bour":4193,"via":4194,"Ġeveryday":4195,"sy":4196,"cherry":4197,"Ġhrs":4198,"Ġshare":4199,"TAL":4200,"ban":4201,"ĠCompanionship":4202,"Ġduos":4203,"ĠWILD":4204,"aved":4205,"Ġprice":4206,"aker":4207,"Ġpleasurable":4208,"ĠWaist":4209,"Ġaddictive":4210,"Beautiful":4211,"VEN":4212,"ĠPLAYFUL":4213,"TOWN":4214,"REAK":4215,"job":4216,"Du":4217,"Ġmatter":4218,"ĠTIGHT":4219,"========":4220,"ĠOffer":4221,"Ġcouple":4222,"ini":4223,"Ġsensuality":4224,"exual":4225,"Ġexperiences":4226,"Ġbetween":4227,"cherries":4228,"Ġ800":4229,"verpool":4230,"Am":4231,"arkling":4232,"ĠDOM":4233,"ĠIslington":4234,"Ġbubble":4235,"ĠLAT":4236,"Ġplus":4237,"Ġsouth":4238,"endon":4239,"Ġmon":4240,"ĠBarnet":4241,"church":4242,"Ġchest":4243,"urious":4244,"Ġmistress":4245,"Ġuse":4246,"ita":4247,"Esc":4248,"ESSION":4249,"ĠWAST":4250,"Ġou":4251,"ĠHands":4252,"Ġmagic":4253,"mo":4254,"rained":4255,"andsworth":4256,"Ġprices":4257,"ĠCon":4258,"Ġlonely":4259,"Star":4260,"ĠThere":4261,"ĠEXTREMELY":4262,"Ġbelieve":4263,"Ġmes":4264,"401":4265,"ĠDinner":4266,"ĠHost":4267,"Ġread":4268,"Ġelse":4269,"Ġinformation":4270,"ĠWanstead":4271,"ĠMarylebone":4272,"315":4273,"Ġoc":4274,"men":4275,"ĠSudbury":4276,"Ġshowing":4277,"denham":4278,"ustom":4279,"ĠTrue":4280,"ule":4281,"ĠWhit":4282,"CL":4283,"Ġalong":4284,"CORT":4285,"Ġrock":4286,"ĠPERSONAL":4287,"ĠThat":4288,"ĠDomin":4289,"quired":4290,"Ġimag":4291,"Ġblow":4292,"780":4293,"Ġhuge":4294,"ĠHighly":4295,"ĠSn":4296,"ĠSome":4297,"othing":4298,"Ġ204":4299,"MIN":4300,"ĠHer":4301,"ĠRound":4302,"Ġpride":4303,"Ġz":4304,"iven":4305,"####":4306,"GA":4307,"ĠMins":4308,"ĠAC":4309,"ĠMoor":4310,"azel":4311,"txt":4312,"TACT":4313,"ipp":4314,"ĠHope":4315,"ĠAttitude":4316,"ĠSydenham":4317,"Ġsimply":4318,"icured":4319,"Ġoil":4320,"Ġballers":4321,"ikki":4322,"viron":4323,"Ġ240":4324,"ĠRO":4325,"ĠFS":4326,"attersea":4327,"iable":4328,"PLEAS":4329,"ĠBABY":4330,"ĠCLASS":4331,"NE":4332,"Ġtaking":4333,"ĠSlo":4334,"Ġarrived":4335,"ĠNorwood":4336,"cal":4337,"yah":4338,"Ġincluded":4339,"ĠWaterloo":4340,"ĠNUMBER":4341,"Ġhearing":4342,"commod":4343,"aked":4344,"fun":4345,"ĠDOWN":4346,"hall":4347,"Ġ18":4348,"ĠNorthwood":4349,"Ġsedu":4350,"LEY":4351,"ĠEM":4352,"secret":4353,"Ġpres":4354,"UB":4355,"ĠTALK":4356,"Ġ600":4357,"NA":4358,"issue":4359,"letter":4360,"Ġwas":4361,"Ġincred":4362,"South":4363,"ORGE":4364,"ĠCALLERS":4365,"earance":4366,"aux":4367,"Ġwasters":4368,"Ġtongue":4369,"inks":4370,"ĠSkilled":4371,"omes":4372,"ional":4373,"ĠTooting":4374,"TIME":4375,"Ġadvance":4376,"Ġimpress":4377,"ern":4378,"Ġ42":4379,"UD":4380,"ĠCute":4381,"Ġdouble":4382,"ĠGardens":4383,"Ġsuch":4384,"Ġspoil":4385,"ĠPls":4386,"Ġnature":4387,"itter":4388,"Ġcombination":4389,"ĠHYGIEN":4390,"ALLY":4391,"ALLERS":4392,"ĠCAF":4393,"Ġtoes":4394,"ORGEOUS":4395,"ĠWalthamstow":4396,"ĠWOR":4397,"ĠEVERYTHING":4398,"Ġ56":4399,"TR":4400,":(":4401,"Good":4402,"Ġunique":4403,"Ġwear":4404,"Ġab":4405,"ĠCONTACT":4406,"ĠKentish":4407,"Ġthese":4408,"Ġattentive":4409,"ĠChocolate":4410,"ĠStudent":4411,"ĠAshley":4412,"ĠMULT":4413,"ĠGTA":4414,"ĠVietnam":4415,"icing":4416,"Calls":4417,"Ġkitty":4418,"ĠSouthgate":4419,"ism":4420,"vironment":4421,"Ġfingers":4422,"Ġmade":4423,"ĠMess":4424,"Ġromantic":4425,"700":4426,"Ġpick":4427,"ĠLew":4428,"urlington":4429,"ĠLeytonstone":4430,"Ġlik":4431,"Ġbreak":4432,"Ch":4433,"ĠStan":4434,"Ġdist":4435,"Ġheart":4436,"ĠStone":4437,"Ġroad":4438,"Ġassure":4439,"ĠSOME":4440,"iff":4441,"ONY":4442,"ino":4443,"isham":4444,"Ġappearance":4445,"iforms":4446,"ĠCOMP":4447,"edish":4448,"ĠMILF":4449,"ĠESCORT":4450,"ilities":4451,"ĠREVIEWED":4452,"ĠThanks":4453,"ĠWandsworth":4454,"ĠPen":4455,"ĠGames":4456,"ĠASS":4457,"monton":4458,"ĠGenuine":4459,"ĠKenn":4460,"Ġcover":4461,"Ġetc":4462,"auxhall":4463,"ĠTop":4464,"aight":4465,"Ġxxx":4466,"AMES":4467,"unday":4468,"ĠBY":4469,"adway":4470,"aledon":4471,"Ġmelt":4472,"ĠHendon":4473,"EEP":4474,"ĠSEDU":4475,"Always":4476,"essa":4477,"JOY":4478,"ĠLiverpool":4479,"issa":4480,"ĠCURVES":4481,"Ġsite":4482,"ĠDates":4483,"Ġheight":4484,"FO":4485,"ĠVer":4486,"Rushed":4487,"ĠGENTLEMAN":4488,"Ġrequire":4489,"collision":4490,"ener":4491,"ĠUNFOR":4492,"ĠPackage":4493,"72":4494,"ĠOther":4495,"aty":4496,"ĠTouch":4497,"IMIT":4498,"ĠJasmine":4499,"ASS":4500,"Ġ-??????":4501,"sun":4502,"ĠAve":4503,"ming":4504,"Ġmid":4505,"Ġprostate":4506,"witter":4507,"lymp":4508,"RED":4509,"Ġhealth":4510,"ĠJen":4511,"ĠFilip":4512,"Ġfully":4513,"ĠHYGIENE":4514,"Ġremember":4515,"Ġposit":4516,"Ġdick":4517,"Ġther":4518,"bro":4519,"ized":4520,"ĠJessica":4521,"ĠBeck":4522,"ather":4523,"Ġexpressing":4524,"aken":4525,"ĠEarth":4526,"ĠHead":4527,"ĠNUMBERS":4528,"ĠNEGOT":4529,"Ġporn":4530,"ĠPol":4531,"ĠSouthwark":4532,"Ġ*****":4533,"fetish":4534,"ĠMOUTH":4535,"Ġlustful":4536,"Me":4537,"ĠStar":4538,"ald":4539,"ĠLONG":4540,"ombian":4541,"Ġ.....":4542,"clean":4543,"Ġcle":4544,"ĠCOU":4545,"ĠFREAK":4546,"ĠRussian":4547,"apel":4548,"ĠCommon":4549,"Don":4550,"ĠIts":4551,"Ġunderst":4552,"ĠBreast":4553,"Ġrequired":4554,"04":4555,"Ġtotal":4556,"Ġ33":4557,"PLEASE":4558,"Ġshows":4559,"aily":4560,"Ġimportant":4561,"ĠDark":4562,"Ġsuggestive":4563,"ĠPrincess":4564,"Ġless":4565,"echapel":4566,"ump":4567,"ither":4568,"ĠTE":4569,"esome":4570,"Ġtowels":4571,"Ġseeing":4572,"ĠAbsolutely":4573,"Ġhook":4574,"Ġescape":4575,"ĠHy":4576,"ĠLap":4577,"assy":4578,"ĠAmer":4579,"hey":4580,"ĠZ":4581,"IV":4582,"Ġself":4583,"Ġinviting":4584,"ĠStats":4585,"ĠDom":4586,"_(":4587,"ĠDr":4588,"arkham":4589,"nect":4590,"ĠNAUGHTY":4591,"bean":4592,"aida":4593,"ĠPHONE":4594,"ĠBer":4595,"ĠMI":4596,"Ġflirty":4597,"ani":4598,"FF":4599,"ĠIG":4600,"ĠBreasts":4601,"Ġret":4602,"istow":4603,"BONY":4604,"Serious":4605,"ĠGAMES":4606,"illy":4607,"resh":4608,"ero":4609,"meriz":4610,"Ġflirtatious":4611,"ierc":4612,"RO":4613,"Ġqueen":4614,"ĠTHANK":4615,"Ġflexible":4616,"OTH":4617,"Ġenergetic":4618,"Pro":4619,"ĠKim":4620,"ĠXoxo":4621,"BER":4622,"ĠOVERNIGHT":4623,"ĠPERFECT":4624,"ĠStunning":4625,"Ġhotels":4626,"fered":4627,"125":4628,"banana":4629,"Special":4630,"Ġcondom":4631,".,":4632,"Escorts":4633,"Ġbar":4634,"ĠEYES":4635,"Lbs":4636,"DU":4637,"bert":4638,"ĠFIR":4639,"Ġ:-)":4640,"ĠJUICY":4641,"ĠRESPECTFUL":4642,"It":4643,"asc":4644,"ĠTOP":4645,"Ġchar":4646,"ĠSky":4647,"ĠDress":4648,"lesden":4649,"Ġdar":4650,"ĠLOOKING":4651,"ĠUR":4652,"ETITE":4653,"nown":4654,"ggy":4655,"ĠFriday":4656,"xton":4657,"ais":4658,"Ġ89":4659,"ĠOK":4660,"apple":4661,"Ġhottie":4662,"................":4663,"Fun":4664,"Ġaccommod":4665,"ĠBOOKING":4666,"ĠDock":4667,"Ġprofile":4668,"astle":4669,"ĠIntelligent":4670,"ĠProstate":4671,"ĠCharing":4672,"elling":4673,"Ġenjoyable":4674,"Hour":4675,"Ġnegotiable":4676,"ĠSomething":4677,"Ġ{":4678,"Ġfine":4679,"ding":4680,"As":4681,"Ġ44":4682,"ĠTant":4683,"Ġok":4684,"ĠHalf":4685,"hours":4686,"ĠStation":4687,"ĠCli":4688,"ĠSL":4689,"blood":4690,"vo":4691,"Ġdaddy":4692,"ĠSmile":4693,"ĠGORGEOUS":4694,"905":4695,"type":4696,"ube":4697,"ivers":4698,"fri":4699,"berry":4700,"iswick":4701,"ĠBrixton":4702,"ĠUNFORGET":4703,"ĠSmall":4704,"IED":4705,"ulwich":4706,"ĠEdmonton":4707,"Ġgent":4708,"rowing":4709,"ĠSam":4710,"ISSA":4711,"rence":4712,"ĠKISS":4713,"Ġadventure":4714,"CA":4715,"PH":4716,"rawberry":4717,"Ġ52":4718,"ibly":4719,"EK":4720,"Ġbottom":4721,"hor":4722,"ĠMust":4723,"chat":4724,"ĠBroadway":4725,"ĠWAITING":4726,"adian":4727,"ĠHoll":4728,"ĠUNDER":4729,"Ġ19":4730,"ately":4731,"lake":4732,"rina":4733,"ĠAlex":4734,"ĠCaledon":4735,"505":4736,"IPS":4737,"IZ":4738,"Ġathletic":4739,"born":4740,"ependant":4741,"Ġca":4742,"ĠToday":4743,"Ġ145":4744,"Ġ57":4745,"ĠRelaxing":4746,"ĠBeth":4747,"Bl":4748,"Ġ343":4749,"Ġmakes":4750,"Ġacc":4751,"Ġseduce":4752,"Ġmight":4753,"Ġfrisky":4754,"ote":4755,"BBW":4756,"ĠCuban":4757,"ĠStockings":4758,"ĠChiswick":4759,"hi":4760,"urnt":4761,"ultry":4762,"ĠBritish":4763,"anda":4764,"ĠHappy":4765,"Ġshowered":4766,"ĠBust":4767,"unners":4768,"ĠRay":4769,"Ġaccepted":4770,"ring":4771,"fl":4772,"voc":4773,"ins":4774,"apchat":4775,"ĠSloane":4776,"ĠPim":4777,"ĠBal":4778,"Ġyr":4779,"wy":4780,"ĠShort":4781,"roomed":4782,"ĠSEND":4783,"FRIEND":4784,"avy":4785,"anger":4786,"line":4787,"ĠRom":4788,"ONDE":4789,"borough":4790,"Ġcalling":4791,"Ġinch":4792,"ĠREAD":4793,"Ġvia":4794,"ĠBattersea":4795,"Ġchoose":4796,"pped":4797,"ĠBo":4798,"Incalls":4799,"ett":4800,"Ġamaz":4801,"Ġthighs":4802,"AGE":4803,"Ġseen":4804,"UINE":4805,"friars":4806,"ĠBlackfriars":4807,"HELLO":4808,"uth":4809,"317":4810,"ontreal":4811,"Ġ~~":4812,"ĠFinsbury":4813,"PARTY":4814,"ĠSPA":4815,"ĠGarden":4816,"208":4817,"outcalls":4818,"pi":4819,"Ġinquires":4820,"Ġintrodu":4821,"Ġtreated":4822,"vil":4823,"soft":4824,"ĠSTATS":4825,"omen":4826,"ĠTOTAL":4827,"Ġbare":4828,"aj":4829,"Ġsexiest":4830,"mbol":4831,"ĠYOURS":4832,"IMITED":4833,"horse":4834,"aging":4835,"Ġoccas":4836,"Ġfemin":4837,"ĠPlace":4838,"ĠCannon":4839,"ense":4840,"Ġide":4841,"Ġproble":4842,"symbol":4843,"enter":4844,"stonishing":4845,"ĠBethnal":4846,"ĠAPPOINTMENT":4847,"ya":4848,"alston":4849,"unnersbury":4850,"ĠGENUINE":4851,"Ġbackground":4852,"ONLY":4853,"ISE":4854,"ĠLittle":4855,"ĠBalham":4856,"ĠFa":4857,"Ġaffectionate":4858,"Ġopenminded":4859,"alley":4860,"ĠProvide":4861,"Ġnames":4862,"ĠVISIT":4863,"Ġdonation":4864,"WHERE":4865,"Ġcentral":4866,"DSM":4867,"Ġtan":4868,"Ġwanted":4869,"ĠCaledonian":4870,"ĠReviewed":4871,"Ġreason":4872,"ĠBubbly":4873,"TTY":4874,"SEXY":4875,"Ġtaken":4876,"otected":4877,"massage":4878,"ARD":4879,"ĠJoh":4880,"323":4881,"tstone":4882,"ĠKinky":4883,"Ġtantric":4884,"iag":4885,"ĠStrap":4886,"ĠVIDE":4887,"ĠIrish":4888,"ouc":4889,"ĠRELAXING":4890,"enty":4891,"819":4892,"Ġeat":4893,"ĠVan":4894,"''":4895,"Ġnaturally":4896,"ĠKat":4897,"Ġminimum":4898,"Ġdevot":4899,"aters":4900,"ĠEBONY":4901,"Gentlemen":4902,"Over":4903,"white":4904,"resc":4905,"oration":4906,"atures":4907,"ĠLatimer":4908,"ĠHorny":4909,"ĠTOYS":4910,"edy":4911,"ĠBlackhorse":4912,"ESH":4913,"ICA":4914,"ĠBermond":4915,"big":4916,"ĠVauxhall":4917,"autom":4918,"ĠBBBJ":4919,"ĠSingapore":4920,"orns":4921,"dec":4922,"ĠFAKE":4923,"Girl":4924,"Ġlaugh":4925,"icked":4926,"ĠMaida":4927,"irect":4928,"enic":4929,"automobile":4930,"Ġslow":4931,"ĠBEAUTY":4932,"ĠTall":4933,"ĠVoluptuous":4934,"rescent":4935,"ym":4936,"ĠFlirty":4937,"NOW":4938,"ĠANAL":4939,"carborough":4940,"ĠLATINA":4941,"ĠCovent":4942,"GFE":4943,"ĠHazel":4944,"ĠTON":4945,"Ġelite":4946,"INGER":4947,"Ġjoin":4948,"bar":4949,"Ġtalents":4950,"PLAY":4951,"$/":4952,"ended":4953,"707":4954,"ĠEpping":4955,"ĠGent":4956,"Ġwhatever":4957,"Ġdomin":4958,"Ġexcited":4959,"INK":4960,"yy":4961,"YOU":4962,"most":4963,"leph":4964,"api":4965,"ye":4966,"Ġwood":4967,".*":4968,"ĠCallers":4969,"Ġseduct":4970,"Ġsmiling":4971,"ĠUNFORGETTABLE":4972,"ikini":4973,"ety":4974,"ests":4975,"Ġdd":4976,"avi":4977,"lephant":4978,"INATION":4979,"ĠNumber":4980,"Ġbright":4981,"High":4982,"oking":4983,"Ġhoney":4984,"DGE":4985,"ENTS":4986,"ĠPLA":4987,"ENCH":4988,"anie":4989,"ĠMoorgate":4990,"unch":4991,"ĠHarlesden":4992,"Ġanother":4993,"iana":4994,"Ġtouching":4995,"Best":4996,"looking":4997,"lin":4998,"crown":4999,"ĠPART":5000,"PORT":5001,"imited":5002,"For":5003,"rapes":5004,"orea":5005,"ĠTEXTS":5006,"Ġcaptivating":5007,"Ġchat":5008,"ĠLewisham":5009,"ĠSasha":5010,"Ġver":5011,"vocative":5012,"ANCE":5013,"299":5014,"ĠDEAL":5015,"ĠTREAT":5016,"ĠCastle":5017,"rently":5018,"escort":5019,"EAR":5020,"Ġhis":5021,"INCALLS":5022,"high":5023,"ckham":5024,"nes":5025,"Ġave":5026,"Ġmatters":5027,"Ġ((":5028,"Ġ58":5029,"ĠCrouch":5030,"wesome":5031,"ĠElephant":5032,"ĠLuscious":5033,"ora":5034,"Ġfall":5035,"ĠER":5036,"Ġvar":5037,"Nice":5038,"779":5039,"grapes":5040,"Ġhun":5041,"ĠPersonal":5042,"Ġhumor":5043,"ĠUnder":5044,"horns":5045,"Ġdone":5046,"ĠRate":5047,"ĠRight":5048,"arming":5049,"ĠWhy":5050,"Ġthanks":5051,"Ġtattoos":5052,"Ġways":5053,"down":5054,"AILS":5055,"pered":5056,"ĠDulwich":5057,"Ġlif":5058,"inning":5059,"ĠAgency":5060,"ĠBARE":5061,"ĠThey":5062,"ĠCHO":5063,"growing":5064,"ĠDeb":5065,"incere":5066,"erienced":5067,"ĠEverything":5068,"FORE":5069,"ii":5070,"ĠFemale":5071,"fs":5072,"oolwich":5073,"ĠHow":5074,"years":5075,"02":5076,"ĠExtremely":5077,"Ġanyone":5078,"ationality":5079,"INDEPENDENT":5080,"ondes":5081,"Ġ-----":5082,"NING":5083,"xion":5084,"ĠBb":5085,"OPE":5086,"Ġfla":5087,"ĠRel":5088,"ĠSession":5089,"decoration":5090,"ĠPETITE":5091,"ĠTalented":5092,"ĠCLASSY":5093,"ĠCrystal":5094,"Ġresidence":5095,"Ġ707":5096,"And":5097,"ĠBurlington":5098,"Ġstill":5099,"ĠEXTRA":5100,"ka":5101,"anging":5102,"ĠNat":5103,"ĠWHITE":5104,"ĠPa":5105,"Ġdie":5106,"Ġnaked":5107,"ĠHeaven":5108,"ĠCarm":5109,"APP":5110,"venue":5111,"SPECIAL":5112,"ĠBLONDE":5113,"ĠHand":5114,"SERIOUS":5115,"ĠStop":5116,"ĠNikki":5117,"BRI":5118,"icole":5119,"Ġfee":5120,"Ġleaving":5121,"FK":5122,"ĠGreek":5123,"REAM":5124,"ĠStonebridge":5125,"clock":5126,"Ġgroomed":5127,"ĠSHOWER":5128,"ĠReally":5129,"ascin":5130,"ĠBorough":5131,"ĠINFO":5132,"ĠBaker":5133,"ĠWoolwich":5134,"Ġmaybe":5135,"KI":5136,"pecc":5137,"Any":5138,"Ġbased":5139,"ĠHAIR":5140,"ĠMans":5141,"ĠTon":5142,"Up":5143,"ĠTIM":5144,"Ġlevel":5145,"otherh":5146,"Ġ170":5147,"Ġreach":5148,"ĠPalace":5149,"otherhithe":5150,"Ġfollow":5151,"arsons":5152,"Ġclear":5153,"ĠDOWNTOWN":5154,"Ġaroused":5155,"CTIVE":5156,"HOT":5157,"ID":5158,"ĠWho":5159,"long":5160,"Ġtens":5161,"elena":5162,"ĠLight":5163,"ĠStockwell":5164,"ĠGl":5165,"ards":5166,"Ġrub":5167,"Ġrout":5168,"ascinating":5169,"ots":5170,"Ġprovides":5171,"Ġsurpr":5172,"LO":5173,"ĠWarm":5174,"ĠDalston":5175,"olt":5176,"404":5177,"ĠKew":5178,"ĠBond":5179,"ĠGunnersbury":5180,"ory":5181,"ĠENJOY":5182,"leaf":5183,"ĠSpa":5184,"Sex":5185,"ĠWould":5186,"bikini":5187,"ĠLU":5188,"Ġrelease":5189,"Ġsecond":5190,"Ġpost":5191,"Ġastonishing":5192,"ĠBank":5193,"OUGH":5194,"ottage":5195,"Ġcut":5196,",,,,":5197,"447":5198,"ĠWhitechapel":5199,"Ġlb":5200,"Ġanal":5201,"hurst":5202,"ĠAvail":5203,"ises":5204,"omerton":5205,"ption":5206,"ĠRotherhithe":5207,"ĠEVER":5208,"ĠBombshell":5209,"ĠLA":5210,"ĠVietnamese":5211,"moon":5212,"anguage":5213,"ĠTaiwanese":5214,"Ġairport":5215,"KING":5216,"Ġwater":5217,"Ġenjoys":5218,"CY":5219,"ĠREQU":5220,"olborn":5221,"kissing":5222,"open":5223,"795":5224,"ATIONS":5225,"ĠBDSM":5226,"iffany":5227,"Ġrep":5228,"Ġsurround":5229,"ĠBlow":5230,"Ġatm":5231,"ELS":5232,"ancer":5233,"strawberry":5234,"odels":5235,"$$$":5236,"ORONT":5237,"Ġbbbj":5238,"ĠHr":5239,"Ġtyp":5240,">>>>":5241,"ĠTimes":5242,"PLES":5243,"East":5244,"ĠCur":5245,"Ġ0749":5246,":.":5247,"Ġtired":5248,"ĠBEFORE":5249,"ĠDominican":5250,"ĠCater":5251,"ĠMom":5252,"Te":5253,"Ġ700":5254,"vale":5255,"ĠWOM":5256,"ĠMalaysian":5257,"Ġoffers":5258,"Ġprovided":5259,"ĠBrondes":5260,"Ġsugar":5261,"Ġsuc":5262,"HOUR":5263,"ĠDirty":5264,"ĠGolders":5265,"Ġlikes":5266,"ĠHighgate":5267,"omb":5268,"Ġbliss":5269,"ancaster":5270,"Ġoptions":5271,"Ġmale":5272,"TO":5273,"known":5274,"Ġdaily":5275,"ĠHomerton":5276,"ĠPlaistow":5277,"NS":5278,"Ġmood":5279,"ĠSoph":5280,"HA":5281,"xbridge":5282,"ĠWeald":5283,"Ġreturn":5284,"osphere":5285,"990":5286,"ĠBarbie":5287,"Ġkissable":5288,"ĠRedbridge":5289,"ttawa":5290,"ILLE":5291,"Ġori":5292,"WW":5293,"ibbean":5294,"toronto":5295,"!)":5296,"Ġbegging":5297,"ĠANSW":5298,"Ġabsolute":5299,"<<":5300,"Ġplaying":5301,"ĠWhetstone":5302,"ĠPROF":5303,"?!":5304,"IABLE":5305,"HEY":5306,"Ġcour":5307,"ache":5308,"Do":5309,"pank":5310,"orced":5311,"Ġfavour":5312,"794":5313,"arr":5314,"ANS":5315,"Ġweigh":5316,"Ġshape":5317,"Ġenough":5318,"asurement":5319,"ĠAmerican":5320,"ĠAsia":5321,"mple":5322,"lassy":5323,"ĠBermondsey":5324,"xen":5325,"Ġavailability":5326,"ĠHillingdon":5327,"Ġmilf":5328,"afety":5329,"LT":5330,"Ġxox":5331,"quest":5332,"BSOL":5333,"Ġprivacy":5334,"Ġmesmeriz":5335,"503":5336,"ANGE":5337,"Ġfam":5338,"455":5339,"ien":5340,"ĠSwedish":5341,"ĠAfter":5342,"popper":5343,"ĠMAR":5344,"oe":5345,"ĠWanna":5346,"Ġhandle":5347,"perience":5348,"Ġsearching":5349,"Ġmidnight":5350,":**":5351,"orange":5352,"lle":5353,"ĠGlouc":5354,"Ġill":5355,"Ġwasting":5356,"Ġmonth":5357,"mmmm":5358,"Ġsitu":5359,"aringey":5360,"ĠCOMPAN":5361,"Ġ0745":5362,"Ġpour":5363,"orner":5364,"Young":5365,"807":5366,"xford":5367,"ĠLatin":5368,"ĠBoobs":5369,"ĠIndependant":5370,"bit":5371,"amp":5372,"Ġbuild":5373,"Ġcollege":5374,"era":5375,"Ġrespectable":5376,"ĠFacility":5377,"ĠLINGER":5378,"lympia":5379,"ĠFoot":5380,"Ġfilled":5381,"ler":5382,"REEK":5383,"Ġstrong":5384,"ĠGloucester":5385,"ĠKisses":5386,"ĠSu":5387,"Ġ53":5388,"Ġstockings":5389,"Ġdevoted":5390,"Ġnipp":5391,"499":5392,"717":5393,"ĠCheck":5394,"Ġgold":5395,"xy":5396,"Ġadult":5397,"304":5398,"Body":5399,"playing":5400,"yal":5401,"Ġphysical":5402,"Ġgame":5403,"UTES":5404,"aa":5405,"fers":5406,"Ġdarling":5407,"stag":5408,"vels":5409,"BSOLUTE":5410,"Ġec":5411,"Ġ450":5412,"pport":5413,"ĠQueensway":5414,"Ġfast":5415,"Ġconnect":5416,"UDE":5417,"umbs":5418,"!!!!!!!!":5419,"ĠMid":5420,"ĠIncl":5421,"isters":5422,"ickle":5423,"thumbs":5424,"ĠRd":5425,"apy":5426,"AIL":5427,"BRIDGE":5428,"Ġatmosphere":5429,"wless":5430,"ĠGIVE":5431,"ĠAccept":5432,"stagram":5433,"anced":5434,"Guarant":5435,"dancing":5436,"ĠKorea":5437,"ĠHolland":5438,"inary":5439,"ĠColombian":5440,"PTON":5441,"ĠJESS":5442,"Ġenvironment":5443,"Ġdem":5444,"ĠCHEAP":5445,"Ġride":5446,"ĠLIPS":5447,"ĠPeckham":5448,"ingside":5449,"ĠANSWER":5450,"Ġquite":5451,"aby":5452,"rains":5453,"Ġtension":5454,"LING":5455,"Ġmet":5456,"917":5457,"ĠCandy":5458,"ĠMost":5459,"form":5460,"ĠShepherd":5461,"ĠGe":5462,"amford":5463,"ĠJe":5464,"curvy":5465,"helle":5466,"Ġmine":5467,"ĠANG":5468,"Ġ64749":5469,"like":5470,"ues":5471,"Ġcons":5472,"ĠCaucasian":5473,"ĠCharming":5474,"Ġoccasion":5475,"swered":5476,"ropping":5477,"ĠYonge":5478,"Ġlonger":5479,"Ġfire":5480,"Ġgla":5481,"ivorced":5482,"ĠTired":5483,"ĠImp":5484,"ptford":5485,"ĠBrook":5486,"Ġpartner":5487,"Ġhold":5488,"51":5489,"Ġfellas":5490,"Ġmessages":5491,"ĠNa":5492,"Can":5493,"ĠTermin":5494,"Ġsent":5495,"ĠCass":5496,"Ġcomplexion":5497,"alizing":5498,"ĠPLZ":5499,"ORONTO":5500,"190":5501,"Ġ900":5502,"ĠKnights":5503,"EZ":5504,"ĠWorld":5505,"yr":5506,"UP":5507,"ĠMES":5508,"days":5509,"ĠPRETTY":5510,"Mature":5511,"quir":5512,"):[":5513,"compan":5514,"MATE":5515,"Ġ260":5516,"ma":5517,"OCKING":5518,"Ġdep":5519,"ĠMind":5520,"ones":5521,"ĠLIFE":5522,"_-_-_-":5523,"_-_-_-_-_-":5524,"monkey":5525,"resist":5526,"VES":5527,"ĠParsons":5528,"Ġsitting":5529,"ĠOutfits":5530,"chant":5531,"ĠXO":5532,"transfer":5533,"aint":5534,"ĠMor":5535,"ĠINQUIRES":5536,"cial":5537,"Ġlover":5538,"URU":5539,"RAMPTON":5540,"Welcome":5541,"UALITY":5542,"ĠGF":5543,"ulate":5544,"food":5545,"elsize":5546,"ĠPROVIDE":5547,"ĠBlo":5548,"ĠTerminal":5549,"london":5550,"ĠCock":5551,"ĠRos":5552,"oud":5553,"led":5554,"Ġtoy":5555,"Ġnorth":5556,"Ġwharf":5557,"icklewood":5558,"Ġprep":5559,"ĠKnightsbridge":5560,"332":5561,"mie":5562,"ltimate":5563,"Ġincluding":5564,"ĠMus":5565,"broke":5566,"ĠYourself":5567,"ANG":5568,"Ġbusy":5569,"ĠMontreal":5570,"oco":5571,"Ġft":5572,"herb":5573,"taking":5574,"ĠAREA":5575,"ĠRespect":5576,"350":5577,"adbroke":5578,"zz":5579,"Long":5580,"ginner":5581,"ece":5582,"ĠSTOCKING":5583,"402":5584,"???":5585,"icate":5586,"ĠFive":5587,"ĠLa":5588,"ĠWEEK":5589,"Ġ87":5590,"ĠLex":5591,"204":5592,"ĠAA":5593,"ĠBella":5594,"ĠBelsize":5595,"Ġoutfits":5596,"Ġquest":5597,"Ġens":5598,"elly":5599,"Ġqui":5600,"ĠSurrey":5601,"evil":5602,"ummy":5603,"Gorgeous":5604,"Ġtiny":5605,"Ġincredible":5606,"ĠMINUTES":5607,"CO":5608,"ĠDISCRETE":5609,"Ġrelief":5610,"774":5611,"vered":5612,"ugu":5613,"BL":5614,"icester":5615,"Ġframe":5616,"343":5617,"ĠPrefer":5618,"ĠHandsome":5619,"beginner":5620,"AVAILABLE":5621,"ĠEner":5622,"ĠYEAR":5623,"ĠBromley":5624,"eng":5625,"Ġfacilities":5626,"urate":5627,"ĠXOX":5628,"ĠWHO":5629,"cm":5630,"iagara":5631,"Ġclient":5632,"Amazing":5633,"ESSIONAL":5634,"Ġfreshly":5635,"Ġdance":5636,"WAY":5637,"Ġ16":5638,"Ġgenuinely":5639,"ĠNAME":5640,"THER":5641,"ĠSl":5642,"Ġstriptease":5643,"PLE":5644,"ARM":5645,"liable":5646,"Ġwelcomed":5647,"North":5648,"adilly":5649,"ĠOutgoing":5650,"Just":5651,"Ġexcite":5652,"ĠWHEN":5653,"avoring":5654,"ĠTHICK":5655,"ĠReviews":5656,"ned":5657,"Ġ39":5658,"quis":5659,"Ġsparkling":5660,"ĠBarbican":5661,"ares":5662,"ĠVanessa":5663,"IBLE":5664,"WE":5665,"ITT":5666,"ĠALSO":5667,"ĠAnywhere":5668,"ĠAppointment":5669,"Curvy":5670,"Ġbj":5671,"ĠFETISHES":5672,"Ġtw":5673,"Ġcant":5674,"ĠBALLERS":5675,"etr":5676,"Ġlost":5677,"Tr":5678,"som":5679,"Ġworship":5680,"BACK":5681,"370":5682,"ĠFRESH":5683,"door":5684,"savoring":5685,"Ġ________________":5686,"shower":5687,"Ġinside":5688,"Ġfair":5689,"ATING":5690,"ĠMEGA":5691,"Ġduring":5692,"ĠSophisticated":5693,"ĠBy":5694,"uert":5695,"Ġvideos":5696,"ractive":5697,"ĠPick":5698,"Ġvoice":5699,"uguese":5700,"atin":5701,"ĠGuy":5702,"ĠSeven":5703,"Ġtube":5704,"ison":5705,"ĠHaringey":5706,"Ġrace":5707,"ĠAnytime":5708,"fn":5709,"ĠLimited":5710,"prin":5711,"ĠAttention":5712,"ument":5713,"Ġknown":5714,"mar":5715,"discreet":5716,"ĠUxbridge":5717,"redit":5718,"Ġgiven":5719,"ĠJul":5720,"ĠTEXTING":5721,"ĠMagic":5722,"Ġarouse":5723,"ez":5724,"Ġ00":5725,"Ġtreatment":5726,"Ġabove":5727,"isexual":5728,"ĠSEDUCTIVE":5729,"Ġroutine":5730,"ĠINCL":5731,"Ġvixen":5732,"ĠOttawa":5733,"Ġrecomm":5734,"itchener":5735,"elph":5736,"ĠOpening":5737,"Ġborn":5738,"405":5739,"Ġcurly":5740,"peccable":5741,"ĠREVIEWS":5742,"onse":5743,"Ġsched":5744,"mi":5745,"Ġselect":5746,"ĠRece":5747,"ĠDelicious":5748,"scourt":5749,"vering":5750,"ĠFRENCH":5751,"Ġkinds":5752,"ĠGUARANTEE":5753,"Ġfeminine":5754,"HAM":5755,"berwell":5756,"Ġovernights":5757,"fnell":5758,"ĠEmb":5759,"indy":5760,"Ġangel":5761,"indale":5762,"nicity":5763,"ĠSuck":5764,"ĠUniforms":5765,"antha":5766,"ĠBJ":5767,"ĠFarm":5768,"ĠParking":5769,"ĠLux":5770,"Ġste":5771,"Br":5772,"ĠChar":5773,"926":5774,"ancery":5775,"ĠEXCEPT":5776,"inch":5777,"ĠMya":5778,"ĠClients":5779,"ĠChancery":5780,"ĠMOST":5781,"793":5782,"Ġcurl":5783,"ĠSens":5784,"ĠQU":5785,"brook":5786,"ĠLancaster":5787,"ĠMorn":5788,"French":5789,"ankment":5790,"ĠEmbankment":5791,"ĠYo":5792,"ĠFUCK":5793,"ĠMEET":5794,"Ġgolden":5795,"919":5796,"ĠCR":5797,"ĠEnfield":5798,"ĠSc":5799,"ĠAmanda":5800,"ger":5801,"Ġsuit":5802,"heavy":5803,"ĠGiving":5804,"Ġanswered":5805,"ĠGer":5806,"Ġlap":5807,"Ġbeg":5808,"ĠSatisfy":5809,"andra":5810,"Ġham":5811,"ĠHotels":5812,"ĠDEEP":5813,"Ġ......":5814,"ontree":5815,"Ġ;-)":5816,"ĠPROFESSIONAL":5817,"ĠPLAYMATE":5818,"imming":5819,"arringdon":5820,"ĠFarringdon":5821,"Ġroyal":5822,"ĠPromise":5823,"awk":5824,"ĠMarkham":5825,":*":5826,"avenscourt":5827,"ĠAnge":5828,".......":5829,"Ġunderstand":5830,"ĠColindale":5831,"uerto":5832,"ĠBuck":5833,"Ġbehind":5834,"PPY":5835,"Ġ____":5836,"ĠIndia":5837,"Ġ902":5838,"panic":5839,"890":5840,"ounters":5841,"Only":5842,":>":5843,"bourne":5844,"snow":5845,"Ġtravell":5846,"Ġouts":5847,"ĠHyde":5848,"ised":5849,"abrina":5850,"enal":5851,"En":5852,"ĠOxford":5853,"ffer":5854,"ĠAvenue":5855,"ising":5856,"Ġnights":5857,"ĠPolish":5858,"Ġdirect":5859,"ĠStanding":5860,"ĠQUALITY":5861,"ĠUltimate":5862,"ĠNothing":5863,"Ġbecome":5864,"Ġsuis":5865,"Ġ819":5866,"BSOLUTELY":5867,"Ġcock":5868,"hawk":5869,"xxx":5870,"ENN":5871,"Ġassured":5872,"Ġhandsome":5873,"ifying":5874,"Ġemails":5875,"Ġoriental":5876,"Ġ0747":5877,"ready":5878,"ĠFANTASY":5879,"Ġ$$$":5880,"Ġacross":5881,"Ġfinest":5882,"ravel":5883,"ĠHolborn":5884,"ĠDisappoint":5885,"Ġfeatures":5886,"tario":5887,"uts":5888,"Ġensure":5889,"ten":5890,"ĠSub":5891,"ĠStep":5892,"ĠMarble":5893,"ĠDREAM":5894,"ĠVisiting":5895,"erivale":5896,"lico":5897,"Ġpen":5898,"GES":5899,"ĠAVAI":5900,"Ġbehavi":5901,"Hr":5902,"erning":5903,"ĠBus":5904,"ĠSMILE":5905,"Ġpink":5906,"ĠBEL":5907,"ĠChalk":5908,"pike":5909,"ĠPrest":5910,"osters":5911,"fosters":5912,"APAN":5913,"ĠBarons":5914,"ĠRose":5915,"ĠPaul":5916,"pportun":5917,"ivid":5918,"ĠArs":5919,"avours":5920,"ĠArsenal":5921,"Multi":5922,"IMATE":5923,"Ġla":5924,"UGS":5925,"ĠYears":5926,"rab":5927,"ĠTot":5928,"ĠCaribbean":5929,"ĠLeave":5930,"Upscale":5931,"ĠAGE":5932,"ulous":5933,"Ġsin":5934,"Ġserve":5935,"Ġinter":5936,"mob":5937,"ĠArchway":5938,"ait":5939,"ĠGoldhawk":5940,"atched":5941,"ĠPart":5942,"Ġspice":5943,"ULL":5944,"ĠIND":5945,"ĠBecontree":5946,"nos":5947,"ĠWhether":5948,"Ġtoe":5949,"ĠVale":5950,"266":5951,"ĠCanning":5952,"quisite":5953,"Ġ........":5954,"mobi":5955,"see":5956,"ĠCut":5957,"urry":5958,"223":5959,"can":5960,"Ġcandy":5961,"atton":5962,"Ġslender":5963,"inault":5964,"ĠBlond":5965,"lar":5966,"satisf":5967,"799":5968,"Ġem":5969,"450":5970,"bbw":5971,"ĠGIRLFRIEND":5972,"ĠSil":5973,"ichelle":5974,"ĠTiffany":5975,"Never":5976,"ĠMile":5977,"ĠCash":5978,"ĠThurs":5979,"Ġoften":5980,"!!!!!!":5981,"bag":5982,"ĠEROTIC":5983,"sweet":5984,"torontoescorts":5985,"Ġ~~~":5986,"Ġcurve":5987,"ĠBarkingside":5988,"IK":5989,"ĠYES":5990,"Duos":5991,"Ġ31":5992,"ĠKingston":5993,"ĠNationality":5994,"Ġmagical":5995,"ĠIll":5996,"eridge":5997,"test":5998,"usb":5999,"Ġmove":6000,"Ġbosom":6001,"Ġnote":6002,"ĠCockfosters":6003,"ola":6004,"Ġtil":6005,"ĠFriend":6006,"asden":6007,"ider":6008,"ĠArea":6009,"CREET":6010,"ĠColliers":6011,"ĠSwiss":6012,"ĠJAPAN":6013,"ference":6014,"ĠEAST":6015,"Ġcos":6016,"isha":6017,"ĠBost":6018,"ĠReply":6019,"ĠBoston":6020,"igwell":6021,"876":6022,"ĠChigwell":6023,"ĠBBFS":6024,"work":6025,"ĠLIMITED":6026,"ĠBrent":6027,"ĠHoney":6028,"ĠFreaky":6029,"just":6030,"fic":6031,"629":6032,"ĠBurnt":6033,"pportunity":6034,"aylor":6035,"ĠPROM":6036,"ĠArnos":6037,"ĠStress":6038,"--------------------------------":6039,"ĠGants":6040,"ĠCanons":6041,"ĠBuckhurst":6042,"ĠCorner":6043,"ĠElm":6044,"Ġdid":6045,"Ġstri":6046,"Ġprovocative":6047,"Ġsheets":6048,"ĠTOO":6049,"ĠScarborough":6050,"ĠGREEK":6051,"ports":6052,"ĠFAC":6053,"LET":6054,"Ġtrust":6055,"This":6056,"Ġrespond":6057,"Ġpur":6058,"Ġhosting":6059,"ĠTAKE":6060,"Ġspinner":6061,"ĠSon":6062,"ĠDollis":6063,"erial":6064,"Ġcream":6065,"please":6066,"ĠHips":6067,"ĠKNOW":6068,"ĠLoves":6069,"Ġrelieve":6070,"flake":6071,"ilt":6072,"Ġund":6073,"Ġexpectations":6074,"AVE":6075,"Toys":6076,"Ġcomes":6077,"Ġdiscover":6078,"illating":6079,"ILTON":6080,"fit":6081,"ĠComple":6082,"ĠSpanking":6083,"Time":6084,"Ġ0757":6085,"Ġpampered":6086,"ĠReceiving":6087,"Ġir":6088,"frican":6089,"Ġval":6090,"ees":6091,"oughton":6092,"sterley":6093,"iercings":6094,"ĠFEEL":6095,"snowflake":6096,"Ġfulfil":6097,"Ġsuccess":6098,"cote":6099,"ĠFIN":6100,"book":6101,"incall":6102,"ĠEastcote":6103,"ĠSunday":6104,"irlop":6105,"Ġbehaviour":6106,"ĠDEL":6107,"ĠFairlop":6108,"aresbrook":6109,"ĠDebden":6110,"Ġ510":6111,"Ġshame":6112,"Ġ46":6113,"ulgar":6114,"ĠCAM":6115,"etime":6116,"Ġcolor":6117,"gra":6118,"aly":6119,"ĠUK":6120,"SH":6121,"ĠDeal":6122,"Ġhttps":6123,"ĠStart":6124,"ĠRA":6125,"ĠCricklewood":6126,"oker":6127,"@@":6128,"Ġvideo":6129,"Ġplenty":6130,"ila":6131,"elves":6132,"Ġspanking":6133,"vious":6134,"Ġnor":6135,"ĠPLACE":6136,"ĠQuay":6137,"GG":6138,"lop":6139,"friendly":6140,"ĠTwitter":6141,"aturday":6142,"ĠPam":6143,"Ġmeasurements":6144,"Ġrare":6145,"iety":6146,"Ġearly":6147,"782":6148,"ĠARRIV":6149,"Ġcas":6150,"Big":6151,"Ġut":6152,"789":6153,"ygienic":6154,"prints":6155,"Ġtold":6156,"Ġve":6157,"ĠSelena":6158,"ĠExtras":6159,"Ġopportunity":6160,"929":6161,"ĠLeicester":6162,"xxxxxxxxxxxxxxxx":6163,"OPEN":6164,"Ġcertain":6165,"ĠCottage":6166,"Ġpleasantly":6167,"rush":6168,"ĠPerky":6169,"ORRY":6170,"Xo":6171,"ĠLee":6172,"bow":6173,"cadilly":6174,"hands":6175,"least":6176,"Ġ175":6177,"ĠOntario":6178,"Ġ$$":6179,"ĠMeasurements":6180,"Ġunrest":6181,"Ġexplo":6182,"ĠWarren":6183,"VA":6184,"ĠANGEL":6185,"ĠTW":6186,"ĠQuick":6187,"ĠTORONTO":6188,"CLEAN":6189,"ARA":6190,"ĠTry":6191,"ervice":6192,"RIE":6193,"ĠPri":6194,"ĠCOUPLES":6195,"BR":6196,"CUR":6197,"ished":6198,"335":6199,"ĠEth":6200,"ĠWOW":6201,"260":6202,"ĠPERSONALITY":6203,"ĠPrices":6204,"ĠTONIGHT":6205,"TT":6206,"look":6207,"ĠĠ":6208,"vous":6209,"ELF":6210,"ancras":6211,"ALG":6212,"ĠEven":6213,"ĠDAYS":6214,"heath":6215,"ĠWC":6216,"ĠBAR":6217,"ific":6218,"ĠSophia":6219,"Ġoffered":6220,"itten":6221,"06":6222,"itillating":6223,"ĠOLD":6224,"Ġexpert":6225,"Ġfascinating":6226,"itive":6227,"BOR":6228,"339":6229,"ĠBeckton":6230,"ĠPop":6231,":%":6232,"ĠNicole":6233,"399":6234,"pol":6235,"htt":6236,"house":6237,"Ġworries":6238,"666":6239,"ĠDESER":6240,"ĠBOO":6241,"ĠMenu":6242,"BE":6243,"fortable":6244,"ĠGoodge":6245,"ĠBUT":6246,"Ġ48":6247,"Black":6248,"verage":6249,"ĠHAPPY":6250,"Ġamorous":6251,"ĠGat":6252,"ceed":6253,"Ġresponse":6254,"Ġsurrounding":6255,"napchat":6256,"887":6257,"amera":6258,"ached":6259,"Ġmassager":6260,"fair":6261,"Ġawesome":6262,"enc":6263,"apeut":6264,"opping":6265,"ĠInquires":6266,"Ġlaid":6267,"ĠTRY":6268,"ĠPiccadilly":6269,"Ġpass":6270,"Ġhell":6271,"Ġdiscerning":6272,"ĠDoor":6273,"ĠDeptford":6274,"net":6275,"DIS":6276,"only":6277,"135":6278,"PR":6279,"Ġlol":6280,"ĠLETS":6281,"Ġattracting":6282,"Ġparties":6283,"Natural":6284,"Ġvisits":6285,"ĠBubble":6286,"Ġunrestrained":6287,"ĠDT":6288,"Ġbreathless":6289,"ITCH":6290,"ĠBel":6291,"ĠUr":6292,"Ġeveryone":6293,"902":6294,"iliar":6295,"Ġwhe":6296,"utton":6297,"ĠIGNO":6298,"Low":6299,"Ġfunny":6300,"osom":6301,"Ġtri":6302,"ĠDays":6303,"Ġpampering":6304,"ĠMODE":6305,"Ġins":6306,"Ġfs":6307,"ĠCup":6308,"ppy":6309,"natural":6310,"769":6311,"Ġworry":6312,"Ext":6313,"907":6314,"Ġlanguage":6315,"Ġawa":6316,"ĠStocking":6317,"Ġcustom":6318,"ĠAP":6319,"Ġinclude":6320,"ĠACCEPT":6321,"ĠBABE":6322,"ĠWWW":6323,"Every":6324,"ĠLovely":6325,"ĠAdult":6326,"ĠTIMES":6327,"Super":6328,"selves":6329,"ĠDesire":6330,"Ġmissing":6331,"Ġ_":6332,"ĠLBS":6333,"ĠNOTE":6334,"tham":6335,"iliation":6336,"ĠSisters":6337,"145":6338,"UGA":6339,"Ġstraight":6340,"ĠPortland":6341,"Ġdropping":6342,"ĠJam":6343,"328":6344,"USS":6345,"ĠShored":6346,"idden":6347,"Ġdelightful":6348,"ĠSabrina":6349,"ĠSTR":6350,"ĠOFF":6351,"{}":6352,"Ġlil":6353,"ĠTITS":6354,"ĠCamberwell":6355,"obic":6356,"BOROUGH":6357,"ĠLisa":6358,"igured":6359,"Ġfakes":6360,"ĠWalk":6361,"ĠMidland":6362,"ĠRavenscourt":6363,"ĠWed":6364,"first":6365,"ĠCOL":6366,"Ġ----":6367,"ĠMIX":6368,"apeutic":6369,"Well":6370,"Ġmeasurement":6371,"ĠValley":6372,"ĠNewington":6373,"Ġwearing":6374,"ĠKind":6375,"Ġcame":6376,"ATER":6377,"cious":6378,"avishing":6379,"Hotel":6380,"ĠRussell":6381,"ĠJESSICA":6382,"ĠTAK":6383,"Ġads":6384,"Ġprotect":6385,"Ġexcitement":6386,"Ġ350":6387,">>>":6388,"ĠTemple":6389,"Ġorg":6390,"Ġboy":6391,"aneous":6392,"Add":6393,"Ġspeaking":6394,"Ġrequests":6395,"ĠANYTIME":6396,"sed":6397,"Ġpositions":6398,"Ġliving":6399,"Ġadore":6400,"ĠBbw":6401,"ĠIGNORED":6402,":,":6403,"ĠBrock":6404,"con":6405,"ĠShad":6406,"ĠRegent":6407,"aL":6408,"ĠCrescent":6409,"Ġsoci":6410,"ĠUpton":6411,"Ġ37":6412,"HRS":6413,"ĠInclud":6414,"gn":6415,"Ġperfectly":6416,"ĠSarah":6417,"Ġleast":6418,"xoxo":6419,"ĠModels":6420,"ĠVide":6421,"ĠPicture":6422,"anguages":6423,"ISSAUGA":6424,"ĠShoreditch":6425,"Ġclock":6426,"Ġwit":6427,"ĠQuays":6428,"ĠViv":6429,"Ġintense":6430,"Ġau":6431,"BO":6432,"Ġsituation":6433,"adi":6434,"Ġneeded":6435,"ĠTits":6436,"ĠPortuguese":6437,"hanced":6438,"atersports":6439,"obicoke":6440,"Ġspanish":6441,"Ġmail":6442,"Ġmans":6443,"Spanish":6444,".(":6445,"ĠPimlico":6446,"ĠStoke":6447,"ĠBlackheath":6448,"married":6449,"Ġ165":6450,"ify":6451,"isease":6452,"terested":6453,"allow":6454,"Ġintroduce":6455,"Ġdivorced":6456,"ĠNegoti":6457,"new":6458,"aces":6459,"Ġhowever":6460,"resistible":6461,"ĠiN":6462,"ĠOlder":6463,"Ġexceptional":6464,"ĠTurnpike":6465,"Ġcash":6466,"Ġlick":6467,"licious":6468,"Ġcourse":6469,"ĠHan":6470,"Ġaddress":6471,"abella":6472,"-----":6473,"Ġnipples":6474,"210":6475,"WA":6476,"vents":6477,"Unrushed":6478,"entic":6479,"assle":6480,"CARBOROUGH":6481,"ALGARY":6482,"Ġcaptivate":6483,"usband":6484,"ĠTongue":6485,"Ġ249":6486,"ĠMINS":6487,"ĠPoplar":6488,"ontaneous":6489,"Ġendless":6490,"ĠSincere":6491,"ĠCHECK":6492,"Free":6493,"ĠCum":6494,"ĠRise":6495,"Ġbabes":6496,"ĠLINGERIE":6497,"Ġreliable":6498,"Ġtasty":6499,"ĠOval":6500,"apping":6501,"Ġimagine":6502,"Ġmu":6503,":::":6504,"oxton":6505,"etration":6506,"ĠWAY":6507,"ĠImperial":6508,"ordinary":6509,"biton":6510,"private":6511,"Ġms":6512,"ĠAffection":6513,"ĠStamford":6514,"ĠTufnell":6515,"Ġ14":6516,"Ġstep":6517,"ICES":6518,"ĠMonument":6519,"Ġenjoyment":6520,"ĠHoxton":6521,"ĠWestbourne":6522,"str":6523,"ĠMansion":6524,"Ġcim":6525,"mily":6526,"ĠBLUE":6527,"ĠCindy":6528,"Ġju":6529,"Ġdemand":6530,"ĠLadbroke":6531,"ĠClapton":6532,"ĠHEELS":6533,"ĠLayla":6534,"Ġpercent":6535,"Ġest":6536,"ĠHills":6537,"zie":6538,"Ġsweetest":6539,"330":6540,"ckenham":6541,"Ġmoi":6542,"Ġpop":6543,"ĠChina":6544,"Massage":6545,"Ġeverywhere":6546,"ĠMaking":6547,"ĠPar":6548,"ĠBay":6549,"ĠCanon":6550,"ĠHong":6551,"ĠKORE":6552,"venient":6553,"ĠDESIR":6554,"318":6555,"ustry":6556,"ength":6557,"Ġ________":6558,"ĠTi":6559,"female":6560,"ĠWapping":6561,"Ġ51":6562,"Ġlocal":6563,"Ġgrace":6564,"ĠTell":6565,"ĠGosp":6566,"ĠDOMINATION":6567,"ĠGospel":6568,"ĠCanonbury":6569,"ĠBall":6570,"Ġideal":6571,"ĠBrondesbury":6572,"ĠNeasden":6573,"ĠHornsey":6574,"ĠWarwick":6575,"ationalities":6576,"hotmail":6577,"ĠMorden":6578,"Ġ::":6579,"attooed":6580,"page":6581,"ĠAvailability":6582,"ĠKelly":6583,"mme":6584,"iqu":6585,"ĠVerified":6586,"Ġpim":6587,"ĠMalaysia":6588,"Brown":6589,"ĠBarnes":6590,"Ġ===":6591,"oug":6592,"Ġeither":6593,"ĠHerne":6594,"ĠANYWHERE":6595,"Ġaff":6596,"ĠHanwell":6597,"Ġcross":6598,"ĠMULTI":6599,"ĠMuswell":6600,"Ġamaze":6601,"ĠCassie":6602,"Ġquestions":6603,"do":6604,"889":6605,"ering":6606,"ĠTissue":6607,"ĠEastern":6608,"ilipp":6609,"206":6610,"Ġplump":6611,"Ġhumour":6612,"Ġslide":6613,"ĠAfrican":6614,"ĠOffering":6615,"Ġes":6616,"Ġdating":6617,"ĠChing":6618,"Ġrushing":6619,"Ġenticing":6620,"chanting":6621,"ĠCOND":6622,"ĠHavering":6623,"ĠHornchurch":6624,"ĠStepney":6625,"Ġcat":6626,"Ġhit":6627,"ĠTease":6628,"ĠEXCEPTIONS":6629,"ĠPerivale":6630,"Ġtakes":6631,"uton":6632,"Xy":6633,"Ġ280":6634,"ĠSurbiton":6635,"ĠChingford":6636,"ĠPinner":6637,"iversity":6638,"ĠNortholt":6639,"rainbow":6640,"Exotic":6641,"ĠStanmore":6642,"isty":6643,"LEYEZ":6644,"Sensual":6645,"ĠHatton":6646,"Miss":6647,"ĠHainault":6648,"ĠMelissa":6649,"ĠTurnham":6650,"ĠShadwell":6651,"270":6652,"IPLE":6653,"UNNING":6654,"ĠKingsbury":6655,"icting":6656,"ĠNorthfields":6657,"Ġbath":6658,"Res":6659,"ĠHanger":6660,"Ġsupp":6661,"iculate":6662,"Ġcuddle":6663,"ANGELEYEZ":6664,"ĠMornington":6665,"perton":6666,"Ġspank":6667,"ĠHarring":6668,"Asian":6669,"linton":6670,"ĠSouthfields":6671,"anks":6672,"ĠRa":6673,"Fe":6674,"ĠCaramel":6675,"uthentic":6676,"Ġhy":6677,"ĠGreenford":6678,"ĠIckenham":6679,"ĠQueensbury":6680,"ĠHeathway":6681,"ĠGrange":6682,"ĠWoodside":6683,"ristina":6684,"ĠBounds":6685,"...:":6686,"shawa":6687,"ĠPreston":6688,"Ġyo":6689,"275":6690,"ĠSkype":6691,"ĠJohn":6692,"738":6693,"uff":6694,"IQU":6695,"Private":6696,"ĠOsterley":6697,"ĠLoughton":6698,"ĠDonations":6699,"ĠUpney":6700,"Ġqual":6701,"ĠMerton":6702,"606":6703,"ĠTotteridge":6704,"Ġsultry":6705,"ĠOakwood":6706,"Ġglass":6707,"ĠTravel":6708,"icia":6709,"Ġlane":6710,"ĠWoman":6711,"ĠNewbury":6712,"ĠSnaresbrook":6713,"ĠHatch":6714,"ĠNorthwick":6715,"ĠWoodgr":6716,"ĠHeadstone":6717,"ĠRayners":6718,"ĠPARTIES":6719,"ĠWoodgrange":6720,"ĠKennedy":6721,"ĠCudd":6722,"Ġzero":6723,"Ġtim":6724,".)":6725,"ĠAVAIL":6726,"Ġreceiving":6727,"ĠRican":6728,"Ġflawless":6729,"ĠMESSA":6730,"sensual":6731,"Ġsucking":6732,"ĠFF":6733,"Ġlively":6734,"ĠRoding":6735,"Tired":6736,"716":6737,"ĠChest":6738,"Ġbi":6739,"ĠDESERVE":6740,"iN":6741,"ĠUs":6742,"ĠKISSING":6743,"atinum":6744,"ĠBed":6745,"Ġtalking":6746,"To":6747,"Ġbro":6748,"Ġcontent":6749,"HER":6750,"Ġcontacting":6751,"ĠATT":6752,"Ġfollowing":6753,"Ġhim":6754,"ĠIndulge":6755,"!.":6756,"ĠEthnicity":6757,"Great":6758,"glinton":6759,"ĠWorship":6760,"GS":6761,"ĠMENUS":6762,"ĠCondo":6763,"Ġcurrently":6764,"vy":6765,"494":6766,"paw":6767,"ulars":6768,"Ġ306":6769,"sport":6770,"696":6771,"Ġ]":6772,"Ġ491":6773,"Ġweight":6774,"alm":6775,"ĠDiscretion":6776,"Pretty":6777,"Ġboun":6778,"ATCH":6779,"Ġdancing":6780,"Ġthroat":6781,"Ġwere":6782,"ĠSingaporean":6783,"988":6784,"331":6785,"804":6786,"^^":6787,"Ġcount":6788,"303":6789,"ĠDISAPP":6790,"Down":6791,"camera":6792,"http":6793,"Ġter":6794,"ĠTantric":6795,"Ġgfe":6796,"Ġ\"\"":6797,"Ġboo":6798,"CESS":6799,"Ġsqu":6800,"Ġaddicted":6801,"RES":6802,"West":6803,"ĠStriptease":6804,"Ġbanging":6805,"ppard":6806,"noon":6807,"417":6808,"ĠSitting":6809,"Ġload":6810,"ĠREALLY":6811,"ilippines":6812,"bec":6813,"Friendly":6814,"ĠNURU":6815,"Rush":6816,"esan":6817,"ĠRATE":6818,"ĠWOMAN":6819,"855":6820,"ĠGentel":6821,"oul":6822,"kenwell":6823,"Ġ-:-":6824,"gu":6825,"ending":6826,"Ġskill":6827,"ĠBrockley":6828,"Ġevents":6829,"792":6830,"Ġschedule":6831,"Ġgf":6832,"Ġstressful":6833,"ĠCAMBRIDGE":6834,"ĠLegs":6835,"ĠSatisfied":6836,"Ġmeans":6837,"ĠCITY":6838,"BIL":6839,"Ġdri":6840,"oub":6841,"ĠFL":6842,"ĠAmy":6843,"519":6844,"ĠMoment":6845,"NER":6846,"ĠKong":6847,"ĠINCLUD":6848,"ĠHottie":6849,"teed":6850,"Ġshaved":6851,"ĠEVEN":6852,"Ġgal":6853,"loe":6854,"rival":6855,"Ġquiet":6856,"Ġsch":6857,"ĠPuerto":6858,"ĠFIRST":6859,"Ġgift":6860,"peak":6861,"Ġeye":6862,"ylish":6863,"oil":6864,"Ġ415":6865,"ĠGenerous":6866,"ĠSOON":6867,"ĠMAG":6868,"Ġstats":6869,"Ġprove":6870,"ĠFilipina":6871,"lands":6872,"ĠSaturday":6873,"934":6874,"Ġrec":6875,"Ġmenus":6876,"Guaranteed":6877,"ĠWET":6878,"ĠRimming":6879,"fk":6880,"ĠVen":6881,"ostum":6882,"Ġ106":6883,"iddle":6884,"Ġenglish":6885,"Ġmesmerizing":6886,"etal":6887,"Ġknock":6888,"ĠSatisfying":6889,"alarm":6890,"Ġles":6891,"701":6892,"bie":6893,"Ġimmedi":6894,"Ġprepare":6895,"waist":6896,"ANISH":6897,"ubs":6898,"ĠHIGHLY":6899,"Co":6900,"ĠBET":6901,"Ġyoure":6902,"Ġrend":6903,"ĠHale":6904,"ĠFen":6905,"lyn":6906,"Ġtrying":6907,"ask":6908,"ĠCler":6909,"Ġfill":6910,"ika":6911,"6034":6912,"390":6913,"ĠButt":6914,"Ġknees":6915,"Ġencounters":6916,"Ġsn":6917,"Ġbod":6918,"ĠClerkenwell":6919,"ĠMia":6920,"ĠInstagram":6921,"arter":6922,"115":6923,"..........":6924,"Ġstanding":6925,"Ġdeepest":6926,"Ġdom":6927,"ĠPhilippines":6928,"Age":6929,"ĠBRAMPTON":6930,"ĠIsland":6931,"ĠHosting":6932,"Ġlength":6933,"independent":6934,"Ġindustry":6935,"LEX":6936,"yahoo":6937,"Snapchat":6938,"GR":6939,"zdz":6940,"Ġmanne":6941,"YPE":6942,"Ġwine":6943,"Le":6944,"ĠLADY":6945,"ĠWet":6946,"ĠTher":6947,"ĠNEGOTIABLE":6948,"Ġpush":6949,"adise":6950,"Ġ0744":6951,"Lo":6952,"327":6953,"ĠCLI":6954,"IZE":6955,"pending":6956,"morous":6957,"respectful":6958,"Ġcaring":6959,"909":6960,"ĠWeek":6961,"ternational":6962,"Ġrendez":6963,"LR":6964,"half":6965,"yo":6966,"edium":6967,"Ready":6968,"ĠPRIN":6969,"Ġgives":6970,"Ġcozy":6971,"ĠDreams":6972,"With":6973,"eight":6974,"ĠAVAILA":6975,"Ġthats":6976,"lower":6977,"Ġattraction":6978,"975":6979,"lets":6980,"ird":6981,"Ġ******":6982,"ĠElite":6983,"ĠSORRY":6984,"Ġpower":6985,"Ġhourglass":6986,"ĠYoU":6987,"ĠGatwick":6988,"onna":6989,"ĠCustom":6990,"668":6991,"GHT":6992,"ĠANYTHING":6993,"urse":6994,"409":6995,"Ġemp":6996,"ĠStyle":6997,"218":6998,"Ġjo":6999,"ĠFantasies":7000,"ĠComplete":7001,"IDE":7002,"ĠPancras":7003,"ĠMilf":7004,"ĠLife":7005,"Ġdiscuss":7006,"cement":7007,"Ġspec":7008,"ĠULT":7009,"ĠBreak":7010,"ĠROOM":7011,"ĠFO":7012,"ĠFilipino":7013,"Ġ47":7014,"ONEY":7015,"ulfill":7016,"FULL":7017,"Ġtissue":7018,"ĠMessage":7019,"phanie":7020,"Ġdoesn":7021,"ANA":7022,"iyah":7023,"ĠFast":7024,"appointment":7025,"Ġrefresh":7026,"ĠKennington":7027,"Ġfamiliar":7028,"ĠSING":7029,"695":7030,"Ġdecent":7031,"encies":7032,"ĠWAIT":7033,"vable":7034,"Ġthugs":7035,"ĠDFK":7036,"matched":7037,"chocolate":7038,"ĠCALGARY":7039,"ĠTaylor":7040,"ĠREG":7041,"Ġdeals":7042,"ĠWealdstone":7043,"Ġmannered":7044,"Ġtender":7045,"ĠWon":7046,"CES":7047,"Ġactiv":7048,"ĠHard":7049,"Ġlic":7050,"ĠNEGOTI":7051,"clo":7052,"isted":7053,"iscuous":7054,"Ġlimit":7055,"erley":7056,"Ġcourt":7057,"club":7058,"______":7059,"ĠPLS":7060,"Ġleft":7061,"BILITY":7062,"ĠSNS":7063,"ared":7064,"ĠInterested":7065,"hearted":7066,"ĠAnerley":7067,"ĠCarmen":7068,"603448":7069,"Ġsett":7070,"Ġ07907":7071,"ANN":7072,"ĠUpminster":7073,"FETISH":7074,"abi":7075,"iled":7076,"Ġhottest":7077,"itties":7078,"Ġspontaneous":7079,"ĠBROWN":7080,"ĠYEARS":7081,"Ġdrink":7082,"Ġ07907603448":7083,"reak":7084,"ĠComfortable":7085,");":7086,"ĠAIR":7087,"ANY":7088,"Ġfig":7089,"Ġexcess":7090,"ĠMaria":7091,"figured":7092,"Ġespecially":7093,"Ġ0750":7094,"883":7095,"isting":7096,"ĠMayfair":7097,"ĠAmber":7098,"ĠITS":7099,"Ġsuccessful":7100,"erry":7101,"ĠBAREBACK":7102,"ĠKitchener":7103,"deg":7104,"773":7105,"222":7106,"ASE":7107,"ĠKIND":7108,"Soft":7109,"ĠWASTERS":7110,"ĠESCORTS":7111,"bertine":7112,"Ġpat":7113,"Olympia":7114,"999":7115,"ĠFu":7116,"ĠMODEL":7117,"ĠHOPE":7118,"241":7119,"isk":7120,"Ġpain":7121,"held":7122,"268":7123,"Ġdonations":7124,"ĠAttractive":7125,"Ġfavourite":7126,"ĠFenchurch":7127,"ira":7128,"ensive":7129,"Ġunh":7130,"Ġphysique":7131,"Ġfat":7132,"ĠUnmarried":7133,"ĠREQUIRE":7134,"415":7135,"Ġsensually":7136,"Ġaccurate":7137,"pounds":7138,"ATT":7139,"ALF":7140,"Ġstunningly":7141,"ssy":7142,"ĠGerman":7143,"serious":7144,"Ġfore":7145,"aged":7146,"THE":7147,"ĠULTIMATE":7148,"Ġmean":7149,"ĠBath":7150,"Ġappreciated":7151,"ublic":7152,"ĠTHERE":7153,"aff":7154,"Ġview":7155,"ĠEL":7156,"Here":7157,"honey":7158,"ĠBrazil":7159,"230":7160,"zro":7161,"Ġinches":7162,"Ġpage":7163,"Ġavai":7164,"Ġbridge":7165,"FR":7166,"Ġattached":7167,"zrovia":7168,"ĠEva":7169,"sted":7170,"Ġord":7171,"Ġaccompan":7172,"Ġcasual":7173,"ĠDESIRES":7174,"Ġconfirm":7175,"inous":7176,"Ġpapi":7177,"ionally":7178,"601":7179,"ĠSTUNNING":7180,"ĠShowers":7181,"your":7182,"Ġ230":7183,"ĠLOT":7184,"Ġgrat":7185,"ĠSutton":7186,"Ġcutie":7187,"alking":7188,"Ġbey":7189,"Ġindependently":7190,"adison":7191,"ĠLbs":7192,"ĠSecret":7193,"Ġ59":7194,"ĠWASTE":7195,"itment":7196,"Ġleg":7197,"Ġentr":7198,"ekh":7199,"823":7200,"FORD":7201,"rill":7202,"eeles":7203,"ĠArrived":7204,"Ġ43":7205,"IFIED":7206,"Ġfantas":7207,"Ġswitch":7208,")/":7209,"ĠIndones":7210,"Ġshap":7211,"oes":7212,"ĠHh":7213,"ĠVIDEO":7214,"ĠSessions":7215,"Ġ10000":7216,"ITA":7217,",,,":7218,"Mind":7219,"WY":7220,"uki":7221,"Ġhaired":7222,"rous":7223,"Ġyoull":7224,"ĠFulfill":7225,"Ġbeyond":7226,"ht":7227,"::::":7228,"ervices":7229,"oping":7230,"LINE":7231,"105":7232,"ettish":7233,"ymph":7234,"ounts":7235,"ussi":7236,"of":7237,"EROUS":7238,"*.":7239,"ĠPure":7240,"Ġdiss":7241,"Ġtransfer":7242,"Ġbold":7243,"ĠEll":7244,"ĠLanguages":7245,"Ġreasonable":7246,"Ġcheer":7247,"ĠGuelph":7248,"Ġproblem":7249,"ĠQUE":7250,"BP":7251,"Ġrd":7252,"ĠCheap":7253,"ĠSMALL":7254,"ĠCUM":7255,"quet":7256,"fly":7257,"ANNA":7258,"illa":7259,"ĠSPANISH":7260,"stick":7261,"ĠDA":7262,"Ġ077":7263,"mming":7264,"ĠSIL":7265,"ĠMULTIPLE":7266,"585":7267,"ĠMON":7268,"691":7269,"Ġkept":7270,"Ġspa":7271,"GO":7272,"Ġfive":7273,"Ġcm":7274,"ĠYOURSELF":7275,"gest":7276,"Ġhusband":7277,"ĠLots":7278,"ĠBi":7279,"azz":7280,"ĠHun":7281,"ĠStansted":7282,"Ġprofession":7283,"ĠPlz":7284,"cing":7285,"ĠGentle":7286,"Ġplayfully":7287,"Ġarticulate":7288,"ĠJAPANESE":7289,"ĠBet":7290,"ĠThursday":7291,"RAS":7292,"ĠBlowjob":7293,"COL":7294,"oups":7295,"ĠPolite":7296,"DOM":7297,"690":7298,"DISCREET":7299,"DEPENDANT":7300,"legance":7301,"ĠExperienced":7302,"Ġgoes":7303,"Ġwalking":7304,"apoint":7305,"Ġrecently":7306,"atively":7307,"ada":7308,"408":7309,"ĠMichelle":7310,"Ġ155":7311,"Ġthree":7312,"ĠWebsite":7313,"ASSION":7314,"Ġunless":7315,"ĠShowered":7316,"Ġseconds":7317,"IQUE":7318,"ancy":7319,"Ġdzekh":7320,"ĠDET":7321,"-:":7322,"ĠBare":7323,"Contact":7324,"bou":7325,"ĠMaya":7326,"Ġrude":7327,"ĠCANAD":7328,"Ġpound":7329,"ĠPORN":7330,"ĠHAM":7331,"IER":7332,"Ġdrug":7333,"Ġslo":7334,"ĠSamantha":7335,"satisfied":7336,"ura":7337,">>:":7338,"347":7339,"Ġ17":7340,"486":7341,"ĠOshawa":7342,"oci":7343,"287":7344,"Ġwife":7345,"irable":7346,"ĠCondom":7347,"lford":7348,"protected":7349,"Ġstud":7350,"29903":7351,"aughan":7352,",&":7353,"Ġbelle":7354,"active":7355,"ĠAnything":7356,"ĠSMS":7357,"Ġstocking":7358,"left":7359,"Ġsteamy":7360,"ĠLuton":7361,"Ġfact":7362,"Ġarrangement":7363,"ĠSonam":7364,"Ġ075729903":7365,"bouquet":7366,"ĠJO":7367,"ĠOil":7368,"ĠThroat":7369,"ĠTues":7370,"ĠTHANKS":7371,"Ġaussi":7372,"ona":7373,"ĠSeXy":7374,"Blonde":7375,"ianca":7376,"ĠSend":7377,"ĠBeing":7378,"NOWN":7379,"yn":7380,"arn":7381,"Ġdrop":7382,"ted":7383,"ĠDLR":7384,"Ġthought":7385,"Ġconsider":7386,"ĠDrug":7387,"ĠPROMISE":7388,"Ġfigur":7389,"arkle":7390,"See":7391,"PPERS":7392,"ĠPRINCESS":7393,"arket":7394,"ailand":7395,"ĠTogether":7396,"Ġnude":7397,"489":7398,"ĠLadies":7399,"ĠTanned":7400,"243":7401,"ĠProviding":7402,"Ġblo":7403,"Ġchange":7404,"izz":7405,"Ġhang":7406,"cedes":7407,"OTE":7408,"ĠDelight":7409,"bur":7410,"ASIAN":7411,"ummer":7412,"ĠMISSISSAUGA":7413,"ĠDesc":7414,"Ġcrave":7415,"Ġcreamy":7416,"wee":7417,"alo":7418,"Ġmyst":7419,"ĠVix":7420,"Ġboring":7421,"Ġdominant":7422,"mma":7423,",.":7424,"ĠTattoos":7425,"Ġvariety":7426,"ILLER":7427,"ATY":7428,"tw":7429,"ĠDETAILS":7430,"LESS":7431,"VILLE":7432,"iko":7433,"ĠEye":7434,"ASH":7435,"Ġune":7436,"market":7437,"ĠSCARBOROUGH":7438,"icks":7439,"ĠImag":7440,"Ġhappiness":7441,"ĠFlirtatious":7442,"BEST":7443,"ĠMatch":7444,"ĠXXX":7445,"away":7446,"load":7447,"ĠDart":7448,"Ġ||":7449,"Ġgraceful":7450,"ĠSHORT":7451,"ĠEt":7452,"ĠOTHER":7453,"achelor":7454,"ĠTiny":7455,"ĠHALF":7456,"Ġ0785":7457,"Ġspir":7458,"plant":7459,"885":7460,"Classy":7461,"edic":7462,"900":7463,"Ġstrive":7464,"Ġchinese":7465,"lection":7466,"Ġinquire":7467,"ART":7468,"410":7469,"reate":7470,"Ġed":7471,"Ġ95":7472,"Ġviv":7473,"ĠMonica":7474,"ĠPo":7475,"777":7476,"Ġdecide":7477,"Ġassets":7478,"egg":7479,"wickenham":7480,"Ġpopular":7481,"OUCH":7482,"uel":7483,"ĠTS":7484,"ĠWelland":7485,"Ġstripper":7486,"498":7487,"ffee":7488,"rets":7489,"Ġsafety":7490,"etimes":7491,"wards":7492,"eled":7493,"CED":7494,"ĠPASSION":7495,"usi":7496,"eggplant":7497,"AB":7498,"wings":7499,"Ġinn":7500,"osition":7501,"CIM":7502,"ĠBOOBS":7503,"ĠDate":7504,"Ġ4039":7505,"998":7506,"Ġsun":7507,"Tight":7508,"LER":7509,"345":7510,"weebly":7511,"quarter":7512,"Ġluv":7513,"ĠLEAVE":7514,"Ġluxurious":7515,"Ġ365":7516,"ĠFREAKY":7517,"Ġirresistible":7518,"721":7519,"Ġcard":7520,"ĠWONT":7521,"Ġlead":7522,"Ġdiscount":7523,"Ġpositive":7524,"Ġmuse":7525,"ĠSun":7526,"Ġvoy":7527,"velop":7528,"Ġexcessive":7529,"Ġ-_-_-_-_-_-":7530,"ha":7531,"acey":7532,"Shower":7533,"ĠNear":7534,"Ġconnection":7535,"ĠFIRM":7536,"Ġdeposit":7537,"ĠLexi":7538,"ĠBookings":7539,"ĠDur":7540,",$":7541,"ĠOpenminded":7542,"icky":7543,"359":7544,"ĠHON":7545,"ĠMany":7546,"ĠElegant":7547,"ĠFigure":7548,"896":7549,"iki":7550,"ĠABSOLUTELY":7551,"ĠCuddling":7552,"ĠIve":7553,"ĠSUN":7554,"346":7555,"ĠDISC":7556,"alacious":7557,"ĠCambridge":7558,"EM":7559,"Ġunknown":7560,"ĠBS":7561,"used":7562,"Ġma":7563,"ĠCHOICE":7564,"antford":7565,"166":7566,"ĠEmily":7567,"axi":7568,"axim":7569,"ĠJenny":7570,"Ġcla":7571,"ĠHOST":7572,"Ġproblems":7573,"ĠJu":7574,"DUO":7575,"omi":7576,"ookie":7577,"TYLE":7578,"ĠSparkling":7579,"ostumes":7580,"Ġrough":7581,"Ġven":7582,"Ġchamp":7583,"oli":7584,"shoe":7585,"Wild":7586,"ĠDiamond":7587,"ĠDani":7588,"Ġintim":7589,"ĠSPE":7590,"USSY":7591,"Ask":7592,"ĠAVAILABILITY":7593,"Ġtran":7594,"ĠFellas":7595,"170":7596,"952":7597,"Ġfar":7598,"ĠMs":7599,"ĠKILLER":7600,"reshed":7601,"925":7602,"idential":7603,"~~~~~~~~":7604,"Ġpimps":7605,"ĠFIND":7606,"Ġ78":7607,"ĠBritt":7608,"ĠFake":7609,"abulous":7610,"Ġresist":7611,"mission":7612,"Non":7613,"Ġgreet":7614,"ĠDR":7615,"Ġ!!!!!":7616,"Ġsom":7617,"quettish":7618,"Ġstrings":7619,"Ġkings":7620,"ĠSpain":7621,"ĠRelie":7622,"ĠHONEST":7623,"737":7624,"ĠEnergy":7625,"ĠTILL":7626,"Ġnegotiations":7627,"ĠMi":7628,"disc":7629,"ĠGRE":7630,"Ġnymph":7631,"ori":7632,"ERB":7633,"290":7634,"ĠSin":7635,"police":7636,"aired":7637,"Ġalmost":7638,"entious":7639,"AX":7640,"Ġll":7641,"Ġfinish":7642,"oxy":7643,"acher":7644,"215":7645,"candy":7646,"ĠSmoking":7647,"essing":7648,"Ġsocial":7649,"Ġ07440":7650,"Se":7651,"entlemens":7652,"Exp":7653,"anel":7654,"ĠNOR":7655,"riction":7656,"ĠTOUCH":7657,"mn":7658,"Ġcatering":7659,"ites":7660,"Ġfront":7661,"ĠLuxury":7662,"gry":7663,"tree":7664,"ĠHOTT":7665,"ĠADDICTING":7666,"Ġ078":7667,"Love":7668,"Duo":7669,"Ġavec":7670,"DDESS":7671,"Ġappetite":7672,"bunny":7673,"ĠWomen":7674,"ĠMandy":7675,"Ġblissful":7676,"ĠAnita":7677,"MINS":7678,"ĠPACK":7679,"Satisf":7680,"Ġrefreshed":7681,"ĠVixen":7682,"Ġaddicting":7683,"Ġfucking":7684,"Ġdreamed":7685,"ĠCENT":7686,"Ġ:*":7687,"raising":7688,"Ġcharg":7689,"Respectful":7690,"ontario":7691,"Ġsimple":7692,"Ġrespons":7693,"ĠVIDEOS":7694,"ĠMistress":7695,"Sp":7696,"exley":7697,"ĠXOXO":7698,"ĠCa":7699,"Ġroll":7700,"OUNT":7701,"Ġeasygoing":7702,"617":7703,"ĠUnit":7704,"ĠSteamy":7705,"Sm":7706,"Ġsassy":7707,"Ġmanicured":7708,"Ġlimits":7709,"foot":7710,"365":7711,"Ġshameless":7712,"Ġoutside":7713,"RIPPERS":7714,"Ġones":7715,"ĠOnce":7716,"Relax":7717,"Ġwhit":7718,"471":7719,"ĠSTOP":7720,"3336":7721,"Girlfriend":7722,"RIDAY":7723,"PRIVATE":7724,"493":7725,"ĠASAP":7726,"VING":7727,"ĠSilver":7728,"Yes":7729,"ĠFee":7730,"ooke":7731,"776":7732,"ENTION":7733,"{}{}":7734,"ICAL":7735,"fford":7736,"ilk":7737,"Ġusing":7738,"mpting":7739,"terfly":7740,"ĠAWAY":7741,"ĠNationalities":7742,"Ġenth":7743,"bo":7744,"Ġtitillating":7745,"ience":7746,"Ġfu":7747,"ICAN":7748,"Ġrid":7749,"apointed":7750,"Ġpress":7751,"Ġexch":7752,"Ġsmelling":7753,"Ġfees":7754,"lipstick":7755,"ĠRelaxation":7756,"ĠDouble":7757,"ensed":7758,"veloped":7759,"unhead":7760,"Ġtitties":7761,"267":7762,"ĠKitty":7763,"ĠThighs":7764,"uary":7765,"Ġregulars":7766,"Ġfigured":7767,"205":7768,"ASTY":7769,"Ġcommun":7770,"ougar":7771,"Ġgratifying":7772,"PLY":7773,"ĠEXCE":7774,"iveness":7775,"ĠFANTASIES":7776,"Ġ107":7777,"Ġenthusi":7778,"wall":7779,"Ġcam":7780,"Highly":7781,"Ġcenter":7782,"ĠAlbert":7783,"ĠGODDESS":7784,"ĠCoco":7785,"nock":7786,"Ġpleaser":7787,"Ġ__":7788,"Ġexceed":7789,"Ġstarting":7790,"asci":7791,"ically":7792,"ĠNiagara":7793,"Ġastonishingly":7794,"Ġweak":7795,"Ġcertified":7796,"Ġcomplement":7797,"Ġinvite":7798,"ascivious":7799,"MF":7800,"ĠHAMILTON":7801,"434":7802,"ĠSTYLE":7803,"ĠTasty":7804,"rt":7805,"ĠAppointments":7806,"Elite":7807,"ĠEMAIL":7808,"isqu":7809,"ĠMong":7810,"ĠMongol":7811,"ĠBOTH":7812,"ifer":7813,"ĠPleasing":7814,"ici":7815,"ĠJan":7816,"Ġrelating":7817,"Ġinvolving":7818,"Ġkitten":7819,"ĠSat":7820,"Ġcold":7821,"Ġkent":7822,"ĠPenis":7823,"neak":7824,"Anytime":7825,"Ġalready":7826,"694":7827,":$$":7828,"enez":7829,"ugging":7830,"ĠHwy":7831,"ĠDAN":7832,"Ġling":7833,"ĠRub":7834,"OSE":7835,"ĠLAW":7836,"als":7837,"ĠDev":7838,"Ġpresent":7839,"VY":7840,"Ġmod":7841,"Ġcountry":7842,"heeled":7843,"estyle":7844,"922":7845,"bosom":7846,"ĠTexts":7847,"developed":7848,"Ġsocietal":7849,"Ġfiguratively":7850,"bosomed":7851,"249":7852,"Ġtrip":7853,"Ġappt":7854,"175":7855,"ĠHAND":7856,"Ġ267":7857,"loy":7858,"ĠCOB":7859,"ĠThugs":7860,"Ġser":7861,"Ġrange":7862,"Face":7863,"Ġcreate":7864,"Ġwithheld":7865,"ĠEXTRAS":7866,"ĠReach":7867,"1000":7868,"ĠHuge":7869,"LLOW":7870,"Ġentertainment":7871,"ĠSim":7872,"eur":7873,"ĠTonight":7874,"west":7875,"ICS":7876,"asters":7877,"ume":7878,"Busty":7879,"Ġauthentic":7880,"Ġmanners":7881,"ĠAROUND":7882,"Ġeroticism":7883,"ĠWednes":7884,"Ds":7885,"Ġwide":7886,"ĠVal":7887,"Ġwelcoming":7888,"ĠTwo":7889,"Ġcomplic":7890,"Ġcravings":7891,"ĠDATES":7892,"int":7893,"nice":7894,"ĠBUR":7895,"Ġ4036":7896,"ĠTHUGS":7897,"Ġpoit":7898,"165":7899,"ains":7900,"uent":7901,"Drama":7902,"mium":7903,"ĠACCEPTED":7904,"Ġcaress":7905,"people":7906,"ĠLowest":7907,"TRANS":7908,"har":7909,"271":7910,"ĠLuv":7911,"Petite":7912,"ĠFUL":7913,"362":7914,"Ġnearby":7915,"Ġtimers":7916,"Ġafternoon":7917,"Thick":7918,"IVING":7919,"VIP":7920,"baby":7921,"Ġaverage":7922,"IRTY":7923,"BBBJ":7924,"Ġtypical":7925,"gan":7926,"ĠTHEN":7927,"Ġdrugs":7928,"Ġwhether":7929,"ĠEducated":7930,"ELLA":7931,"Ġgonna":7932,"Rates":7933,"Ġadditional":7934,"leep":7935,"ĠORAL":7936,"ĠSLIM":7937,"ĠChoice":7938,"Ġcult":7939,"ĠWelcom":7940,"ĠDec":7941,"Ġnotch":7942,"ĠTeasing":7943,"ĠGENEROUS":7944,"Ġcannot":7945,"ensington":7946,"Ġsmell":7947,"always":7948,"Ġbuilt":7949,"708":7950,"dr":7951,"unj":7952,"_____":7953,"878":7954,"ĠStraight":7955,"ĠFemales":7956,"asons":7957,"<>":7958,"princess":7959,"ĠLapd":7960,"AZIL":7961,"ĠMa":7962,"Ġdelicate":7963,"Ġmain":7964,"ĠPorn":7965,"ĠJulia":7966,"ĠVideo":7967,"ĠAIRPORT":7968,"ĠBoo":7969,"201":7970,"SOG":7971,"930":7972,"ĠAngela":7973,"Ġattend":7974,"ĠLooks":7975,"plies":7976,"Ġlifestyle":7977,"MA":7978,"Ġpublic":7979,"OSS":7980,"ĠTHEY":7981,"limited":7982,"Role":7983,"ĠCle":7984,"ription":7985,"Ġnuru":7986,"Green":7987,"MI":7988,"ĠBBM":7989,"Ġcovered":7990,"receiving":7991,"Ġevent":7992,"essica":7993,"Ġ0740":7994,"ĠImagine":7995,"hello":7996,"Ġrooms":7997,"mal":7998,"ĠRequest":7999,"Ġ975":8000,"ĠSTRESS":8001,"Korean":8002,"Ġredu":8003,"ellow":8004,"special":8005,"ouched":8006,"entry":8007,"Ġallowed":8008,"ĠReliable":8009,"Ġhoping":8010,"Ġcanary":8011,"eries":8012,"Italian":8013,"!!:":8014,"Ġselective":8015,"Ġlifetime":8016,"London":8017,"ĠMAY":8018,"Ġending":8019,"fu":8020,"Ġlovers":8021,"ĠFavorite":8022,"388":8023,"Ġpix":8024,"ĠOrient":8025,"Ġfulfilled":8026,"ĠLate":8027,"mere":8028,"ĠFreshly":8029,"Ġfour":8030,"ĠCatering":8031,"Toronto":8032,"pin":8033,"onica":8034,"ĠPROVIDER":8035,"$$$$$$$$$$$$":8036,"Ġwatching":8037,"umiliation":8038,"ĠBackground":8039,"Ġtypes":8040,"Erotic":8041,"four":8042,"ĠMutual":8043,"ĠFall":8044,"188":8045,"ĠTreatment":8046,"KNOWN":8047,"Ġbbfs":8048,"Ġstimulated":8049,"Ġxoxoxo":8050,"ĠMU":8051,"nie":8052,"forcement":8053,"halo":8054,"INESS":8055,"FA":8056,"TXT":8057,"Ġ317":8058,"ĠNina":8059,"Ġreplies":8060,"ANE":8061,"girls":8062,"Ġ07548":8063,"rect":8064,"ĠExcept":8065,"ĠLily":8066,"ĠFINEST":8067,"209":8068,"Ġlew":8069,"Ġsince":8070,"Ġ75":8071,"Ġproud":8072,"ĠPARKING":8073,"ĠBETTER":8074,"Gentleman":8075,"ype":8076,"ousing":8077,"ĠAri":8078,"618":8079,"atina":8080,"ĠEUR":8081,"Ġelegance":8082,"Treat":8083,"Ġkink":8084,"Ġtherapeutic":8085,"Ġdetail":8086,"Ġemploy":8087,"ĠBRE":8088,"Ġpiercings":8089,"_______":8090,"278":8091,"Ġteacher":8092,"8887":8093,"ĠUSE":8094,"ĠSeeking":8095,"Ġexceptions":8096,"Ġcomplemented":8097,"Ġ:(":8098,"ĠLic":8099,"ĠDeserve":8100,"Ġluck":8101,"Ġongoing":8102,"Ġpreference":8103,"Ġfiner":8104,"gle":8105,"azzling":8106,"ĠAway":8107,"ĠAnna":8108,"ĠBOOKINGS":8109,"ĠINDEPENDANT":8110,"iger":8111,"Ġunhappy":8112,"214":8113,"ĠCatch":8114,"Ġexquisite":8115,"ĠSugar":8116,"ĠFel":8117,"stop":8118,"Ġskis":8119,"ĠRegents":8120,"Ġhidden":8121,"Ġhookup":8122,"ĠPUSSY":8123,"ĠLine":8124,"ETTE":8125,"outlook":8126,"ĠSpoil":8127,"kg":8128,"Ġddf":8129,"She":8130,"ĠBu":8131,"LAR":8132,"Ġchick":8133,"Ġpast":8134,"Ġrunning":8135,"ennifer":8136,"ĠKIM":8137,"Ġsweetness":8138,"Ġupd":8139,"485":8140,"Ġsix":8141,"Ġbait":8142,"ĠTEL":8143,"What":8144,"Ġjoy":8145,"ĠKOREAN":8146,"Per":8147,"INNER":8148,"Ġmention":8149,"Ġnegotiate":8150,"ĠCharl":8151,"Ġescorting":8152,"ĠWEST":8153,"Ġindulg":8154,"ĠDocklands":8155,"Ġprotection":8156,".........":8157,"IMPS":8158,"Ġfabulous":8159,"LINGTON":8160,"ĠBright":8161,"ĠLaw":8162,"ril":8163,"YY":8164,"ajor":8165,"Ġincredibly":8166,"ules":8167,"urontario":8168,"ĠStephanie":8169,"Ġblowjob":8170,"fetishes":8171,"Lu":8172,"Ġdeg":8173,"available":8174,"Ġmark":8175,"ĠEver":8176,"ĠTantalizing":8177,"live":8178,"Ġgets":8179,"723":8180,"ĠROCK":8181,"ĠADV":8182,"BALLERS":8183,"Ġcarry":8184,"ĠWAIST":8185,"ĠPamper":8186,"ĠPACKAGE":8187,"Ġcr":8188,"Ġdiffic":8189,"Ġmot":8190,"ĠSUR":8191,"ĠMIND":8192,"Ġravishing":8193,"ĠANITA":8194,"Ġsecretary":8195,"Ġeas":8196,"ĠBeaut":8197,"year":8198,"ĠBianca":8199,"Ġseeks":8200,"ĠPers":8201,"ami":8202,"Ġ794":8203,"Ġtomor":8204,"ĠHis":8205,"Ġtast":8206,"ĠVERIFIED":8207,"Ġcalgary":8208,"ĠFurther":8209,"ĠWARM":8210,"atsu":8211,"724":8212,"ĠToned":8213,"635":8214,"ĠKnow":8215,"Ġ075483336":8216,"ĠBlock":8217,"ĠBOYS":8218,"TAIN":8219,"]:":8220,"Ġimpeccable":8221,"ndas":8222,"Ġindependant":8223,"704":8224,"Ġprs":8225,"ials":8226,"ĠThese":8227,"ĠParties":8228,"ĠFFM":8229,"ASK":8230,"Ġshowers":8231,"ĠUNIQUE":8232,"ĠHOTELS":8233,"works":8234,"320":8235,"ĠPRICE":8236,"ĠSATISFY":8237,"Ġ))":8238,"325":8239,"829":8240,"Ġtons":8241,"Ġfreed":8242,"Ġthemselves":8243,"ĠWicked":8244,"ĠSHOWS":8245,"em":8246,"pite":8247,"Anal":8248,"izzy":8249,"STAR":8250,"ĠSESSION":8251,"stant":8252,"Ġunsatisfied":8253,"Ġ07425":8254,"334":8255,"655":8256,"888":8257,"ACTIVE":8258,"================":8259,"OTECT":8260,"gen":8261,"ĠKeep":8262,"RIOR":8263,"ottle":8264,"490":8265,"Ġaval":8266,"Fetishes":8267,"Ġdifficult":8268,"Ġconfidential":8269,"Hola":8270,"Ġsight":8271,"COMM":8272,"voir":8273,"INGS":8274,"ĠWilling":8275,"Ġtomorrow":8276,"Ġfreedom":8277,"Ġreduce":8278,"Ġenjoying":8279,"harbour":8280,"801":8281,"879":8282,"Ġ74":8283,"ĠExpl":8284,"Ġmemories":8285,"ĠNext":8286,"ĠPapi":8287,"583":8288,"Ġecst":8289,"DON":8290,"Ġarr":8291,"aren":8292,"jo":8293,"Ġ====":8294,"exting":8295,"class":8296,"ĠFirm":8297,"iatsu":8298,"ĠRESTRICTION":8299,"ĠROLE":8300,"IO":8301,"Pe":8302,"Ġadventures":8303,"enzie":8304,"asian":8305,"ĠYUM":8306,"ENER":8307,"ĠSIZE":8308,"Ġple":8309,"ĠFair":8310,"ballers":8311,"Ġdazzling":8312,"Ġskinned":8313,"ĠNatal":8314,"333":8315,"Ġrun":8316,"USIVE":8317,"Ġxxxx":8318,"Ġapt":8319,"ĠHome":8320,"beating":8321,"Ġtherapy":8322,"Ġbg":8323,"ĠHI":8324,"Ġ769":8325,"225":8326,"638":8327,"booking":8328,"ĠSATISFIED":8329,"Ġseductress":8330,"Ġsurprises":8331,"ĠCompany":8332,"ĠSher":8333,"earth":8334,"next":8335,"vert":8336,"rapped":8337,"441":8338,"ĠSMO":8339,"ĠLes":8340,"904":8341,"fill":8342,"ĠHWY":8343,"Ġspoiled":8344,"Ġimmediately":8345,"unjabi":8346,"ĠPur":8347,"ĠWhatever":8348,"Deep":8349,"Ġlink":8350,"Ġenhanced":8351,"Ġcertainly":8352,"ĠMUCH":8353,"808":8354,"ARK":8355,"lead":8356,"809":8357,"ĠJob":8358,"reatham":8359,"Ġcups":8360,"ĠMANY":8361,"ĠCLIENTS":8362,"issy":8363,"ctor":8364,"son":8365,"ĠTina":8366,"Ġredhead":8367,"305":8368,"262":8369,"ĠCARCALLS":8370,"Ġblk":8371,"Ġ503":8372,"Ġintimacy":8373,"ĠGoing":8374,"OUSE":8375,"Ġtalent":8376,"Multiple":8377,"Ġ\\":8378,"ĠBLOW":8379,"Ġdescription":8380,"Ġdisappointment":8381,"360":8382,"ĠBED":8383,"997":8384,"Ġexpected":8385,"Look":8386,"UNRUSHED":8387,"ĠEtobicoke":8388,"ISA":8389,"ĠHU":8390,"ĠMIXED":8391,"ĠChes":8392,"ĠQEW":8393,"ĠToo":8394,"ĠKnock":8395,"********************************":8396,"Ġ.......":8397,"839":8398,"Ġtrained":8399,"ĠCenter":8400,"ĠMorning":8401,"med":8402,"ITTLE":8403,"Ġrecommended":8404,"Ġshaped":8405,"Sorry":8406,"ĠLick":8407,"252":8408,"Ġcosy":8409,"Ig":8410,"ĠBreath":8411,"imehouse":8412,"ante":8413,"Gr":8414,"ĠMills":8415,"INESE":8416,"ĠPRICES":8417,"Ġindivid":8418,"ĠRelief":8419,"mind":8420,"ined":8421,"Ġbound":8422,"ianna":8423,"Rec":8424,"Ġnurse":8425,"ĠPay":8426,"ĠLAD":8427,"iner":8428,"Ġhous":8429,"ĠLATE":8430,"ĠLimehouse":8431,"Ġpaired":8432,"ĠCrossharbour":8433,"Ġindian":8434,"Ġdrinks":8435,"285":8436,"multi":8437,"pot":8438,"ĠSpend":8439,"ĠPSE":8440,"ĠLADIES":8441,"mans":8442,"ĠAim":8443,"ĠUnique":8444,"DUOS":8445,"ĠEAR":8446,"Cancer":8447,"Ġromance":8448,"ĠWatersports":8449,"1311":8450,"ĠBetter":8451,"Ġmor":8452,"Ġpas":8453,"ĠThailand":8454,"ĠShiatsu":8455,"Ġcharact":8456,"Ġ13":8457,"893":8458,"udge":8459,"gravia":8460,"Wa":8461,"539":8462,"ĠIam":8463,"ĠKar":8464,"Ġbarbie":8465,"ĠAlicia":8466,"Ġhappen":8467,"ĠDespite":8468,"iona":8469,"CRET":8470,"Ġboss":8471,"Ġdeliver":8472,"Ġcomplim":8473,"idcup":8474,"ĠCoCo":8475,"ĠCONTACTING":8476,"01":8477,"ĠLang":8478,"ĠHEIGHT":8479,"Ġstylish":8480,"ĠFitzrovia":8481,"Ġstrap":8482,"Ġarrangements":8483,"Ġbodies":8484,"938":8485,"ADE":8486,"GAR":8487,"LOW":8488,"Ġmiddle":8489,"exp":8490,"coming":8491,"portion":8492,"ĠJenna":8493,"Ġtransport":8494,"ĠSMOOTH":8495,"Ing":8496,"272":8497,"ĠJohns":8498,"Ġcomplications":8499,"ĠKEEP":8500,"Ġmill":8501,"Ġraces":8502,"ĠExpect":8503,"Ġdiscret":8504,"note":8505,"Ġaccommodate":8506,"946":8507,"Ġanim":8508,"Ġappro":8509,"angerous":8510,"Ġsurely":8511,"ĠForget":8512,"Ġswallow":8513,"319":8514,"hourglass":8515,"ierced":8516,"OSTATE":8517,"Favours":8518,"Ġ773":8519,"ĠWITHOUT":8520,"ĠMessaging":8521,"quiry":8522,"ĠThree":8523,"ansfers":8524,"MEN":8525,"ĠAbb":8526,"ĠRM":8527,"ĠDRESS":8528,"ĠREPLY":8529,"########":8530,"fferin":8531,"Disc":8532,"Ġ64779":8533,"697":8534,"pink":8535,"entre":8536,"ĠRUSHING":8537,"Ġinteresting":8538,"Ġnd":8539,"Ġreading":8540,"BOOK":8541,"ĠKiller":8542,"ĠPASSIONATE":8543,"HING":8544,"ersham":8545,"Ġconvenient":8546,"Canadian":8547,"orley":8548,"Ġ404":8549,"oup":8550,"Ġasking":8551,"lipp":8552,"Allow":8553,"Ts":8554,"ĠDan":8555,"anta":8556,"ĠChorley":8557,"ĠChesham":8558,"ĠChorleywood":8559,"ĠChalf":8560,"ĠAmersham":8561,"ĠChalfont":8562,"Hill":8563,"AID":8564,"ĠAddress":8565,"ĠRooms":8566,"liness":8567,"omsbury":8568,"venience":8569,"AVEN":8570,"ops":8571,"ĠPICT":8572,"IX":8573,"sex":8574,"Ġealing":8575,"ĠHrs":8576,"ĠKy":8577,"Ġcommitment":8578,"Men":8579,"Ġ489":8580,"Ġgone":8581,"Ġseven":8582,"Ġcor":8583,"elie":8584,"ĠAG":8585,"ICH":8586,"couples":8587,"iac":8588,"Ġmax":8589,"RIORITY":8590,"207":8591,"ĠBathurst":8592,"Sunday":8593,"ĠDear":8594,"OULD":8595,"GIRL":8596,"803":8597,"Ġ795":8598,"ĠPIMPS":8599,"501":8600,"781":8601,"ĠEMAILS":8602,"ĠAVE":8603,"))))":8604,"ĠDisappointments":8605,"Ġcustomers":8606,"ĠQUEEN":8607,"Ġlay":8608,"Ġ118":8609,"Ġmsg":8610,"ĠRD":8611,"Ġplaytime":8612,"ĠLil":8613,"ITCHENER":8614,"Couples":8615,"Ġtoronto":8616,"ential":8617,"ĠEND":8618,"hotel":8619,"ĠKatie":8620,"Ġyork":8621,"ĠEverywhere":8622,"Ġbouncy":8623,"ghts":8624,"fraid":8625,"ĠBrittany":8626,"edicured":8627,"------------":8628,"ĠKissable":8629,"Professional":8630,"Ġair":8631,"Ġsquare":8632,"Ġbooked":8633,"ĠBusiness":8634,"sl":8635,"ĠLola":8636,"Ġreput":8637,"ĠTWO":8638,"ĠPOL":8639,"Ġperform":8640,"gotiable":8641,"Satisfaction":8642,"ĠBelgravia":8643,"Ġfavor":8644,"ĠOct":8645,"Hh":8646,"abri":8647,"ĠRoleplay":8648,"echn":8649,"Ġswe":8650,"Ġsoul":8651,"ĠPimps":8652,"Ġexchange":8653,"lippery":8654,"ĠAIM":8655,"ĠEmma":8656,"Ġhygienic":8657,"875":8658,"ickmans":8659,"ickmansworth":8660,"Ġharrow":8661,"369":8662,"Bar":8663,"Ġmut":8664,"******":8665,"ĠGeorge":8666,"Ġsloppy":8667,"umb":8668,"leader":8669,"xley":8670,"602":8671,"ĠChanel":8672,"ĠCroxley":8673,"Ġthough":8674,"FITS":8675,"cream":8676,"Ġcalm":8677,"570":8678,"sw":8679,"ĠPINK":8680,"ĠExc":8681,"ĠDISCRET":8682,"MENTS":8683,"ĠARRIVED":8684,"ĠBRAZIL":8685,"ĠPREFER":8686,"edicated":8687,"arest":8688,"unchy":8689,"ssa":8690,"igin":8691,"Richmond":8692,"ĠEarl":8693,"Ġquickly":8694,"ĠIlford":8695,"COLATE":8696,"AH":8697,"ĠFACIAL":8698,"386":8699,"ĠBRUN":8700,"dom":8701,"allen":8702,"802":8703,"ĠSouthend":8704,"ĠDogging":8705,"989":8706,"Ġinteractive":8707,"ĠKayla":8708,"izes":8709,"ĠBrantford":8710,"Ġwatering":8711,"2937":8712,"Ġfoc":8713,"ĠLITTLE":8714,"Experience":8715,"367":8716,"ĠGoal":8717,"Ġcause":8718,"Ġenchanting":8719,"Ġseriously":8720,"Ġstarted":8721,"Ġclick":8722,"JO":8723,"Ġjapanese":8724,"pointed":8725,"Ġspoken":8726,"ĠDartmouth":8727,"ĠSHE":8728,"ĠTaking":8729,"autifull":8730,"caramel":8731,"Ġguest":8732,"maple":8733,"Ġtravelling":8734,"Ġdirectly":8735,"show":8736,"991":8737,"221":8738,"ĠPrince":8739,"dizzy":8740,"Ġstrip":8741,"ields":8742,"ĠAddicting":8743,"Ġ384":8744,"ĠMenus":8745,"ĠFAV":8746,"ĠPassion":8747,"chr":8748,"grinning":8749,"ĠRomford":8750,"Ġsupple":8751,"886":8752,"ĠVenice":8753,"718":8754,"ĠSmelling":8755,"ĠArrival":8756,"Ġsettle":8757,"ĠHUGE":8758,"ĠHampton":8759,"Ġmaid":8760,"Ġpol":8761,"Ġcand":8762,"ropical":8763,"Ġclosed":8764,"ILLED":8765,"Sc":8766,"Ġtu":8767,"ĠBloomsbury":8768,"LB":8769,"ĠEglinton":8770,"ĠANSWERED":8771,"stock":8772,"Ġ239":8773,"ĠVenez":8774,"ragr":8775,"797":8776,"384":8777,"hire":8778,"Ġtail":8779,"Ġwar":8780,"ROAT":8781,"ĠPICTURE":8782,"model":8783,"ETY":8784,"Ġfemme":8785,"UCK":8786,"ĠHumiliation":8787,"ĠGall":8788,"Ġlevels":8789,"ĠAlluring":8790,"Ġrecommend":8791,"ĠBREAST":8792,"ĠCredit":8793,"Ġetr":8794,"Ġmonths":8795,"BAR":8796,"Ġcurious":8797,"681":8798,"JUST":8799,"ĠMoney":8800,"ĠBeau":8801,"Ġsweep":8802,"Ġexpress":8803,"inity":8804,"ĠNunhead":8805,"Ġ02":8806,"itcham":8807,"Have":8808,"Ġafford":8809,"ĠRelease":8810,"ĠSexually":8811,"Downtown":8812,"enmark":8813,"ĠBlackwall":8814,"Ġassoci":8815,"ĠINDIAN":8816,"ĠPrim":8817,"ĠAPPOINTMENTS":8818,"ARE":8819,"Ġafraid":8820,"Ġlights":8821,"671":8822,"ĠSexual":8823,"ĠGateway":8824,"ĠPreferred":8825,"Not":8826,"Ġtouched":8827,"Ġsoothing":8828,"ĠJENN":8829,"ĠSpit":8830,"ching":8831,"balling":8832,"Lets":8833,"Ġorder":8834,"ĠSultry":8835,"ĠKe":8836,"138":8837,"ĠOakville":8838,"ĠPauls":8839,"496":8840,"ĠSnapchat":8841,"Ġemot":8842,"Ġawaits":8843,"ĠExplore":8844,"ĠEnt":8845,"BIN":8846,"Vis":8847,"Ġmel":8848,"Ġtexte":8849,"ĠREQUEST":8850,"Ġmarked":8851,"Ġbase":8852,"316":8853,"UOUS":8854,"flower":8855,"407":8856,"ĠTotal":8857,"ĠDELIGHT":8858,"Pr":8859,"pre":8860,"ĠTwickenham":8861,"ĠYours":8862,"dark":8863,"Ġbrand":8864,"FORM":8865,"ĠLust":8866,"Ġsweetie":8867,"Ġdepending":8868,"ĠOpenMind":8869,"557":8870,"ĠREQUIRED":8871,"ti":8872,"beautiful":8873,"ĠPERKY":8874,"Ġrendezvous":8875,"ĠSain":8876,"Ġhhr":8877,"ĠOnline":8878,"Ġwishes":8879,"LAND":8880,"ĠEtransfer":8881,"ĠBexley":8882,"ONGE":8883,"arent":8884,"seven":8885,"ilds":8886,"ocent":8887,"alfields":8888,"Ġextraordinary":8889,"iste":8890,"ĠHeart":8891,"FTER":8892,"ĠDisappointed":8893,"ĠJamess":8894,"NOT":8895,"off":8896,"484":8897,"ĠSpitalfields":8898,"ĠSidcup":8899,"Ph":8900,"870":8901,"Ġexceptionally":8902,"ĠSaints":8903,"ĠKay":8904,"agne":8905,"elligence":8906,"Ġstratford":8907,"Ġtoler":8908,"ĠMud":8909,"inda":8910,"ĠRomantic":8911,"ĠPoss":8912,"5266":8913,"Foot":8914,"OVER":8915,"ĠLAST":8916,"chute":8917,"essor":8918,"ĠLaura":8919,"ĠNEGOTIATIONS":8920,"ĠMudchute":8921,"pepper":8922,"acha":8923,"ĠSITE":8924,"una":8925,"Ġhumorous":8926,"ĠCurvaceous":8927,"Ġparle":8928,"ĠCarcalls":8929,"Ġhassle":8930,"ĠINTER":8931,"295":8932,"Ġselection":8933,"Ġaffair":8934,"ĠDevons":8935,"ros":8936,"Ġwomanly":8937,"ĠClick":8938,"ĠSands":8939,"ĠHOME":8940,"ĠProf":8941,"ĠBeauvoir":8942,"ĠDonation":8943,"ĠRoommie":8944,"YLA":8945,"fish":8946,"ĠTan":8947,"AKED":8948,"Ġbareback":8949,"Ġaccompany":8950,"722":8951,"Ġnaught":8952,"Ġspicy":8953,"ĠENFOR":8954,"Ġhispanic":8955,"ĠSILKY":8956,"Ġpear":8957,"rabb":8958,"276":8959,"Ġdear":8960,"ĠResidence":8961,"tyS":8962,"Ġrose":8963,"rr":8964,"Ġagree":8965,"review":8966,"556":8967,"710":8968,"ESSIONS":8969,"AUTION":8970,"806":8971,"MISS":8972,"Ġdiamond":8973,"Ġunmatched":8974,"ĠPrimrose":8975,"iah":8976,"lier":8977,"Ġhealthy":8978,"ĠWON":8979,"ĠCHOCOLATE":8980,"ĠFew":8981,"udes":8982,"ĠAgencies":8983,"488":8984,"ĠJw":8985,"Ġfemales":8986,"ĠMinutes":8987,"ĠEUROPE":8988,"Ġecstasy":8989,"adiant":8990,"iques":8991,"ĠDescription":8992,"Ġindividual":8993,"ĠEscape":8994,"ĠSafety":8995,"ĠNative":8996,"ĠMer":8997,"aire":8998,"619":8999,"atiable":9000,"ĠMESSAGES":9001,"ĠVi":9002,"iercing":9003,"ĠBallers":9004,"Ġwicked":9005,"ĠMo":9006,"short":9007,"ĠCHINESE":9008,"CURVY":9009,"ĠHispanic":9010,"Ġgreek":9011,"ĠTie":9012,"470":9013,"309":9014,"ĠTuesday":9015,"extra":9016,"ĠDundas":9017,"Ġroyalty":9018,"Ġbond":9019,"ĠCy":9020,"Ġ-$":9021,"amela":9022,"===":9023,"ĠSa":9024,"--:":9025,"ANDY":9026,"forth":9027,"Ġtrouble":9028,"Ġtantalizing":9029,"Ġhurry":9030,"ĠPE":9031,"ĠSouthall":9032,"ĠCHAR":9033,"Anna":9034,"Ġcheerleader":9035,"Ġbrains":9036,"ĠSIM":9037,"ĠFOUND":9038,"ĠBeckenham":9039,"Ġlunch":9040,"esmere":9041,"ĠSESSIONS":9042,"ĠCUP":9043,"ĠPurley":9044,"ĠAthletic":9045,"Ġsla":9046,"ĠTOLER":9047,"Ġperfection":9048,"verson":9049,"ĠElverson":9050,"onor":9051,"ze":9052,"iter":9053,"olie":9054,"Ġ77":9055,"074":9056,"ĠRaynes":9057,"ouver":9058,"805":9059,"ewife":9060,"void":9061,"ĠSilvertown":9062,"ĠMitcham":9063,"ĠLangdon":9064,"Ġvalley":9065,"ĠPudd":9066,"ĠDi":9067,"Ġstaff":9068,"Ġexploring":9069,"492":9070,"Ġtwice":9071,"ĠMadison":9072,"Ġnative":9073,"ferry":9074,"Ġ________________________________":9075,"ubby":9076,"Ġdistrict":9077,"ĠCASH":9078,"icle":9079,"ĠWestferry":9080,"ĠSheppard":9081,"Ġcapable":9082,"JU":9083,"ĠStay":9084,"293763":9085,"ĠGla":9086,"Ġwhose":9087,"ĠPARK":9088,"Ġseduction":9089,"Ġhello":9090,"Book":9091,"Ġbisexual":9092,"negotiable":9093,"ĠTotally":9094,"Com":9095,"panol":9096,"ĠQUICK":9097,"Ġvivacious":9098,"bank":9099,"done":9100,"Ġcostumes":9101,"Ġworks":9102,"Ġvalue":9103,"Services":9104,"ĠChilds":9105,"lovely":9106,"Ġaccommodating":9107,"Ġ0208":9108,"Ġ07438":9109,"ĠEarlsfield":9110,"ĠPM":9111,"ĠBELOW":9112,"ĠHarringey":9113,"ĠOffers":9114,"anya":9115,"ĠPonto":9116,"oreham":9117,"prus":9118,"ĠCuttyS":9119,"ĠGallions":9120,"ĠCyprus":9121,"ĠPudding":9122,"ĠPontoon":9123,"ĠCuttySark":9124,"mens":9125,"706":9126,"ĠLevels":9127,"ATIVE":9128,"Ġcompanions":9129,"ining":9130,":>>>":9131,"ĠBoreham":9132,"ĠOutCALL":9133,"ĠENTER":9134,"Ġqualities":9135,"portioned":9136,"Ġroommate":9137,"-(":9138,"role":9139,"995":9140,"ĠSTRAP":9141,"ĠBorehamwood":9142,"ĠKAT":9143,"Ġroleplay":9144,"ĠMaybe":9145,"ĠOuts":9146,"vie":9147,"ĠSteeles":9148,"Ġ807":9149,"Ġwaltham":9150,"ĠStud":9151,"ĠTHAI":9152,"Overnight":9153,"568":9154,"ging":9155,"Ġoutfit":9156,"Recent":9157,"ause":9158,"LLENT":9159,"Ġ98":9160,"ĠTurned":9161,"ĠWednesday":9162,"ĠAFTER":9163,"Ġ^":9164,"Ġmir":9165,"Ġentire":9166,"ĠMalden":9167,"young":9168,"Ġestab":9169,"Ġcuddles":9170,"312":9171,"Ġyouve":9172,"IRT":9173,"Ġvarious":9174,"_-_-_-_-_-_":9175,"Ay":9176,"Ġkensington":9177,"yellow":9178,"Ġaction":9179,"Ġarrive":9180,"passion":9181,"ĠCATER":9182,"ĠBloor":9183,"Ġ_-_-_-_-_-_":9184,"Ġtrain":9185,"lla":9186,"Ġfel":9187,"Ġsophistic":9188,"ĠPenetration":9189,",:":9190,"216":9191,"ĠTaste":9192,"ĠFRIDAY":9193,"++++":9194,"Playful":9195,"Ġsinful":9196,"Ġcatch":9197,"Kinky":9198,"667":9199,"pla":9200,"Ġwarmth":9201,"OINTED":9202,"ASY":9203,"273":9204,"Ġcredit":9205,"406":9206,"ĠMagical":9207,"631":9208,"ĠTex":9209,"ĠVaughan":9210,"Ġword":9211,"Ġstandards":9212,"Ġdisease":9213,"Ġpull":9214,"Ġcarcalls":9215,"sports":9216,"Ġcurling":9217,"Ġlisted":9218,"Ġbud":9219,"Ġintelligence":9220,"ancouver":9221,"bably":9222,"ĠId":9223,"Ġbrings":9224,"fireworks":9225,"GETHER":9226,"IKKI":9227,"Ġpi":9228,"antel":9229,"CEMENT":9230,"annon":9231,"ĠSpice":9232,"ĠLeg":9233,"ĠVIPFavours":9234,"GGY":9235,"pril":9236,"Ġlater":9237,"Ġstresses":9238,"ects":9239,"ORAL":9240,"ĠEnvironment":9241,"Ġdissapointed":9242,"ĠPersian":9243,"banknote":9244,"Blocked":9245,"Ġuniforms":9246,"Ġmysterious":9247,"FIR":9248,"ĠNAKED":9249,"ĠAnD":9250,"conf":9251,"Ġavaible":9252,"Ġhousewife":9253,"460":9254,"ĠBP":9255,"orable":9256,"ĠHurontario":9257,"464":9258,"erior":9259,"urves":9260,"OWER":9261,"will":9262,"ĠbOO":9263,"iring":9264,"...!!!":9265,"Ġmoved":9266,"Ġschool":9267,"Ġforever":9268,"LIE":9269,"ourney":9270,"ĠLEGS":9271,"UPSCALE":9272,"lan":9273,"site":9274,"ĠLIGHT":9275,"ĠOUTFITS":9276,"classy":9277,"ĠTexting":9278,"ĠMINIM":9279,"FUN":9280,"ĠEv":9281,"flash":9282,"ĠMAGIC":9283,"ĠSkill":9284,"Ġ2016":9285,"bath":9286,"ĠAlperton":9287,"Ġregion":9288,"ĠTruly":9289,"MER":9290,"listed":9291,"ĠBootylicious":9292,"Somes":9293,"Ġavoid":9294,"OMB":9295,"Ġspecialty":9296,"ĠCOMPANION":9297,"ĠCAUTION":9298,"ENCE":9299,"237":9300,"924":9301,"ĠHag":9302,"ĠGBP":9303,"ĠDiner":9304,"ieve":9305,"ĠConf":9306,"ĠBURLINGTON":9307,"relax":9308,"Ġactually":9309,"SPE":9310,"speak":9311,"ĠMedium":9312,"ĠBefore":9313,"Ġros":9314,"Ġkisser":9315,"ĠRECE":9316,"Ġ304":9317,"AKVILLE":9318,"ĠFrisky":9319,"ĠPunjabi":9320,"Ġhungry":9321,"ĠCOMPANIONS":9322,"Ġtantal":9323,"ĠLapdances":9324,"Crystal":9325,"inger":9326,"Ġreward":9327,"ĠTHEM":9328,"Ġstimulate":9329,"Ġport":9330,"Ġthrill":9331,"ĠWEIGHT":9332,"Oral":9333,"ĠCare":9334,"ĠOutCall":9335,"Ġquay":9336,"Jamaican":9337,"ĠROUND":9338,"ju":9339,"ĠBBF":9340,"ĠNOTICE":9341,"ĠAlexis":9342,"Ġ07425293763":9343,"ĠET":9344,"715":9345,"506":9346,"acked":9347,"263":9348,"Ġreasons":9349,"1818":9350,"ĠRosy":9351,"ides":9352,"playful":9353,"308":9354,"ĠTrust":9355,"rog":9356,"Ġresidential":9357,"Ġlimitless":9358,"OTECTED":9359,"Bow":9360,"Ġbs":9361,"ĠCat":9362,"ĠBEEN":9363,"233":9364,"ĠDISAPPOINTMENT":9365,"ĠSUNDAY":9366,"Ġorigin":9367,"Ġgreatly":9368,"920":9369,"olous":9370,"iren":9371,"APT":9372,"Enjoy":9373,"BIG":9374,":-:":9375,"Ġetransfer":9376,"HIP":9377,"ĠSoon":9378,"ĠRESID":9379,"Ġpossibly":9380,"ĠNumbers":9381,"ĠNaomi":9382,"dash":9383,"ĠNeeds":9384,"ĠVivian":9385,"Quality":9386,"ifferent":9387,"Ġkg":9388,"Ġlucky":9389,"phy":9390,"ĠBARRIE":9391,"Fant":9392,"Ġpromiscuous":9393,"Ġ#'":9394,"ĠPROSTATE":9395,"ANGU":9396,"incalls":9397,"Ġsophistication":9398,"Ġpor":9399,"ĠLINK":9400,"ĠWonder":9401,"OOS":9402,"RATES":9403,"AYLA":9404,"ĠBRUNETTE":9405,"ĠPAM":9406,"rol":9407,"RATED":9408,"Ġmi":9409,"ĠFet":9410,"ĠNORTH":9411,"Pre":9412,"Ġfragr":9413,"ĠFle":9414,"apt":9415,"ĠSECRET":9416,"lessed":9417,"ntmn":9418,"ĠTU":9419,"Ġdancer":9420,"Ġcharges":9421,"Ġvulgar":9422,"ĠCANADIAN":9423,"ĠENFORCEMENT":9424,"ĠDancing":9425,"org":9426,"INKY":9427,"Ġspark":9428,"RAL":9429,"ĠRUDE":9430,"Ġinnocent":9431,"413":9432,"970":9433,"vana":9434,"ĠJames":9435,"306":9436,"Ham":9437,"Ġpair":9438,"ĠChrist":9439,"ĠTOLERATED":9440,"ĠFakes":9441,"ĠShaved":9442,"Service":9443,"push":9444,"bbj":9445,"ORK":9446,"ĠPLEASER":9447,"Ġpoint":9448,"ĠGOT":9449,"ĠDEALS":9450,"873":9451,"APORE":9452,"mature":9453,"itis":9454,"aries":9455,"391":9456,"ICIOUS":9457,"Ġapps":9458,"6920":9459,"ĠMD":9460,"ICO":9461,"Ġdoctor":9462,"Ġparadise":9463,"Ġform":9464,"oos":9465,"aur":9466,"pects":9467,"Ġentertaining":9468,"ĠPAMPER":9469,"ĠDATE":9470,"utcall":9471,"Ġrestriction":9472,"Ġaccent":9473,"ĠDocks":9474,"pushpin":9475,"Ġoh":9476,"!*":9477,"Ġ315":9478,"Ġdisappointments":9479,"ording":9480,"ĠEnergetic":9481,"ĠMINIMUM":9482,"229":9483,"277":9484,"ĠDOOR":9485,"ĠAccepted":9486,"rimin":9487,"ĠHealth":9488,"274":9489,"oncoming":9490,"ilson":9491,"OMBS":9492,"356":9493,"tight":9494,"Ġyummy":9495,"ĠHonest":9496,"ĠWhile":9497,"ĠFeeling":9498,":...":9499,"bies":9500,"Ġeth":9501,"ades":9502,"LED":9503,"ĠJade":9504,"Ġsensitive":9505,"ĠARRIVAL":9506,"Ġpiece":9507,"817":9508,"Ġstaying":9509,"!(":9510,"ĠTASTY":9511,"Ġspecific":9512,"ESDAY":9513,"Ġtransportation":9514,"DG":9515,"Strap":9516,"ĠAdvent":9517,"ĠTERB":9518,"ĠHurry":9519,"ĠFEE":9520,"ĠSparkle":9521,"ĠDESIRE":9522,"hel":9523,"ĠBoth":9524,"Ġmutually":9525,"ddd":9526,"355":9527,"ĠDIRTY":9528,"itching":9529,"boat":9530,"NON":9531,"iat":9532,"ĠKi":9533,"rett":9534,"Go":9535,"MORE":9536,"Ġtattooed":9537,"ĠFollow":9538,"ottish":9539,"Heaven":9540,"ĠNude":9541,"Ġwouldn":9542,"ĠBedroom":9543,"Ġfamiliarity":9544,"twice":9545,"967":9546,"Ġunforget":9547,"without":9548,"ĠStacy":9549,"Ġpeach":9550,"GTA":9551,"Ġvous":9552,"Ġlightly":9553,"Guys":9554,"ĠTYPE":9555,"ackages":9556,"Ġutmost":9557,"ĠKITCHENER":9558,"Ġ8505":9559,"ĠYONGE":9560,"loor":9561,"ĠGolden":9562,"TOYS":9563,"Mississauga":9564,"747":9565,"oore":9566,"ĠJaz":9567,"anny":9568,"Ġrimming":9569,"Ġvenue":9570,"134":9571,"NY":9572,"ĠArab":9573,"SATISF":9574,"ĠWal":9575,"770":9576,"641":9577,"Ġfulfilling":9578,"ĠWORK":9579,"rivolous":9580,"856":9581,"Ġarrang":9582,"ĠHOW":9583,"ĠDaddy":9584,"2315":9585,"ĠSTE":9586,"...........":9587,"Ġav":9588,"ĠTim":9589,"ĠEveryone":9590,"achel":9591,"Ġpressure":9592,"8715":9593,"Ġ05":9594,"Ġaltern":9595,"annah":9596,"Ġlicensed":9597,"Ġvoyeur":9598,"jax":9599,"Ġpus":9600,"Ġunin":9601,"aintain":9602,"ĠCouple":9603,"Ġrisk":9604,"LAST":9605,"ĠOVERNIGHTS":9606,"dale":9607,"ĠAF":9608,"ĠMain":9609,"ĠFisting":9610,"ĠStrand":9611,"Hand":9612,"kh":9613,"Ġfaster":9614,"acing":9615,"udy":9616,"996":9617,"Ġ128":9618,"Ġ380":9619,"558":9620,"ĠAlexa":9621,"Ġfalls":9622,"ĠCOMPANIONSHIP":9623,"peat":9624,"Tall":9625,"ĠBachelor":9626,"Ġnun":9627,"119":9628,"213":9629,"sam":9630,"ĠCath":9631,"ellect":9632,"ĠMemor":9633,"ĠWish":9634,"USE":9635,"what":9636,"994":9637,"Ġchef":9638,"Kiss":9639,"Ġbutton":9640,"duos":9641,"women":9642,"Ġwr":9643,"Ġ837":9644,"ĠWANTING":9645,"Ġ1647":9646,"OMBSHELL":9647,"nc":9648,"Ġextensive":9649,"ato":9650,"ĠMarket":9651,"UNT":9652,"ĠLOVES":9653,"ĠMarried":9654,"Ġsore":9655,"Ġdue":9656,"OD":9657,"Ġpers":9658,"ĠIndonesia":9659,"Ġnasty":9660,"Ġ---------------------------------":9661,"ĠFACIALS":9662,"fresh":9663,"pretty":9664,"tri":9665,"ĠINT":9666,"877":9667,"ĠIncluded":9668,"ĠLast":9669,"882":9670,"Ġdoors":9671,"Latina":9672,"Ġservant":9673,"Ġhandful":9674,"Ġnormal":9675,"ĠGentelmen":9676,"asic":9677,"penders":9678,"ĠTOGETHER":9679,"Ġphotosh":9680,"Ġglam":9681,"fold":9682,"hicle":9683,"ĠWatch":9684,"oogle":9685,"ĠUniversity":9686,"654":9687,"ĠWAL":9688,"sog":9689,"Ġbroad":9690,"Day":9691,"tiger":9692,"Ġlovable":9693,"Ġindulging":9694,"Ġsnow":9695,"ĠGre":9696,"ĠWasters":9697,"Ġdisp":9698,"Ġimagination":9699,"Ġsinfully":9700,"bed":9701,"mas":9702,"Ġshopping":9703,"Perfect":9704,"868":9705,"EY":9706,"SURE":9707,"Ġsns":9708,"ĠSURE":9709,"341818":9710,"ĠVISITING":9711,"atory":9712,"ĠVancouver":9713,"brown":9714,"ĠNaturally":9715,"Ġ07438341818":9716,"idinous":9717,"SWEET":9718,"ĠCONDOM":9719,"Ġboundaries":9720,"ĠATTENTION":9721,"ĠSep":9722,"ĠNSA":9723,"url":9724,"ineau":9725,"ĠManicured":9726,"Ġactivities":9727,"Ġnerv":9728,"htm":9729,"Ġserver":9730,"ĠNOTCH":9731,"ĠBAD":9732,"Ġgrab":9733,"apists":9734,"ĠHold":9735,"ATi":9736,"Ġprobably":9737,"Ġearlier":9738,"Ġroommie":9739,"Ġpriest":9740,"Ġenthusiastic":9741,"APTIV":9742,"Eng":9743,"OOO":9744,"ĠHott":9745,"Ġbadge":9746,"ĠCurrently":9747,"SK":9748,"Ġdedicated":9749,"Ġring":9750,"Ġlibertine":9751,"apphire":9752,"Ġemployee":9753,"Ġheat":9754,"Ġsensuous":9755,"LIMITED":9756,"ĠColour":9757,"Ġunderstanding":9758,"Ġpainter":9759,"toys":9760,"Ġvan":9761,"ĠRomance":9762,"Is":9763,"cc":9764,"ences":9765,"OWO":9766,"ITTY":9767,"Ġ779":9768,"ĠHEAR":9769,"ombia":9770,"ANNED":9771,"ĠEllesmere":9772,"DFK":9773,"Ġavaila":9774,"ĠDATY":9775,"Ġ360":9776,"!!!!!!!":9777,"who":9778,"GENT":9779,"yla":9780,"yles":9781,"urora":9782,"stars":9783,"ĠFOLLOW":9784,"Ġpatient":9785,"ĠCANDY":9786,"ĠRegion":9787,"510":9788,"ĠSC":9789,"ĠEager":9790,"teres":9791,"ĠEnc":9792,"ĠDiscrt":9793,"hugging":9794,"ĠJaw":9795,"ANGUAGE":9796,"lee":9797,"607":9798,"ĠHourly":9799,"Ġsmoking":9800,"ctive":9801,"702":9802,"ĠDOLL":9803,"ĠPrice":9804,"ĠDISCRETION":9805,"380":9806,"Ġjudge":9807,"URS":9808,"ĠITAL":9809,";-)":9810,"After":9811,"SU":9812,"ĠEat":9813,"ĠMarch":9814,"ĠGia":9815,"376":9816,"Ġcarefree":9817,"865":9818,"Pleas":9819,"ĠCi":9820,"1322":9821,"~~~":9822,"ĠWilliam":9823,"Ġqueens":9824,".$":9825,"Ġdances":9826,"ĠInfo":9827,"ĠSTA":9828,"Booty":9829,"mead":9830,"etails":9831,"Ġisn":9832,"161":9833,"gin":9834,"ĠSingle":9835,"ĠOutCalls":9836,".:*.":9837,"ĠRelaxed":9838,"475":9839,"CHEL":9840,"ĠSEDUCE":9841,"ALWAYS":9842,"INY":9843,"ĠLucy":9844,")()":9845,"every":9846,"lain":9847,"Ġ793":9848,"371":9849,"tics":9850,"||":9851,"ĠPA":9852,"984":9853,"Ġentrance":9854,"ĠJENNY":9855,"Or":9856,"Ġaccess":9857,"ĠWick":9858,"ĠCOLOMB":9859,"Ġloads":9860,"ĠWonderful":9861,"ĠWi":9862,"IRECT":9863,"rd":9864,"erotic":9865,"aliyah":9866,"iced":9867,"ortlake":9868,"ĠClient":9869,"Ġamazed":9870,"Ġsurprise":9871,"inchmore":9872,"Ġeasily":9873,"Half":9874,"ĠFUR":9875,"Ġbepassion":9876,"unky":9877,"Ġcanadian":9878,"ĠShannon":9879,"Stars":9880,"Ġmusc":9881,"ico":9882,"Ġrichmond":9883,"Ġdistance":9884,"ĠCAPTIV":9885,"603":9886,"Ġwords":9887,"Ġconfidence":9888,"ĠPoland":9889,"ĠTEM":9890,"ĠApril":9891,"ooo":9892,"ĠHonor":9893,"Ġblacklisted":9894,"livia":9895,"939":9896,"from":9897,"ĠCUTE":9898,"Ġvary":9899,"ĠHEAD":9900,"Ġwoodford":9901,"ĠAPPE":9902,"ĠBRAZILIAN":9903,"825":9904,"Ġintens":9905,"Ġcommand":9906,"ĠDIRECT":9907,"comp":9908,"ĠPremium":9909,"Ġtour":9910,"ĠSaf":9911,"exotic":9912,"Ġ($":9913,"ANC":9914,"StarsEscorts":9915,"Ġbeautifull":9916,"93447":9917,"GREAT":9918,"ĠAva":9919,"ĠRUB":9920,"ĠVulgar":9921,"ĠInCalls":9922,"Ġ-->":9923,"Mar":9924,"aps":9925,"Ġclientele":9926,"ĠImpeccable":9927,"iley":9928,"watch":9929,"Ġtott":9930,"ĠLIST":9931,"0095":9932,"shire":9933,"ĠBeen":9934,"ivided":9935,"ĠCos":9936,"ĠTANNED":9937,"Ġdesired":9938,"Ġ209":9939,"Ġvig":9940,"pics":9941,"Ġgate":9942,"ĠAllStarsEscorts":9943,"903":9944,"mine":9945,"ĠCici":9946,"Ġtower":9947,"Ġnine":9948,"ĠSEL":9949,"_^":9950,"Ġtattoo":9951,"ĠRare":9952,"341":9953,"Blue":9954,"ĠĠĠĠ":9955,"Bre":9956,"uli":9957,"ĠThames":9958,"983":9959,"Ġages":9960,"Ġtel":9961,"ĠMELT":9962,"ĠSPO":9963,"Dont":9964,"tl":9965,"esomes":9966,"ĠPosit":9967,"265":9968,"poss":9969,"Ġbother":9970,"ASSAGES":9971,"ienne":9972,"Ġbra":9973,"alle":9974,"Ġvibr":9975,"Ġballs":9976,"Seductive":9977,"Ġgl":9978,"ENA":9979,"ĠBraz":9980,"Ġjapan":9981,"772":9982,"dont":9983,"ĠLower":9984,"ĠInv":9985,"ĠSKILLED":9986,"Ġturns":9987,"XXXX":9988,"Ġverify":9989,"Ġsometimes":9990,"gent":9991,"wor":9992,"ĠSassy":9993,"ENTED":9994,"Ġdzuck":9995,"ĠChoose":9996,"Ġaims":9997,"ĠCatford":9998,"ĠJUL":9999,"gnant":10000,"Ġreputation":10001,"tering":10002,"respect":10003,"Ġtricks":10004,"ĠToy":10005,"ĠRock":10006,"wixsite":10007,"ĠADVANCE":10008,"Ly":10009,"ĠSweetheart":10010,"6666":10011,"884":10012,"Now":10013,"~*":10014,"uperior":10015,"Dom":10016,"ĠHugs":10017,"ĠEltham":10018,"ĠVeronica":10019,"hollow":10020,"ORIA":10021,"Ġ???":10022,"ĠAbbey":10023,"ĠALEX":10024,"ishops":10025,"Ġ792":10026,"Ġbux":10027,"glasses":10028,"Ġ074402315":10029,"Ġ07440231595":10030,"DO":10031,"Juicy":10032,"ĠFURTHER":10033,"916":10034,"De":10035,"ĠRead":10036,"ĠSIN":10037,"Ġcontrol":10038,"terests":10039,"ailey":10040,"Ġ49":10041,"AMA":10042,"185":10043,"ĠMot":10044,"Ġvol":10045,"ĠEnticing":10046,"ĠPossible":10047,"Ġrealy":10048,"Ġoption":10049,"nly":10050,"arines":10051,"ĠRivers":10052,"ĠVicky":10053,"Ġlperton":10054,"Ġ41":10055,"IANA":10056,"Ġpartic":10057,"Ġmaximum":10058,"Ġuninhibited":10059,"ĠCraving":10060,"ĠLan":10061,"reaky":10062,"ĠNewham":10063,"ELLY":10064,"urntd":10065,"ks":10066,"Ġaspects":10067,"Ġbiggest":10068,"ĠStreatham":10069,"ĠCharlton":10070,"PRE":10071,"Walk":10072,"ĠEVERYWHERE":10073,"Ġimpressive":10074,"ĠDix":10075,"239":10076,"OSIT":10077,"ĠIntrodu":10078,"ĠDREAMS":10079,"Ġbuxom":10080,"Ġ09":10081,"ĠEXPERIENCED":10082,"ĠBareback":10083,"Want":10084,"Ġstudy":10085,"Ġpet":10086,"Ġyonge":10087,"Ġproportioned":10088,"ĠPROVID":10089,"ĠParis":10090,"833":10091,"..:":10092,"akville":10093,"Ġexpressive":10094,"Ġcra":10095,"ountains":10096,"ĠMANDY":10097,"angerously":10098,"719":10099,"Ġ65":10100,"Ġcurved":10101,"ĠThamesmead":10102,"ĠSus":10103,"Ġkissed":10104,"ĠOlymp":10105,"cap":10106,"Ġstressed":10107,"Ġredbridge":10108,"ĠPalmers":10109,"ĠTerm":10110,"ĠWalworth":10111,"ĠAly":10112,"Ġ495":10113,"Ġitalian":10114,"ACH":10115,"Ebony":10116,"ĠAvai":10117,"///":10118,"ellectual":10119,"GU":10120,"RS":10121,"ĠWorking":10122,"adzdz":10123,"Ġ0775":10124,"Ġalternative":10125,"Ġsized":10126,"ĠMONEY":10127,"ĠMortlake":10128,"ĠWinchmore":10129,"Ġ221":10130,"ĠLOWBALLERS":10131,"Ġfil":10132,"Ġcoco":10133,"uses":10134,"ilar":10135,"Ġ961":10136,"ĠXX":10137,"Ġplan":10138,"ĠCENTRAL":10139,"Ġcougar":10140,"Ġnoon":10141,"ĠGlamorous":10142,"ĠSARA":10143,"easy":10144,"fined":10145,"ĠOAKVILLE":10146,"broken":10147,"ĠSINGAPORE":10148,"ĠOutside":10149,"dis":10150,"ĠBOMBSHELL":10151,"Ġ________________________":10152,"ĠOlympic":10153,"dE":10154,"ĠBorn":10155,"veil":10156,"ĠHARD":10157,"elit":10158,"loving":10159,"ĠWhitby":10160,"Ġmovements":10161,"ĠChristina":10162,"Ġlatin":10163,"Ad":10164,"Yonge":10165,"Ġpierced":10166,"ĠWhats":10167,"ĠLUX":10168,"dD":10169,"ased":10170,"ĠHygienic":10171,"!!!:":10172,"OLD":10173,"HEART":10174,"Ġ>>>":10175,"BLOCK":10176,"ĠBreathtaking":10177,"Ġice":10178,"ĠBra":10179,"indi":10180,"RET":10181,"ISON":10182,"ĠCAPTIVATING":10183,"Ġcuddling":10184,"Extreme":10185,"GOING":10186,"gas":10187,"ĠWin":10188,"irvana":10189,"Ġjourney":10190,"ĠTri":10191,"Chr":10192,"Heyy":10193,"Ġblood":10194,"IMI":10195,".**":10196,"ĠTattooed":10197,"ĠHamlets":10198,"ishopsgate":10199,"236":10200,"Ġ402":10201,"Ġusually":10202,"ĠFully":10203,"ĠFEW":10204,"ĠHil":10205,"ĠEscors":10206,"202":10207,"608":10208,"0535":10209,"ĠBishopsgate":10210,"302":10211,"ĠHANDS":10212,"Ġlearn":10213,"Visiting":10214,"Ġinternational":10215,"RIPPERSANGELEYEZ":10216,"echniques":10217,"Ġbon":10218,"ĠBALL":10219,"Ġdreaming":10220,"hereitis":10221,"ĠPenge":10222,"Ġss":10223,"Ġmorn":10224,"platinum":10225,"Ġgifted":10226,"upscale":10227,"iches":10228,"spct":10229,"ĠStudents":10230,"640":10231,"Ġholi":10232,"Ġbrun":10233,"ĠFleet":10234,"exican":10235,"Ġfeelings":10236,"undas":10237,"Ġ{}":10238,"onaity":10239,"VIS":10240,"kok":10241,"Ġcaucasian":10242,"iltern":10243,"Ġsmoke":10244,"mean":10245,"Ġ<<":10246,"ĠBois":10247,"UPT":10248,"ĠRye":10249,"Ġglad":10250,"ĠLanes":10251,"ĠFrog":10252,"ĠSensuous":10253,"NT":10254,"ĠTia":10255,"ĠMale":10256,"aucy":10257,"ASTIC":10258,"ĠBarnsbury":10259,"Ġ___":10260,"Ġmile":10261,"ĠLISA":10262,"ĠRickmansworth":10263,"adia":10264,"Ġ$$$$$":10265,"Ġ717":10266,"297":10267,"gerston":10268,"TRANSFER":10269,"ĠHaggerston":10270,"lCrystal":10271,"she":10272,"ĠChiltern":10273,"ĠTheydon":10274,"231":10275,"ĠCarpenders":10276,"ĠKingslan":10277,"ĠBrondesbur":10278,"ĠTerminals":10279,"ĠBushey":10280,"ĠHarringay":10281,"dDenmark":10282,"ĠFrogna":10283,"978":10284,"ĠFK":10285,"groups":10286,"ĠDesirable":10287,"PA":10288,"PART":10289,"ĠGOING":10290,"Ġcourtesan":10291,"ĠCas":10292,"Ġvac":10293,"ĠLovers":10294,"ITTER":10295,"ĠBBB":10296,"AMEL":10297,"ĠRegret":10298,"ĠLANGUAGE":10299,"Ġ!!!!!!":10300,"English":10301,"krain":10302,"Ġgir":10303,"Ġ538":10304,"allenge":10305,"ĠBelle":10306,"ĠPriv":10307,"Ġdans":10308,"struck":10309,"ĠKnockout":10310,"abe":10311,"Ġ917":10312,"ĠSOPH":10313,"Ġenerg":10314,"Its":10315,"inid":10316,"lose":10317,"Ġnegotiating":10318,"Ġshoulder":10319,"ĠAffectionate":10320,"ĠENTERTAIN":10321,"VO":10322,"Ġ---------":10323,"VICE":10324,"rea":10325,"atic":10326,"ĠMAL":10327,"ĠCompletely":10328,"wise":10329,"Ġchill":10330,"ĠWHY":10331,"Ġcosts":10332,"ĠKINKY":10333,"xxy":10334,"ĠLeah":10335,"ficial":10336,"ĠPOLITE":10337,"ĠMercedes":10338,"ĠJennifer":10339,"EEt":10340,"Ġbegin":10341,"Ġmaintain":10342,"thanks":10343,"Ġexploits":10344,"Ġahead":10345,"ĠCand":10346,"ĠMaxim":10347,"Ġbackgr":10348,"ĠTAKEN":10349,"Ġchampagne":10350,"MOR":10351,"belie":10352,"Ġsincere":10353,"Ġcreat":10354,"ĠAPPS":10355,"Ġweeks":10356,"OVERNIGHT":10357,"Ġmirac":10358,"Ġsensational":10359,"ĠGRAND":10360,"Ġverified":10361,"Ġpenetration":10362,"juicy":10363,"ĠShots":10364,"Ġinvest":10365,"Ġbreat":10366,"umber":10367,"ags":10368,"572":10369,"Ġprsonaity":10370,"Coll":10371,"ZEL":10372,"ANING":10373,"ĠHOTTIE":10374,"Ġmodest":10375,"Ġ0795":10376,"ĠKink":10377,"mina":10378,"Ġkeele":10379,"ĠBELLA":10380,"Ġbackgrounds":10381,"XY":10382,"mag":10383,"OOL":10384,"CTION":10385,"ĠPeople":10386,"',":10387,"ĠLeslie":10388,"des":10389,"Ġiss":10390,"ĠCosplay":10391,"689":10392,"Ġanx":10393,"282":10394,"ĠSWEETHEART":10395,"ĠHassle":10396,"ĠSTART":10397,"fet":10398,"sns":10399,"ĠPOSS":10400,"ĠReaL":10401,"ĠExquisite":10402,"ĠCharlie":10403,"krainian":10404,"ghty":10405,"106":10406,"Ġfinally":10407,"5845":10408,"745":10409,"Will":10410,"ĠSure":10411,"Ġgrabb":10412,"Ġdisrespectful":10413,"OLUPT":10414,"KA":10415,"hold":10416,"Ġago":10417,"Ġowo":10418,"EDY":10419,"ĠDIRECTLY":10420,"Happy":10421,"elia":10422,"Ġclearly":10423,"ĠGem":10424,"Ġgarant":10425,"ĠHel":10426,"Ġpersonable":10427,"Ġdest":10428,"ĠKate":10429,"#,":10430,"Ġ????":10431,"Ġ*(":10432,"ĠGina":10433,"uro":10434,"ĠFoxy":10435,"ĠMONDAY":10436,"Ġroses":10437,"+)":10438,"813":10439,"ĠIR":10440,"ĠInternational":10441,"Ġfinch":10442,"Ġterm":10443,"Sw":10444,"ĠPS":10445,"ultip":10446,"ĠSof":10447,"TELL":10448,"Ġcompassionate":10449,"ĠTWITTER":10450,"Explicit":10451,"ĠNIKKI":10452,"deally":10453,"Ġshaving":10454,"ĠPICK":10455,"Ġkinda":10456,"Ġ<>":10457,"Specials":10458,"Ġie":10459,"Ġhob":10460,"ĠWay":10461,"ĠWOULD":10462,"RESPECTFUL":10463,"280":10464,"ULY":10465,"pds":10466,"Ġbrazilian":10467,"nda":10468,"ĠAUT":10469,"Ġel":10470,"Ġ07495":10471,"ĠFuN":10472,"booty":10473,"fil":10474,"Ġcell":10475,"ĠBU":10476,"Ġapply":10477,"ĠSPOIL":10478,"Ġdaty":10479,"IRTAT":10480,"CI":10481,"ĠPounds":10482,"Ġ774":10483,"ĠCutie":10484,"arenteed":10485,"ĠBisexual":10486,"ĠNames":10487,"IRTATIOUS":10488,"ĠJay":10489,"ĠRETUR":10490,"Ġ^_^":10491,"ABSOLUTELY":10492,"Ġstate":10493,"Ġswt":10494,"ĠHRS":10495,":>>>>":10496,"ĠFlexible":10497,"ĠGrey":10498,"boy":10499,"Ġ417":10500,"ĠPerfectly":10501,"ĠFacials":10502,"Ġob":10503,"arking":10504,"ĠDISCREETE":10505,"ĠFla":10506,"Ġcalled":10507,"flut":10508,"oR":10509,"ray":10510,"ĠEV":10511,"Ġ335":10512,"Ġamuse":10513,"Ġleather":10514,"Height":10515,"ĠTAKING":10516,"Che":10517,"Ġrubs":10518,"blonde":10519,"ĠXRATED":10520,"912":10521,"Ġgntmn":10522,"ĠTUR":10523,"OLUPTUOUS":10524,"!...":10525,"irch":10526,"ĠSUKI":10527,"fluttering":10528,"ĠDifferent":10529,"ĠFANTASTIC":10530,"ĠWOMEN":10531,"WildExtreme":10532,"WildExtremeFun":10533,"219":10534,"Ġunsafe":10535,"ĠbOOty":10536,"Ġpu":10537,"rock":10538,"Ġ,,":10539,"Ġchic":10540,"angle":10541,"Ġstimulation":10542,"squ":10543,"Ġpregnant":10544,"ĠFaceTime":10545,"*:":10546,"Ġsalacious":10547,"ĠMyself":10548,"Ġopening":10549,"ĠTHESE":10550,"CUP":10551,"ĠPiercings":10552,"have":10553,"ĠCU":10554,"ANAL":10555,"Ġenforcement":10556,"245":10557,"DIE":10558,"Ġhaven":10559,"366":10560,"ĠExtraordinary":10561,"Ġwalthamstow":10562,"867":10563,"ĠSQ":10564,"ĠSTAY":10565,"ĠSKYPE":10566,"Ġslowly":10567,"\":":10568,"eni":10569,"ĠFiona":10570,"Ġ345":10571,"ĠVivacious":10572,"ĠLustful":10573,"&&":10574,"perfect":10575,"ĠCOMING":10576,"Ġaccommodated":10577,"Ġtrim":10578,"html":10579,"Ġrspct":10580,"Ġheathrow":10581,"Ġsouthwark":10582,"ĠHardsports":10583,"Ġya":10584,"Ġinquiry":10585,"Ġfragrance":10586,"Ġfilip":10587,"che":10588,"RECENT":10589,"294":10590,"ĠDEV":10591,"aaa":10592,"Ġye":10593,"Ġ0790":10594,"IGENT":10595,"ĠSTUD":10596,"ĠUNT":10597,"Ġignoring":10598,"Ġasiat":10599,"Ġkey":10600,"ĠYUMI":10601,"TELLIGENT":10602,"Ġ320":10603,"ETIME":10604,"881":10605,"ĠMARK":10606,"Ġ07572990311":10607,"61704":10608,":_":10609,"Ġmam":10610,"anese":10611,"Ġlambeth":10612,"tyle":10613,"1561704":10614,"ĠAlice":10615,"Warm":10616,"ĠRox":10617,"ĠSmart":10618,"ĠOff":10619,"ĠNotice":10620,"uelan":10621,"ĠKylie":10622,"Christ":10623,"lly":10624,"ĠIz":10625,"ĠUNKNOWN":10626,"ĠPHOTO":10627,"Ġbathroom":10628,"Pics":10629,"ĠCatharines":10630,"Ġlip":10631,"aled":10632,"Ġenthr":10633,"Ġpresence":10634,"ĠRESPECT":10635,"ĠCONS":10636,"725":10637,"ĠSi":10638,"ĠPU":10639,"ĠAcc":10640,"ĠWALK":10641,"Ġnervous":10642,"ĠScar":10643,"ĠCHAT":10644,"ĠMESSAGE":10645,"Ġpounding":10646,"ĠAir":10647,"RIM":10648,"Ty":10649,"ĠDOGGY":10650,"ĠMeeting":10651,"Ġengage":10652,"ĠSN":10653,"Ġvr":10654,"ĠREGRET":10655,"ĠSAME":10656,"Ġ550":10657,"Ġ650":10658,"ĠAVA":10659,"ĠBon":10660,"Ġloose":10661,"ĠUSING":10662,"LOE":10663,"ĠEXCELLENT":10664,"ĠLUXUR":10665,"iful":10666,"Ġinsatiable":10667,"NAUGHTY":10668,"ĠTow":10669,"READY":10670,"992":10671,"Ġservis":10672,"inement":10673,"Ġ07448":10674,"aison":10675,"ĠSan":10676,"662":10677,"ATiON":10678,"ĠTOY":10679,"Ġintellectual":10680,"awai":10681,"Ġfluent":10682,"Ġglamour":10683,"358":10684,"Specialy":10685,"DAYS":10686,"ĠCovered":10687,"ĠBoun":10688,"ĠEntr":10689,"Ġidea":10690,"mates":10691,"ĠBoy":10692,"ĠDISAPPOINTED":10693,"ledge":10694,"Ġcu":10695,"rena":10696,"keycap":10697,"Ġkentish":10698,"Ġrepeat":10699,"899":10700,"Ġlowballers":10701,":))":10702,"Naughty":10703,"throat":10704,"Ġdiscrimin":10705,"ENNEDY":10706,"MIUM":10707,"Ġapproach":10708,"Ġhi":10709,"then":10710,"ĠJoin":10711,"Hamilton":10712,"Ġsum":10713,"Ġbes":10714,"ĠQuebec":10715,"Ġenthrall":10716,"ĠSame":10717,"ĠCal":10718,"Ġtooth":10719,"244":10720,"ĠMaliah":10721,"Relaxing":10722,"unrushed":10723,"8081":10724,"()":10725,"CIOUS":10726,"Pen":10727,"dent":10728,"642":10729,"Ġlistener":10730,"ĠGift":10731,"ĠDetails":10732,"ĠATTR":10733,"Dinner":10734,"file":10735,"zing":10736,"erts":10737,"ĠFIT":10738,"ĠLOVER":10739,"Ġcookie":10740,"ĠMes":10741,"Ġuniversity":10742,"ricted":10743,"ĠOPENING":10744,"Ton":10745,"ĠFind":10746,"ĠDurham":10747,"Ġ190":10748,"149":10749,"ĠPlaces":10750,"Old":10751,"BLOCKED":10752,"Back":10753,"`'":10754,"een":10755,"ĠLocal":10756,"Ġbeneficial":10757,"ĠLaure":10758,"SATISFACTION":10759,"MBER":10760,"gie":10761,"Ġspoi":10762,"Guarantee":10763,"uba":10764,"ĠEXACT":10765,"ĠCOUR":10766,"ĠINTELLIGENT":10767,"128":10768,"184":10769,"bee":10770,"fle":10771,"ony":10772,"ĠSOM":10773,"ĠSwEEt":10774,"Ġprofiles":10775,"Ġiam":10776,"487":10777,"blocked":10778,"ocks":10779,"ĠCOMBIN":10780,"ĠCert":10781,"lap":10782,"ĠDep":10783,"Ġamount":10784,"ĠALLOW":10785,"ĠGRK":10786,"ENt":10787,"6988":10788,"ĠRED":10789,"Ġstuff":10790,"Ġresponses":10791,"European":10792,"ĠSINGLE":10793,"ĠNotch":10794,"ĠIncludes":10795,"Ġactivity":10796,"ĠDanielle":10797,"GENTLEM":10798,"Ġdfk":10799,"Ġzone":10800,"tall":10801,"Ġ907":10802,"ixed":10803,"ĠPlAy":10804,"SUPER":10805,"Ġ205":10806,"Ġwatcher":10807,"Waiting":10808,"fetiches":10809,"BRAMPTON":10810,"GL":10811,"Ġexhib":10812,"ĠLUCK":10813,"Ġcentre":10814,"Ġsharing":10815,"Ġchallenge":10816,"ĠSPiC":10817,"Ġpursuit":10818,"Ġmild":10819,"Ġcool":10820,"ently":10821,"PORTANT":10822,"Ġenquiries":10823,"At":10824,"french":10825,"Ġwitty":10826,"une":10827,"Ġoutdoor":10828,"Ġfocus":10829,"ority":10830,"ĠEs":10831,"ĠPink":10832,"Ġ116":10833,"ĠBecca":10834,"Ġrefreshing":10835,"ĠPOSSIBLE":10836,"ĠBurn":10837,"ĠWhere":10838,"Ġspots":10839,"Ġundoub":10840,"Ġfess":10841,"0747":10842,"]]":10843,"apist":10844,"ĠEvening":10845,"ĠRETURN":10846,"Ġmis":10847,"urb":10848,"Ġeight":10849,"erved":10850,"ĠLuxurious":10851,"Ġspankable":10852,"Ġprecious":10853,"ĠEarly":10854,"ĠANGELIC":10855,"Ġbunny":10856,"ĠEASY":10857,"ĠoF":10858,"ĠInCall":10859,"ĠELITE":10860,"ĠSIMPLE":10861,"Ġbreathe":10862,"818":10863,"Ġlithe":10864,"ĠFAST":10865,"Ġjou":10866,"MASSAGE":10867,"bidden":10868,"ĠMOM":10869,"Ġrefinement":10870,"Ġjobs":10871,"ĠGfe":10872,"xox":10873,"8130":10874,"ĠINCLUDES":10875,"twitter":10876,"ĠBring":10877,"ĠInto":10878,"ĠAPART":10879,"ĠWATCH":10880,"chester":10881,"Ġengaged":10882,"ĠRespectable":10883,"Ġtolerated":10884,"FETY":10885,"MING":10886,"Ve":10887,"Ġyouth":10888,"ĠEr":10889,"atistics":10890,"Ġtx":10891,"Ġsup":10892,"Ġlie":10893,"ENTIC":10894,"Ġslut":10895,"ĠWORLD":10896,"Ġcommunicate":10897,"assages":10898,"Ġalot":10899,"ĠEVA":10900,"444":10901,"Ġupdated":10902,"ĠIntroduce":10903,"bu":10904,"Ġfut":10905,"rophy":10906,"Ġ570":10907,"Ġ738":10908,"Ġpersonally":10909,"Ġends":10910,"815":10911,"ughty":10912,"Ġ930":10913,"Ġtend":10914,"endra":10915,"Ġacting":10916,"GAIN":10917,"Min":10918,"spe":10919,"Ġach":10920,"ĠSetish":10921,"ĠSuperior":10922,"192":10923,"ĠAMAZE":10924,"Cam":10925,"Ġracy":10926,"Ġ4034":10927,"OXO":10928,"ĠPor":10929,"ourtesan":10930,"ĠGrk":10931,"stantly":10932,"915":10933,"MOUTH":10934,"ĠOWN":10935,"Ġseule":10936,"Ġassociated":10937,"Ġunable":10938,"Ġhappens":10939,"Ġkee":10940,"ĠSmoker":10941,"ĠRegular":10942,"Ġallure":10943,"Ġsof":10944,"122":10945,"ĠOPENMINDED":10946,"Ġ075223":10947,"675":10948,"hots":10949,"Ġpaying":10950,"Chinese":10951,":::))":10952,"Passionate":10953,"hhr":10954,"mac":10955,"edon":10956,"ooled":10957,"703":10958,"ĠNEAR":10959,"Ġdefined":10960,"ĠTEASE":10961,"ĠLapdancing":10962,"ĠBUM":10963,"LETE":10964,"Ġyounger":10965,"Ġregard":10966,"BEAUT":10967,"Pl":10968,"ĠSpeak":10969,"ĠTempting":10970,"Ġcuddly":10971,"ATTOOS":10972,"862":10973,"Domin":10974,"DOWN":10975,"genic":10976,"por":10977,"Ġ07522393447":10978,"476":10979,"ĠVICT":10980,"ĠJune":10981,"Ġ07930":10982,"Ġaddiction":10983,"Ġmovement":10984,"Ġcompliment":10985,":\"":10986,"ĠUNSAFE":10987,"Ġplane":10988,"ĠNature":10989,"ĠMet":10990,"Ġtravelled":10991,"rix":10992,"baller":10993,"Fl":10994,"ĠNewmarket":10995,"ĠCaring":10996,"ĠLOVELY":10997,"Ġbien":10998,"Ġdemean":10999,"ĠPREFERRED":11000,"ĠITALIAN":11001,"Ġpedicured":11002,"242":11003,"ĠComing":11004,"ĠIsabella":11005,"Ġxoxox":11006,"ĠCOVER":11007,"567":11008,"Ġ581":11009,"oise":11010,"Ġmate":11011,"Ġfancy":11012,"ĠMA":11013,"108":11014,"PHONE":11015,"that":11016,"Ġstays":11017,"Ġsale":11018,"ĠSuki":11019,"246":11020,"SHOWER":11021,"ĠProfessor":11022,"Ġrspctfu":11023,"768":11024,"under":11025,"dashing":11026,"erim":11027,"ĠMIMI":11028,"Ġmoves":11029,"Ġclit":11030,"Ġanymore":11031,"Ġfamous":11032,"GENTLEMEN":11033,"Ġtimer":11034,"ĠOlivia":11035,"EROTIC":11036,"ĠCOMBINATiON":11037,"pill":11038,"Ġpec":11039,"ĠNadia":11040,"Ġonline":11041,"ĠYORK":11042,"Ġ877":11043,"tipping":11044,"da":11045,"Ġtre":11046,"ĠSAM":11047,"phro":11048,"uR":11049,"Ġfeisty":11050,"ĠKINDS":11051,"FREE":11052,"dENt":11053,"hhh":11054,"uished":11055,"814":11056,"7747":11057,"finity":11058,"disiac":11059,"phrodisiac":11060,"BUS":11061,"ĠNi":11062,"Ġ725":11063,"659":11064,"ĠDoggy":11065,"Ġamusement":11066,"Ġmountains":11067,"993":11068,"Ġcoquettish":11069,"ĠSuggest":11070,"ĠTAST":11071,"urbs":11072,"Ġoffice":11073,"Bay":11074,"ĠTAX":11075,"Ġamong":11076,"Ġ410":11077,"EVERY":11078,"haps":11079,"aming":11080,"661":11081,"ĠProvided":11082,"Ġjuice":11083,"Ġintended":11084,"Ġmississauga":11085,"ĠTui":11086,"ĠUNTIL":11087,"Ġseulement":11088,"Ġasap":11089,"ĠDELICIOUS":11090,"!?":11091,"923":11092,"itic":11093,"ĠSET":11094,"Ġ*******":11095,"Ġsuburbs":11096,"Ġstudio":11097,"Barrie":11098,"Take":11099,"Ġ455":11100,"ilver":11101,"Ġsol":11102,"ĠPLAYTIME":11103,"ĠFEM":11104,"ĠConvenient":11105,"Ġbrighten":11106,"xxxxxxxxxxxxxxxxxxxxxxxxxxxxxxxx":11107,"ĠATTRACTIVE":11108,"ela":11109,"ĠSec":11110,"Ġ236":11111,"Ġdiscreetly":11112,"othes":11113,"Ġbuttocks":11114,"Ġpornstar":11115,"Lowest":11116,"Ġlesbian":11117,"ĠDIF":11118,"outy":11119,"Ġundivided":11120,"uu":11121,"ĠNov":11122,"ĠJuly":11123,"ĠYoull":11124,"ĠFantastic":11125,"ĠRESP":11126,"ĠDuration":11127,"342":11128,"ĠBOBO":11129,"prostate":11130,"AZY":11131,"ĠCOMPLETE":11132,"allejo":11133,"ĠAUTH":11134,"Pal":11135,"iery":11136,"uity":11137,"uries":11138,"Ġhorn":11139,"echless":11140,"531":11141,"Ġtending":11142,"ĠBC":11143,"Ġ(((":11144,"168":11145,"prise":11146,"ĠFalls":11147,"eous":11148,"ĠSummer":11149,"ĠTanya":11150,"ĠGi":11151,"Ġvictoria":11152,"ĠVIX":11153,"Ġorgas":11154,"ĠTAXI":11155,"ĠVOLUPTUOUS":11156,"quaint":11157,"Ġpresented":11158,"ĠJOB":11159,"ĠIzabella":11160,"oon":11161,"level":11162,"Ġpc":11163,"Ġenj":11164,"1585":11165,"Prostate":11166,"Ġlewd":11167,"Ġfanc":11168,"Ġunload":11169,"Ġsensualist":11170,"284":11171,"front":11172,"575":11173,"sub":11174,"Ġwrapped":11175,"utch":11176,"irking":11177,"smirking":11178,"UMP":11179,"Ġglamorous":11180,"Ġinstead":11181,"Ġthroughout":11182,"Sin":11183,"ois":11184,"Ġburst":11185,"Ġdining":11186,"ĠHER":11187,"Location":11188,"699":11189,"IFT":11190,"ĠBrains":11191,"Ġrefined":11192,"891":11193,"abelle":11194,"ardz":11195,"ĠBEHA":11196,"ĠENSURE":11197,"Ġluxuries":11198,":_:":11199,"domination":11200,"Ġstars":11201,"ĠKristina":11202,"Ġunlike":11203,"Stock":11204,"Ġpossessing":11205,"Overnights":11206,"ĠAdventurous":11207,"Ġtropical":11208,"Ġknowledge":11209,"ĠSADIE":11210,"ashion":11211,"ĠSensually":11212,"Ġspirit":11213,"specials":11214,"Breast":11215,"Ġenthralling":11216,"BUSTY":11217,"Freaky":11218,"Get":11219,"Ġtn":11220,"itud":11221,"anties":11222,"igg":11223,"Ġspot":11224,"Ġwanton":11225,"uxom":11226,".!":11227,"Ġpaid":11228,"ĠKrist":11229,"ĠPRF":11230,"ĠDolled":11231,"Ġdressing":11232,"Ġhobby":11233,"SL":11234,"Slim":11235,"Ġ07399":11236,"Ġshowering":11237,"Ġbasis":11238,"FIRST":11239,"hotsexy":11240,"Ġtout":11241,"Ġbull":11242,"ĠMASSAGES":11243,"Ġstations":11244,"ĠSTD":11245,"ĠScottish":11246,"Ġvalleys":11247,"osen":11248,"8439":11249,"Ġdollardz":11250,"81985":11251,"Ġ078581985":11252,"stopping":11253,"Ġconfidentiality":11254,"ja":11255,"**:":11256,"Ġnearest":11257,"Ġlived":11258,"Ġshaven":11259,"771":11260,"674":11261,"ĠPlatinum":11262,"bes":11263,"bomb":11264,"ĠLik":11265,"379":11266,"0811":11267,"formnc":11268,"Ġcustomer":11269,"Ġlingeries":11270,"Ġenergized":11271,"Domination":11272,"iant":11273,"Ġmission":11274,"ĠRosa":11275,"lisa":11276,"ĠClose":11277,"Ġodd":11278,"ĠLanguage":11279,"203":11280,"ĠShayla":11281,"ĠDONATIONS":11282,"CAUSE":11283,"ĠIndonesian":11284,"ĠTEMPT":11285,"ĠInviting":11286,"2883":11287,"hill":11288,"ynam":11289,"ĠMF":11290,"ĠVar":11291,"olly":11292,"ĠDressed":11293,"shaved":11294,"Ġdiscounts":11295,"ĠAmina":11296,"ifts":11297,"Ġ798":11298,"ĠExclusive":11299,"ĠWanting":11300,"ĠSubmissive":11301,"ĠFlawless":11302,"abled":11303,"Ġdazzlingly":11304,"Brampton":11305,"Cute":11306,"Iam":11307,"Ġsign":11308,"ĠPURE":11309,"genuine":11310,"ĠSPiCyy":11311,"Fri":11312,"great":11313,"000":11314,"cks":11315,"vip":11316,"ĠOUTGOING":11317,"Ġ)(":11318,"ĠSHY":11319,"Ġregularly":11320,"Ġdistract":11321,"Luscious":11322,"arentee":11323,"MARK":11324,"Ġbigger":11325,"ounge":11326,"Fuss":11327,"Ti":11328,"onible":11329,"iscent":11330,"Ġhighway":11331,"Ġintox":11332,"ĠLINGERIES":11333,"ĠMongolian":11334,"coin":11335,"og":11336,"Ġlascivious":11337,"6740":11338,"Ġarouses":11339,"ĠKatrina":11340,"ĠNatasha":11341,"Ġpassable":11342,"Sam":11343,"cute":11344,"ĠBUB":11345,"ĠMIA":11346,"blem":11347,"344":11348,"ĠEXPECT":11349,"6612":11350,"Ġ08":11351,"partment":11352,"Ġaka":11353,"omach":11354,"ERN":11355,"ival":11356,"reviews":11357,"Ġvigorous":11358,"Ġparticular":11359,"ĠVICTORIA":11360,"App":11361,"Ġ333":11362,"ancais":11363,"Ġsat":11364,"Ġbel":11365,"Ġlegit":11366,"3268":11367,"ubr":11368,"lied":11369,"Ġkindly":11370,"Ġfemininity":11371,"busty":11372,"ĠServe":11373,"Ġ359":11374,"4866":11375,"ĠCARE":11376,"WELL":11377,"Fresh":11378,"Need":11379,"service":11380,"aya":11381,"99317":11382,"ĠKisser":11383,"9197":11384,"ĠLOTS":11385,"Ġaffordable":11386,"ser":11387,"Ġsexiness":11388,"BT":11389,"ĠDist":11390,"Ġ:-":11391,"477":11392,"Ġchosen":11393,"573":11394,"companion":11395,"Ġsneak":11396,"Ġfri":11397,"ĠMuch":11398,"Ġ-:":11399,"shooting":11400,"261":11401,"Ġopenly":11402,"Ġtemple":11403,"sparkler":11404,"hou":11405,"atrix":11406,"Ġfood":11407,"antity":11408,"itted":11409,"AKES":11410,"Ġmissed":11411,"Ġ------":11412,"ĠDISCOUNT":11413,"Ġmorals":11414,"Ġintensifying":11415,"Ġlocations":11416,"plus":11417,"ĠAges":11418,"Hours":11419,"Ġentrancing":11420,"Ġbasement":11421,"onnect":11422,"507":11423,"ibidinous":11424,"753":11425,"Ġcapturing":11426,"Ac":11427,"Ġposition":11428,"ĠWork":11429,"Ġrem":11430,"ulchr":11431,"Ġthin":11432,"indulg":11433,"ĠParadise":11434,"Att":11435,"seek":11436,"ELPH":11437,"Ġintending":11438,"ĠMYA":11439,"ĠBECAUSE":11440,"Ġattractiveness":11441,"Ġfaces":11442,"Ġactive":11443,"Ġrepair":11444,"ĠAUTHENTIC":11445,"igate":11446,"256":11447,"232":11448,"Ġdisplaying":11449,"insome":11450,"ĠCONDO":11451,"ĠOL":11452,"Ġeman":11453,"ameless":11454,"ĠUntil":11455,"Ġadorable":11456,"Ġsuggesting":11457,"cupiscent":11458,"Ġdisting":11459,"^^^":11460,"Mouth":11461,"fant":11462,"ĠGabri":11463,"Ġ529":11464,"echer":11465,"ewitching":11466,"Ġspecialize":11467,"442":11468,"ĠPickering":11469,"Ġexcessively":11470,"Ġanimated":11471,"seeker":11472,"713":11473,"WARD":11474,"upend":11475,"ĠPAID":11476,"ĠLena":11477,"474":11478,"Ġrisqu":11479,"Ġovert":11480,"erized":11481,"iquant":11482,"ĠAccurate":11483,"Ġexhibiting":11484,"edonistic":11485,"Ġemanating":11486,"upendous":11487,"ULAR":11488,"hither":11489,"Ġtex":11490,"Ġstately":11491,"ĠIncred":11492,"Ġshoot":11493,"Ġasserts":11494,"ĠManchester":11495,"Ġrestrains":11496,"Ġregrets":11497,"oluptuary":11498,"ĠJuno":11499,"Ġtemptingly":11500,"Ġappealingly":11501,"Ġfootballer":11502,"urient":11503,"fligate":11504,"baritic":11505,"question":11506,"Ġdepicting":11507,"osomy":11508,"Ġcatlike":11509,"ĠGentelmens":11510,"Ġlicentious":11511,"oesque":11512,"Ġcharacterized":11513,"Ġstylishly":11514,"uliar":11515,"possessing":11516,"Ġpeculiar":11517,"Ġfancily":11518,"itudinous":11519,"ubricious":11520,"ulchritudinous":11521,"indulgent":11522,"Ġrepairman":11523,"echerous":11524,"Ġts":11525,"Ġ~~~~~":11526,"fox":11527,"Ġclothes":11528,"ĠMongolia":11529,"lett":11530,"ĠJane":11531,"Ġley":11532,"Ġheads":11533,"ĠShows":11534,"Ġclair":11535,"ĠDIFFER":11536,"DONT":11537,"ulation":11538,"resent":11539,"SEXIE":11540,"Ġanxious":11541,"Ġsilk":11542,"imal":11543,"ĠSPEICAL":11544,"!,":11545,"ĠAV":11546,"ĠOlympia":11547,"ĠWATER":11548,"111":11549,"443":11550,"Ġtat":11551,"Ġshout":11552,"Ġwembley":11553,"inidadian":11554,"MINE":11555,"ushroom":11556,"OOSE":11557,"ĠAns":11558,"Ġtone":11559,"Ġsummer":11560,"Ġ916":11561,"ancial":11562,"ĠProblem":11563,"Ġsensations":11564,"Ed":11565,"mushroom":11566,"Ġtable":11567,"292":11568,"ĠCARAMEL":11569,"AC":11570,"Doll":11571,"ITION":11572,"663":11573,"ĠSpunky":11574,"ĠTRANS":11575,"Ġfairly":11576,"Ġattendants":11577,"ĠBUBBLE":11578,"Ġcards":11579,"Ġamazingly":11580,"STR":11581,"Ġseductiveness":11582,"Ġbeginning":11583,"ĠiNdE":11584,"Ġvers":11585,"Ġhounslow":11586,"imi":11587,"ĠEXCL":11588,"ILISH":11589,"ĠSUB":11590,"Discrete":11591,"ITUDE":11592,"reening":11593,"Ġfucked":11594,"Ġ_______":11595,"GLISH":11596,"Oakville":11597,"Ġbang":11598,"heels":11599,"Ġlookin":11600,"ĠItaly":11601,"ĠEnchanting":11602,"Ġqualified":11603,"ĠTINY":11604,"idences":11605,"Ġphysically":11606,"Ġpusssy":11607,"Qu":11608,"ĠHindi":11609,"Ġtowel":11610,"ĠMessages":11611,"ĠWelcomed":11612,"6612263":11613,"Ġleyton":11614,"ĠSpank":11615,"4077":11616,"Ġ993":11617,"Ġtest":11618,"ĠHad":11619,"Giving":11620,"NURU":11621,"couple":11622,"nrous":11623,"inting":11624,"Ġmedium":11625,"icating":11626,"ĠMak":11627,"ĠDangerously":11628,"ĠTHAN":11629,"idz":11630,"9931736":11631,"414":11632,"UC":11633,"Voluptuous":11634,"Ġpict":11635,"College":11636,"ĠEVENTS":11637,"569":11638,"Name":11639,"NATURAL":11640,"date":11641,"ĠInterests":11642,"368":11643,"ĠUpsc":11644,"ĠACCOMM":11645,"houette":11646,"ĠACCOMMOD":11647,"ĠCUB":11648,"ĠMSOG":11649,"ĠDun":11650,"Ġdollars":11651,"ĠFaith":11652,"koka":11653,"Ġpiercing":11654,"ĠPAY":11655,"ĠRoxy":11656,"iza":11657,"Ġprofessionally":11658,"tedly":11659,"hotsexyk":11660,"Ġgrip":11661,"ĠMS":11662,"Ġguide":11663,"AMAZ":11664,"arah":11665,"Ġmemory":11666,"ĠLewd":11667,"PICS":11668,"ĠATH":11669,"ĠRECENTLY":11670,"curves":11671,"Ġthirst":11672,"ARENT":11673,"898":11674,"ĠSPECIALIST":11675,"sorry":11676,"acu":11677,"ilding":11678,"Female":11679,"561":11680,"sive":11681,"assles":11682,"Ġ695":11683,"ELES":11684,"LETIC":11685,"adel":11686,"ĠLibertine":11687,"ĠWeekend":11688,".))":11689,":+":11690,"dance":11691,"Ġtried":11692,"asmin":11693,"Ġreek":11694,"ĠKENNEDY":11695,"udia":11696,"clinking":11697,"Stop":11698,"OUNDS":11699,"Email":11700,"Niagara":11701,"ĠRachel":11702,"ĠWaste":11703,"PECTABLE":11704,"CRED":11705,"xi":11706,"allery":11707,"874":11708,"Ġgreatest":11709,"Ġfeels":11710,"squinting":11711,"naughty":11712,"Ġgentlemens":11713,"Ġconversational":11714,"[]":11715,"ture":11716,"ĠStri":11717,"ĠFORGET":11718,"MEANING":11719,"680":11720,"Ir":11721,"ĠLES":11722,"ĠKI":11723,"ĠApple":11724,"ĠBecause":11725,"Ġpackages":11726,"ĠPREMIUM":11727,"Ġblowing":11728,"Ġsurprised":11729,"Ġ;-);-)":11730,"ĠRARE":11731,"CING":11732,"Gi":11733,"PRO":11734,"wr":11735,"asturb":11736,"0816":11737,"AMAZING":11738,"ĠEurope":11739,"Ġarse":11740,"EEK":11741,"Fit":11742,"Ġturned":11743,"asonable":11744,"discretion":11745,"ĠDOMIN":11746,"Ġperformance":11747,"gain":11748,"itish":11749,"Ġballing":11750,"ĠXoXo":11751,"Ġ9751":11752,"%%":11753,"Ġhomes":11754,"Ġarrival":11755,"381":11756,"AKS":11757,"ĠCHARM":11758,"Ġimportantly":11759,"AIR":11760,"FILL":11761,"SP":11762,"jects":11763,"ĠDisease":11764,"spok":11765,"Outfits":11766,"juven":11767,"Ġarrangments":11768,"Ġkeeps":11769,"Paddington":11770,"Ġlean":11771,"ĠPm":11772,"asting":11773,"Ġrealize":11774,"Ġ94":11775,"annered":11776,"Ġorgasm":11777,"Make":11778,"858":11779,"Ġcheek":11780,"ffering":11781,"Sub":11782,"YOUR":11783,"anais":11784,"Ġquickie":11785,"................................":11786,"ĠATTITUDE":11787,"First":11788,"Ġess":11789,"Ġstone":11790,"ITIES":11791,"775":11792,"__$$$$":11793,"ĠStatistics":11794,"arden":11795,"ĠSWITCH":11796,"286":11797,"ĠAREAS":11798,"Ġhundred":11799,"ĠTiana":11800,"Ġnicely":11801,"ĠSEXIER":11802,"Ġtroubles":11803,"ĠPORNSTAR":11804,"Ġability":11805,"Ġland":11806,"Ġ~>":11807,"Ġ909":11808,"Ġfelt":11809,"]--":11810,"Ange":11811,"vp":11812,"Ġsaid":11813,"482":11814,"ĠCLICK":11815,"ĠPRFCT":11816,"530":11817,"uburn":11818,"ĠQew":11819,"ĠCOCO":11820,"ĠSexiest":11821,"balloon":11822,"aisy":11823,"SPEAKS":11824,"ND":11825,"Ġaw":11826,"ĠSiren":11827,"ĠGentlemens":11828,"Ġwht":11829,"Ġmasseur":11830,"Provid":11831,"mmmmmmmm":11832,"ĠParkway":11833,"102":11834,"Ġfitness":11835,"ĠRESPECTABLE":11836,"ĠDesires":11837,"ĠSUG":11838,"ĠAwesome":11839,"ĠBoring":11840,"eele":11841,"354":11842,"Ġnume":11843,"FRIENDLY":11844,"ĠWelcoming":11845,"Ġasiatique":11846,"nail":11847,"Ġsave":11848,"Ġspace":11849,"ĠProvocative":11850,"Ġteeth":11851,".-":11852,"ĠEXCLUSIVE":11853,"smoker":11854,"Ġcoast":11855,"ĠNote":11856,"ĠLikes":11857,"Ag":11858,"Ideally":11859,"ĠHawai":11860,"9920":11861,"Ġacquaint":11862,"$,":11863,"jour":11864,"Ġcury":11865,"ĠType":11866,"ĠHEL":11867,"ARIO":11868,"ĠCoquettish":11869,"ĠTALENTED":11870,"rine":11871,"hether":11872,"ĠDirect":11873,"ctions":11874,".............":11875,"ĠSeduct":11876,"ĠTRI":11877,"ĠASH":11878,"228":11879,"2995":11880,"Ġdistinguished":11881,"cel":11882,"mental":11883,"ĠUND":11884,"Ġcolour":11885,"xT":11886,"rella":11887,"econnect":11888,"Ġwildcat":11889,"PLAYFUL":11890,"mel":11891,"ĠUkrainian":11892,"Ġgirlfriends":11893,"8000":11894,"PROTECTED":11895,"eky":11896,"ĠAjax":11897,"thick":11898,"Ġ<:":11899,"bbbj":11900,"7399":11901,"clover":11902,"ĠDANI":11903,"ober":11904,"6526":11905,"Ġpushing":11906,"ynn":11907,"Ġ========":11908,"Ġlisa":11909,"7765":11910,"ĠATHLETIC":11911,"ĠTOLL":11912,"Ġ99":11913,"ĠSOMET":11914,"Ġ606":11915,"ĠTat":11916,"Ġ776":11917,"ĠWait":11918,"Ġwishing":11919,"Ġ07459931736":11920,"<><>":11921,"Ġtra":11922,"Ġ:-:":11923,"Ġassh":11924,"carat":11925,"Ġliked":11926,"MM":11927,"Ġoak":11928,"ĠLucious":11929,"Ġpun":11930,"Ġparts":11931,"ĠHAS":11932,"JUICY":11933,"760":11934,"ĠAurora":11935,"ĠBOY":11936,"ĠPampered":11937,"oting":11938,"Ġislington":11939,"ATFORD":11940,"Str":11941,"mmm":11942,"581":11943,"ĠHEAVEN":11944,"Ġlisten":11945,"ĠCOMPANY":11946,"ĠWorlds":11947,"Greek":11948,"ĠKh":11949,"White":11950,"Ġacccess":11951,"Ġtruth":11952,"Ġvip":11953,"Ġcondition":11954,"Ġhimself":11955,"ĠDanforth":11956,"MMF":11957,"crescent":11958,"unteed":11959,"255":11960,"375":11961,"Ġplumber":11962,"973":11963,"ENSIVE":11964,"Ġcolombian":11965,"Ġglance":11966,"UCASIAN":11967,"YES":11968,"uL":11969,"Ġtick":11970,"three":11971,"overed":11972,"Spanking":11973,"enever":11974,"ĠBbbj":11975,"log":11976,"ĠPhoto":11977,"ĠBackpage":11978,":>>":11979,"ĠRIM":11980,"ushing":11981,"............":11982,"brunette":11983,"NEGOT":11984,"experienced":11985,"vs":11986,"ĠStand":11987,"515":11988,"Hazel":11989,"cer":11990,"cake":11991,"-------":11992,"Ġtouches":11993,"Ġ691":11994,"Ġspeechless":11995,"Ġ896":11996,"ĠBlowjobHand":11997,"931":11998,"Ġbelong":11999,"Ġsmoker":12000,"Ġ**********************************":12001,"ĠAdv":12002,"rushd":12003,"ĠVideos":12004,"ĠAnswer":12005,"Ma":12006,"Ġ??????":12007,"elina":12008,"ĠAmple":12009,"ĠMelanie":12010,"irdrie":12011,"Ġsizes":12012,"llll":12013,"Ġble":12014,"ĠCons":12015,"Ġtherefore":12016,"Ġnipple":12017,"kes":12018,"Ġoo":12019,"ĠLive":12020,"Ġhealing":12021,"Ġ799":12022,"Ġsquee":12023,"ication":12024,"amazing":12025,"Ġradi":12026,"Ġgetaway":12027,"Ġsimilar":12028,"964":12029,"ĠRavishing":12030,"ENDED":12031,"Ġmoving":12032,"Ġfooled":12033,"ĠPamela":12034,"ĠdAdd":12035,"348":12036,"Ġgener":12037,"Ġinterestedin":12038,"Ġfitter":12039,"Indian":12040,"chedule":12041,"Ġdriving":12042,"ĠdAddie":12043,"CUL":12044,"Ġdoggy":12045,"ĠVenezuelan":12046,"Top":12047,"Ġfest":12048,"Ġbec":12049,"605":12050,"894":12051,"ĠSTOCKINGS":12052,"Easy":12053,"Ġdelights":12054,"aurant":12055,"Ġgre":12056,"aje":12057,"Ġsurroundings":12058,"Ġpeachy":12059,"Ġyeux":12060,"ĠFavours":12061,"acts":12062,"Ġpole":12063,"ĠTRULY":12064,"Show":12065,"ĠChesty":12066,"Ġsquirt":12067,"ĠBREASTS":12068,"Ġpal":12069,"Ġstro":12070,"372":12071,"berly":12072,"ĠCRAZY":12073,"Ġpowerful":12074,"Ġ07548333618":12075,"ĠEXACTLY":12076,"Ġ:::":12077,"Ġ541":12078,"169":12079,"Ġopened":12080,"ĠEASTERN":12081,"ĠJADE":12082,"2015":12083,"398":12084,"Ġ07548333619":12085,"But":12086,"ĠDaily":12087,"Ġcompat":12088,"ĠMOVES":12089,"Ġdevil":12090,"ĠMexican":12091,"ĠBrick":12092,"ĠNatalie":12093,"ĠStylish":12094,"Ġ64769":12095,"Ġfriendship":12096,"Ġoils":12097,"Ġrequirements":12098,"Ġpurp":12099,"ĠPriority":12100,"Ġspirited":12101,"Ġ662":12102,"Ġchubby":12103,"Ġ0759":12104,"281":12105,"ĠJazmine":12106,"SM":12107,"xed":12108,"Ġtrs":12109,"786":12110,"polish":12111,"Cuban":12112,"ĠID":12113,"ĠBum":12114,"361":12115,"ĠHolden":12116,"ĠACCOMMODATING":12117,"hood":12118,"Ġcost":12119,"vember":12120,"ĠHab":12121,"ĠDefin":12122,"ĠColombia":12123,"ĠFLIRTATIOUS":12124,"Sk":12125,"ĠAaliyah":12126,"ĠPRIORITY":12127,"Ġ185":12128,"ĠHo":12129,"urning":12130,"ilst":12131,"ĠUB":12132,"ELLE":12133,"quipped":12134,"Ġtemp":12135,"ĠBAIT":12136,"addies":12137,"office":12138,"ĠAlyssa":12139,"hips":12140,"Ġprepared":12141,"eliteconnect":12142,"Er":12143,"somes":12144,"ĠTL":12145,"Ġforbidden":12146,"ires":12147,"ussian":12148,"ĠCarol":12149,"brooke":12150,"ĠGIFT":12151,"Ġ0755":12152,"Ġagencies":12153,"ĠINCLUDED":12154,"ĠBREAT":12155,"Ġbasic":12156,"gnrous":12157,"Ġhyp":12158,"ĠPO":12159,"Tempting":12160,"Ġexplode":12161,"Ġcompatible":12162,"hol":12163,"lished":12164,"Ġgrove":12165,"umi":12166,"TIGHT":12167,"Ġtit":12168,"ĠIvy":12169,"ĠBrooke":12170,"Ġ1500":12171,"fall":12172,"rissy":12173,"ĠAGAIN":12174,"ĠPs":12175,"Ġ427":12176,"umbian":12177,"Ġ.*":12178,"BEAUTIFUL":12179,"5795":12180,"ta":12181,"Ġadvant":12182,"Ġbudget":12183,"ĠLIVE":12184,"Ġ*:":12185,"ĠHELL":12186,"Ġawaiting":12187,"ĠBREATH":12188,"eler":12189,"Ġra":12190,"Ġintri":12191,"Ġmodeling":12192,"Ġshapely":12193,"Ġblessed":12194,"alina":12195,"684":12196,"ĠHEAT":12197,"mercedes":12198,"ĠSTRATFORD":12199,"ĠNegotiable":12200,"Ġundoubtedly":12201,"writing":12202,"OICE":12203,"Ġ325":12204,"Ġjolie":12205,"364":12206,"Ġdreamy":12207,"Ġintroduction":12208,"ZZ":12209,"ĠGender":12210,"ETS":12211,"ĠTHURS":12212,"RIPT":12213,"Ġimport":12214,"ĠEngaging":12215,"ĠKOREA":12216,"Ġunforgetable":12217,"ĠSUGAR":12218,"yed":12219,"ĠWorth":12220,"ĠUnmatched":12221,"SPECIALS":12222,"IKA":12223,"ĠROS":12224,"ilet":12225,"ĠExactly":12226,"Ġimages":12227,"ĠAdri":12228,"ĠRoomie":12229,"Asure":12230,"Ġedge":12231,"ĠpleAsure":12232,"LINESS":12233,"dot":12234,"ĠTaxi":12235,"ĠHell":12236,"ĠFaces":12237,"ĠJoanna":12238,"Walkers":12239,"Li":12240,"ĠWinning":12241,"Ġkar":12242,"lope":12243,"Meet":12244,"ĠPROVIDED":12245,"ĠNDG":12246,"Ġnails":12247,"entlement":12248,"Ġhourly":12249,"Hii":12250,"ĠCarnal":12251,"Ġcoffee":12252,"Ġultra":12253,"Beauty":12254,"gesturing":12255,"reg":12256,"ĠCount":12257,"ĠTitillating":12258,"ASHA":12259,"2618":12260,"ĠMinding":12261,"Transfer":12262,"ĠFOOT":12263,"ĠHONEY":12264,"ĠShy":12265,"ĠOctober":12266,"ĠDEVILISH":12267,"Ġslippery":12268,"ĠLusty":12269,"othe":12270,"unn":12271,"though":12272,"Ġexperim":12273,"Thank":12274,"ĠBuxom":12275,"Ġformer":12276,"irth":12277,"comet":12278,"363":12279,"ĠPromiscuous":12280,"Ġgentel":12281,"ĠBoss":12282,"ĠRaunchy":12283,"Ġpoitrine":12284,"ĠOrientation":12285,"Ġimportance":12286,"+,":12287,"Dundas":12288,"idy":12289,"ĠCoy":12290,"Ġnone":12291,"ĠFIL":12292,"PENdENt":12293,"981":12294,"Ġcandle":12295,"ultiply":12296,"building":12297,"ĠCrom":12298,"Ġnirvana":12299,"ĠRandy":12300,"UND":12301,"cohol":12302,"Ġallowing":12303,"ĠCromwell":12304,"ĠStacked":12305,"Ġjessica":12306,"VEL":12307,"ĠCherry":12308,"brace":12309,"ĠEspanol":12310,"ĠDIFFERENT":12311,"YA":12312,"ĠSaucy":12313,"ĠTAI":12314,"ĠFascinating":12315,"ĠRadiant":12316,"Ġrecept":12317,"ĠGUELPH":12318,"ĠArousing":12319,"Ġgroup":12320,"Ġtailored":12321,"zt":12322,"ĠAphrodisiac":12323,"ĠRacy":12324,"Ġ434":12325,"Ġkill":12326,"shine":12327,"achine":12328,"972":12329,"Ġrepresent":12330,"ĠEXCEED":12331,"Ġvacation":12332,"ĠCUT":12333,"velope":12334,"Ġpearls":12335,"CAN":12336,"Ġsam":12337,"ĠSalacious":12338,"ĠAmorous":12339,"Ġbreathtaking":12340,"ĠFruity":12341,"awn":12342,"maxim":12343,"ĠFAR":12344,"illia":12345,"ITISH":12346,"ĠShameless":12347,"ĠBrand":12348,"ĠAround":12349,"Ġmoor":12350,"ĠConversation":12351,"ĠGuyanese":12352,"ĠBewitching":12353,"Ġgurntd":12354,"ĠSAFETY":12355,"ĠCANADA":12356,"ĠSURPR":12357,"ĠEARLY":12358,"Ġcorpor":12359,"ĠSOMETHING":12360,"ĠHedonistic":12361,"ĠLascivious":12362,"scan":12363,"ATAL":12364,"ĠTHROAT":12365,"Ġdef":12366,"angel":12367,"ĠWatering":12368,"ĠWanton":12369,"ĠBeauteous":12370,"One":12371,"There":12372,"nut":12373,"Ġcaters":12374,"ĠBosomy":12375,"ĠTarty":12376,"ĠPiquant":12377,"ĠPulchritudinous":12378,"Ġoper":12379,"ĠFrivolous":12380,"ĠLibidinous":12381,"ĠLubricious":12382,"ĠLecherous":12383,"ĠRisqu":12384,"ĠRousing":12385,"ĠGamy":12386,"ĠWinsome":12387,"roll":12388,"ĠVoluptuary":12389,"ĠStupendous":12390,"ĠMegan":12391,"ĠAmative":12392,"ĠAmatory":12393,"ĠProfligate":12394,"ĠSexed":12395,"ĠPrurient":12396,"ĠJunoesque":12397,"ĠPrepossessing":12398,"ĠDreamboat":12399,"ĠSybaritic":12400,"ĠConcupiscent":12401,"ĠSlinky":12402,"ĠSinuous":12403,"ĠLicentious":12404,"ĠFeline":12405,"ĠFetching":12406,"ĠBrazen":12407,"ĠSuggestive":12408,"palm":12409,"Ġtie":12410,"ĠOk":12411,"Ġconvers":12412,"ĠIMPORTANT":12413,"Ġasshole":12414,"ĠTy":12415,"ĠFAKES":12416,"Ġattracted":12417,"Stunning":12418,"$-":12419,"Two":12420,"ĠTooth":12421,"ĠAndrea":12422,"ĠLOL":12423,"ĠCHOOSE":12424,"ĠCOUPLE":12425,"ĠSALE":12426,"ĠVoice":12427,"Ġ96":12428,"Ġhampstead":12429,"Ġfinchley":12430,"FIN":12431,"Ġwin":12432,"entina":12433,"being":12434,"ĠSUCK":12435,"ĠSelect":12436,"personality":12437,"ĠCondos":12438,"NEVER":12439,"Ġtottenham":12440,"Markham":12441,"ooling":12442,"ARNING":12443,"ĠInclude":12444,"Xx":12445,"Ġwhom":12446,"ASMINE":12447,"665":12448,"Ġetobicoke":12449,"Mon":12450,"Ne":12451,"Ġbattersea":12452,"eriod":12453,"4843":12454,"ĠCLEANLINESS":12455,"Ġpouty":12456,"Ġtooting":12457,"urity":12458,"Ġstamford":12459,"Ġplaistow":12460,"ĠTerb":12461,"Anyone":12462,"rates":12463,"Ġwatford":12464,"Ġwimbledon":12465,"ĠSora":12466,"Ġstomach":12467,"ĠLondonB":12468,"APY":12469,"Ġsecure":12470,"ĠTLC":12471,"ĠSav":12472,"ULGE":12473,"Ġwhitechapel":12474,"Ġkenton":12475,"Ġguyes":12476,"ubbly":12477,"odes":12478,"427":12479,"ĠMONT":12480,"Ġdead":12481,"ĠApps":12482,"CHELOR":12483,"767":12484,"ĠCookie":12485,"ĠPOST":12486,"ĠGot":12487,"353":12488,"jac":12489,"ĠRushing":12490,"astern":12491,"0314":12492,"Ġadvantage":12493,"ĠPLE":12494,"ATM":12495,"3389":12496,"6353":12497,"Ġgym":12498,"rimming":12499,"ĠLondonH":12500,"7827":12501,"ATURDAY":12502,"Ġwestminster":12503,"ĠMil":12504,"ĠNovember":12505,"Ġstaring":12506,"ĠKiki":12507,"ICITY":12508,"Ġblur":12509,"Ġdollar":12510,"Ġmotel":12511,"ĠLEE":12512,"Ġ0748":12513,"Ġdpla":12514,"Ġnicole":12515,"lace":12516,"ĠDINNER":12517,"Ġ370":12518,"Ġcleanliness":12519,"ĠBLOND":12520,"ĠAttend":12521,"Ġcheapest":12522,"ĠRECEIVING":12523,"ĠSofia":12524,"sexual":12525,"Ġ121":12526,"Ġ58777":12527,"ĠBRING":12528,"eliteconnections":12529,"Ġ4714":12530,"Jo":12531,"WAN":12532,"rv":12533,"want":12534,"ĠETH":12535,"Ġrejuven":12536,"oof":12537,"5966":12538,"istered":12539,"Ġbeautifully":12540,"Baby":12541,"Ys":12542,"asweet":12543,"ĠBob":12544,"Ġgross":12545,"Ġgentlemans":12546,"Je":12547,"ĠVip":12548,"Ġjaw":12549,"Ġ849":12550,"ĠEnj":12551,"Ġmales":12552,"Fantastic":12553,"petite":12554,"ĠFulfilling":12555,"Ġsixty":12556,"Sun":12557,"..'":12558,"ĠPix":12559,"Ġ6629":12560,"ENTE":12561,"Ġpossess":12562,"Ġchem":12563,"TS":12564,"lift":12565,"ĠPUM":12566,"643":12567,"ĠWorries":12568,"ĠNatalia":12569,"812":12570,"stances":12571,"Ġwhats":12572,"Ġblacks":12573,"296":12574,"ĠDDs":12575,"TEL":12576,"card":12577,"outs":12578,"ĠMusic":12579,"Ġthinking":12580,"ĠInfinity":12581,"ATELY":12582,"ĠFinancial":12583,"ĠETHN":12584,"732":12585,"size":12586,"edd":12587,"ĠBliss":12588,"ĠENGLISH":12589,"@@@@":12590,"ACY":12591,"estiny":12592,"ĠBLOCKed":12593,"ĠFinest":12594,"cycl":12595,"ĠAROUSE":12596,"ĠPeR":12597,"nicole":12598,"ĠMsg":12599,"Ġ822":12600,"Ġmasseuses":12601,"9178":12602,"IET":12603,"ih":12604,"ĠMORN":12605,"Ġ1200":12606,"Ġ702":12607,"believable":12608,"cia":12609,"indfold":12610,"ĠANYONE":12611,"ĠFEAST":12612,"Ġradiates":12613,"Ġmummy":12614,"ĠInn":12615,"ĠPROVO":12616,"ĠFULFILL":12617,"Sinfully":12618,"MATURE":12619,"Ġsets":12620,"LLS":12621,"Ġdesirable":12622,"ĠDeals":12623,"Ġwitn":12624,"ĠMemories":12625,"gress":12626,"ĠSCH":12627,"Ġinstantly":12628,"ĠInch":12629,"Ġdose":12630,"Ġlewisham":12631,"ulent":12632,"ĠNEEDS":12633,"convenience":12634,"FRENCH":12635,"dsm":12636,"Ġcush":12637,"Ġ331":12638,"651":12639,"Ġexclusively":12640,"Carcall":12641,"Ġcraved":12642,"ĠTAIWAN":12643,"lies":12644,"ĠDrive":12645,"ĠDunlop":12646,"ĠBRI":12647,"ĠBears":12648,"SAPP":12649,"ĠDEMEANING":12650,"Ġphotogra":12651,"Ġbullsh":12652,"Ġfestival":12653,"!;)":12654,"OUBLE":12655,"armen":12656,"ffic":12657,"Ġ272":12658,"filled":12659,"ĠLonely":12660,"ĠBrenda":12661,"skull":12662,"uxe":12663,"alut":12664,"Ġgag":12665,"bi":12666,"atre":12667,"ĠRl":12668,"ĠGnrous":12669,"Ġ486":12670,"ĠDONATION":12671,"ĠWORTH":12672,"Ġestablish":12673,"ĠCiara":12674,"nn":12675,"Ġpds":12676,"ĠHUM":12677,"Ġ215":12678,"geine":12679,"INDY":12680,"177":12681,"Ġquit":12682,"ĠMuskoka":12683,"codes":12684,"Ġsought":12685,"Ġmas":12686,"Ġange":12687,"Ġneg":12688,"5054":12689,"ctual":12690,"Ġteach":12691,"ĠMaggie":12692,"HOURS":12693,"ĠWEEKEND":12694,"triangle":12695,"ĠCUTIE":12696,"ĠSATISFYING":12697,"ĠMakayla":12698,"Ġtechniques":12699,"ĠWANNA":12700,"logy":12701,"ipe":12702,"ĠBritney":12703,"Ġavaliable":12704,"ĠAPPEAR":12705,"Ġvibrant":12706,"Give":12707,"whel":12708,"urk":12709,"Ġbite":12710,"ĠBAY":12711,"Ġdou":12712,"ĠRATED":12713,"Ġboots":12714,"ĠETC":12715,"419":12716,"MUST":12717,"wj":12718,"Ġsisters":12719,"ĠSpe":12720,"Ġcrystal":12721,"ste":12722,"ESSA":12723,"257":12724,"$$$$$$":12725,"starsescorts":12726,"ĠALLOWED":12727,"////":12728,"ĠSpinner":12729,"ĠBUTT":12730,"Ġcorporate":12731,"volt":12732,"Ġsexting":12733,"Ġwc":12734,"aches":12735,"Ġtemptation":12736,"ĠRELAXATION":12737,"ĠSuzie":12738,"ĠFULLY":12739,"ĠAPPEARANCE":12740,"voltage":12741,"Covered":12742,"Pls":12743,"email":12744,"Ġtres":12745,"Ġhassles":12746,"Ġdiv":12747,"ĠDoing":12748,"ĠSomeone":12749,"546":12750,"dani":12751,"multiply":12752,"Ġclim":12753,"ĠNEXT":12754,"ĠWT":12755,"ANCY":12756,"ĠReality":12757,"ĠChloe":12758,"Ġperf":12759,"3869":12760,"LOVE":12761,"ĠVallejo":12762,"ister":12763,"109":12764,"ĠShoe":12765,"451":12766,"Ġfacility":12767,"scanada":12768,"Vi":12769,"ateg":12770,"609":12771,"ĠBACHELOR":12772,"ĠPERB":12773,"modelscanada":12774,"`'..'":12775,"Ġconversationalist":12776,"Ss":12777,"elicious":12778,"Ġ777":12779,"Ġdepend":12780,"ĠOrill":12781,"Limited":12782,"lights":12783,"celain":12784,"Ġhey":12785,"merizing":12786,"DRAMA":12787,"ued":12788,"ĠEach":12789,"anty":12790,"ĠiM":12791,"279":12792,"Ġclaim":12793,"Jen":12794,"deep":12795,"orary":12796,"Ġbuck":12797,"ali":12798,"8329":12799,"ĠKIMBER":12800,"istry":12801,"ĠSom":12802,"ĠSchedule":12803,"ENHAM":12804,"ordan":12805,"incl":12806,"ĠOT":12807,"Ġinner":12808,"Ġsole":12809,"Ġadvert":12810,"Ġ):":12811,"ĠMales":12812,"NESS":12813,"bum":12814,"never":12815,"rub":12816,"services":12817,"ĠCREME":12818,"8637":12819,"Heels":12820,"ĠFLAT":12821,"217":12822,"Ġppl":12823,"experience":12824,"ĠVOICE":12825,"459":12826,"skills":12827,"NEY":12828,"butterfly":12829,"Penis":12830,"Red":12831,"opped":12832,"ĠPole":12833,"ĠORI":12834,"Ġ332":12835,"Phone":12836,"cum":12837,"Ġ.:":12838,"?!?":12839,"ification":12840,"More":12841,"ĠLinda":12842,"Ġshoes":12843,"ĠWHATSAPP":12844,"Ġweekends":12845,"ĠChristmas":12846,"ĠOrillia":12847,"ĠSanta":12848,"Ġ3442":12849,"Ġllllll":12850,"Toned":12851,"ĠTEMPTING":12852,"veux":12853,"ĠVe":12854,"ĠPleasures":12855,"ĠDistrict":12856,"NN":12857,"Ġreve":12858,"Ġ390":12859,"Ġ;).":12860,"ĠYorkdale":12861,"Ġllllllload":12862,"vlie":12863,"Ġbrom":12864,"nds":12865,"Ġflow":12866,"Ġgem":12867,"ribut":12868,"ĠMINE":12869,"Guelph":12870,"340":12871,"Check":12872,"Es":12873,"Post":12874,"TIM":12875,"Ġcottage":12876,"alented":12877,"Ġnationality":12878,"evergreen":12879,"Ġmodels":12880,"Ġcirc":12881,"Ġreception":12882,"968":12883,"lf":12884,"really":12885,"ĠSPEND":12886,"ĠFort":12887,"Ġlives":12888,"Ġprivade":12889,"Donna":12890,"Ġhammersmith":12891,"ĠDISAPPOINTMENTS":12892,"Ġsnowballing":12893,"Our":12894,"Ġhers":12895,"Ġladbroke":12896,"ĠGod":12897,"La":12898,"ebony":12899,"fy":12900,"inds":12901,"ĠThan":12902,"121":12903,"ĠTempt":12904,"multiple":12905,"Ear":12906,"Ġ1587":12907,"ĠWilson":12908,"ghan":12909,"Ġourselves":12910,"Ġgreenwich":12911,"ĠPositions":12912,"maculate":12913,"ĠCANT":12914,"Ġjane":12915,"ĠEXTENSIVE":12916,"Ġdescribed":12917,"Who":12918,"Small":12919,"ĠASHLEY":12920,"ourse":12921,"472":12922,"Ġneigh":12923,"Ġ58740":12924,"Ġteam":12925,"CARCALLS":12926,"520":12927,"Lap":12928,"Ur":12929,"mount":12930,"ĠIce":12931,"5038":12932,"ĠChat":12933,"Ġfuller":12934,"ĠBEING":12935,"ĠGUY":12936,"ĠLOCATED":12937,"ĠKept":12938,"ĠMARKHAM":12939,"ĠWI":12940,"ults":12941,"1394":12942,"PPARD":12943,"Ġgroups":12944,"slide":12945,"ĠiNdEPENdENt":12946,"Avail":12947,"olet":12948,"077":12949,"1802":12950,"ĠSophie":12951,"Lady":12952,"Ġhom":12953,"smooth":12954,"462":12955,"ĠLeaving":12956,"Ġtasteful":12957,"Ġlasting":12958,"Ġespecial":12959,"!!.":12960,"Ġstoke":12961,"ĠKY":12962,"ĠREME":12963,"ĠMEL":12964,"ĠChair":12965,"Ġgently":12966,"British":12967,"Xoxo":12968,"ĠTASTE":12969,"reetings":12970,"ITES":12971,"349":12972,"176353":12973,"Ġnewington":12974,"lynn":12975,"Ġ07495176353":12976,"urkish":12977,"timer":12978,"Ġsac":12979,"Ġgur":12980,"BLACK":12981,"ĠCant":12982,"Ġ494":12983,"Ġtrades":12984,"ĠSlough":12985,"Brunette":12986,"ĠFAVOUR":12987,"fisher":12988,"hair":12989,"ĠAug":12990,"Carcalls":12991,"Ġcommitted":12992,"Ġquestion":12993,"ĠSexting":12994,"ĠYear":12995,"Ġwhilst":12996,"Ġvauxhall":12997,"136":12998,"ĠTROP":12999,"Ġfilipina":13000,"Ġpurpose":13001,"822":13002,"Ġsi":13003,"ribean":13004,"Ġperhaps":13005,"Ġbuilding":13006,"Ġpenny":13007,"Protected":13008,"irthday":13009,"Hair":13010,"ĠLover":13011,"ĠLOLA":13012,"ĠAddict":13013,"Dominican":13014,"Ġchemistry":13015,"Burlington":13016,"STA":13017,"ĠGUARENT":13018,"ĠTips":13019,"carfun":13020,"ĠEVENING":13021,"DOWNTOWN":13022,"Put":13023,"miz":13024,"Ġpract":13025,"osting":13026,"Ġfruit":13027,"ĠEXPLORE":13028,"966":13029,"ere":13030,"ĠMack":13031,"otte":13032,"Ġ330":13033,"Ġenquire":13034,"248":13035,"ibilities":13036,"672":13037,"Ġhillingdon":13038,"Ġbarnet":13039,"ĠBouncy":13040,"Ġcushion":13041,"ĠREMEMBER":13042,"Mi":13043,"six":13044,"ĠEuro":13045,"ĠGlass":13046,"Ġisnt":13047,"Ġshots":13048,"Ġplain":13049,"Ġcof":13050,"Thanks":13051,"ĠEUROPEAN":13052,"Ġpurple":13053,"ĠReasonable":13054,"Ġnoir":13055,"Ġweb":13056,"Ġconvenience":13057,"arunteed":13058,"ionate":13059,"Ġamb":13060,"ILI":13061,"itheld":13062,"Located":13063,"Ġ`":13064,"897":13065,"Ġ998":13066,"ĠAmaz":13067,"Extremely":13068,"Ġbp":13069,"Ġhar":13070,"Ġ925":13071,"456":13072,"ĠDDF":13073,"Ġstandard":13074,"ĠCertified":13075,"Ġintoxicating":13076,"ategory":13077,"639":13078,"980":13079,"word":13080,"Ġ6134":13081,"ARING":13082,"Ġapples":13083,"ĠUpon":13084,"ĠLUV":13085,"Ġ_____":13086,"closed":13087,"everyone":13088,"mizmercedes":13089,"UU":13090,"bell":13091,"contact":13092,"ĠNOTHING":13093,"angels":13094,"SKIN":13095,"Ġcherry":13096,"Ġwavy":13097,"ĠTiMe":13098,"Ġpulled":13099,"gentlemen":13100,"ĠDaisy":13101,"striptease":13102,"Ġsports":13103,"YSTAL":13104,"Experienced":13105,"VISITING":13106,"Ġstonebridge":13107,"Ġfiery":13108,"iti":13109,"ĠEAT":13110,"ĠRECOMM":13111,"VED":13112,"ewel":13113,"riela":13114,"Ġflav":13115,"ĠDISCRIM":13116,"ĠDixie":13117,"Ġpetit":13118,"Ġholiday":13119,"!..":13120,"Ġwines":13121,"Ġfashion":13122,"icki":13123,"Ġ201":13124,"atted":13125,"ĠCoast":13126,"ĠPERFORM":13127,"ĠLegit":13128,"GBP":13129,"Ġplayed":13130,"cyclone":13131,"PRIORITY":13132,"ĠChantel":13133,"453":13134,"ĠSQUIR":13135,"actor":13136,"ASON":13137,"ASTA":13138,"Ġengaging":13139,"Ġachieve":13140,"yl":13141,"rience":13142,"Ġthereesomes":13143,"ĠSpicy":13144,"When":13145,"Ġdemeanor":13146,"!**":13147,"Absolutely":13148,"bin":13149,"waving":13150,"errie":13151,"ĠWww":13152,"Ġstarts":13153,"teous":13154,"ĠCALLING":13155,"USTOM":13156,"Ġgrabbed":13157,"ĠUnwind":13158,"LETS":13159,"{}{}{}{}":13160,"ckenzie":13161,"tember":13162,"Ġspecialise":13163,"Ġ075347":13164,"Ġdztyle":13165,"ĠDisabled":13166,"Ġdzekhy":13167,"adzdzage":13168,"Man":13169,"ĠDRI":13170,"ĠXox":13171,"ĠLawrence":13172,"Elegant":13173,"Tot":13174,"request":13175,"Ġresidences":13176,"959":13177,"while":13178,"ĠSuite":13179,"ABLY":13180,"Ġvoyage":13181,"ĠDaniella":13182,"830":13183,"KISS":13184,"give":13185,"Ġ932":13186,"iammizmercedes":13187,"4390":13188,"PIC":13189,"ĠSPECIALTY":13190,"ĠCOF":13191,"ĠTREATMENT":13192,"Ġpalace":13193,"!~":13194,"lad":13195,"ĠFLA":13196,"ĠTROPICS":13197,"trophy":13198,"oral":13199,"ĠSapphire":13200,"Ġequipped":13201,"assie":13202,"ISTER":13203,"131":13204,"IFF":13205,"Ġdraw":13206,"Ġskinny":13207,"142":13208,"ĠClair":13209,"Ġfrancais":13210,"::::::::":13211,"York":13212,"ĠMiko":13213,"ĠIntimate":13214,"cupation":13215,"Ġcase":13216,"0036":13217,"ĠAna":13218,"ĠAvaible":13219,"UALLY":13220,"Ġ}":13221,"Ġbitch":13222,"Ġtowards":13223,"ĠTOTT":13224,"ĠCOMFOR":13225,"Ġlicking":13226,"ĠDior":13227,"ĠTOTTENHAM":13228,"CU":13229,"Fel":13230,"KS":13231,"gfe":13232,"Ġmajor":13233,"87190":13234,"ĠTHINGS":13235,"Ġbackpage":13236,"rief":13237,"8719042":13238,"Ġcal":13239,"ICI":13240,"DDs":13241,"Ġhumiliation":13242,"Ġ======":13243,"6383":13244,"Brazilian":13245,"ĠMimi":13246,"Ġarms":13247,"853":13248,"lible":13249,"Ġ+$":13250,"Ġquantity":13251,"Ġ'(":13252,"ĠCont":13253,"Ġral":13254,"Ġknowing":13255,"Ġsoftest":13256,"HUR":13257,"Ġkinks":13258,"ĠInCALL":13259,"quirt":13260,"Ġpermission":13261,"709":13262,"URED":13263,"TAWA":13264,"ĠFSNight":13265,"ĠSuc":13266,"ĠDelightful":13267,"Ġpicturs":13268,"ĠSedu":13269,"ĠSearch":13270,"Ġtoi":13271,"ĠPUN":13272,"ĠWHILE":13273,"Ġdresses":13274,"ĠFeet":13275,"ĠINDULGE":13276,"Ġ07508719042":13277,"ĠCUDD":13278,"ĠRECOMMENDED":13279,"Scarborough":13280,"Ġsation":13281,"Ġmilky":13282,"acular":13283,"Ġ302":13284,"ELD":13285,"ĠEnjoying":13286,"ĠRELAXED":13287,"Ġtips":13288,"Ġshall":13289,"Ġadditive":13290,"ĠClaudia":13291,"ĠAnyone":13292,"ĠMONTREAL":13293,"Five":13294,"SKY":13295,"arie":13296,"497":13297,"Ġminds":13298,"ĠAmazingly":13299,"ĠTrinidadian":13300,"Ġconversations":13301,"ĠRemember":13302,"ĠStacey":13303,"Ġjun":13304,"Ġunlimited":13305,"Ġfeed":13306,"ĠThings":13307,"ĠSTABLE":13308,"ĠDISRESPECTFUL":13309,"ĠDrinks":13310,"ĠCurve":13311,"Ġcommunication":13312,"ĠCOLOMBIA":13313,"ĠBit":13314,"Sheppard":13315,"580":13316,"ĠFo":13317,"ĠStatus":13318,"UNKNOWN":13319,"2116":13320,"Ġculture":13321,"ĠFAVOR":13322,"atie":13323,"ĠHALE":13324,"Ġ-----------------":13325,"adow":13326,"197":13327,"Ġ00447":13328,"LEXIBLE":13329,"467":13330,"POL":13331,"Ġtoilet":13332,"sunflower":13333,"ĠPERFORMANCE":13334,"FIT":13335,"HT":13336,"Ġwitheld":13337,"Ġviab":13338,"ĠTEX":13339,"Ġarm":13340,"Blond":13341,"Ġdiscriminate":13342,"ĠHawaiian":13343,"From":13344,"ĠEros":13345,"Ġhwy":13346,"ĠHOUSE":13347,"ĠThose":13348,"Ġ0777":13349,"ĠBEHAVI":13350,"max":13351,"ĠPiC":13352,"Ġ79":13353,"ĠDEP":13354,"Ġhypnot":13355,"*,":13356,"Ot":13357,"ĠBa":13358,"ĠMAD":13359,"ĠDropping":13360,"508":13361,"Ġ97":13362,"ĠCozy":13363,"Ġdolls":13364,"ĠAllowing":13365,"ĠKimberly":13366,"<<<<":13367,"oles":13368,"Ġlines":13369,"ĠTIP":13370,"ĠGirlAnyone":13371,"ĠDDDs":13372,"ĠAGEN":13373,"Ġvanilla":13374,"ados":13375,"ĠDiscret":13376,"ĠZo":13377,"ĠSURPRISE":13378,"slim":13379,"itions":13380,"ĠFOO":13381,"ĠGoogle":13382,"ĠJAMA":13383,"Ġenable":13384,"251":13385,"Ġ07435":13386,"Ġbarrie":13387,"platinummodelscanada":13388,"GOOD":13389,"Ic":13390,"ĠCRA":13391,"Ġkick":13392,"8798":13393,"ĠInde":13394,"duo":13395,"Scale":13396,"ĠHEATHR":13397,"eddington":13398,"Ġavenue":13399,"Ġ312":13400,"uela":13401,"Ġ******************":13402,"2434":13403,"Ġsuite":13404,"ĠOFFERING":13405,"ROLE":13406,"ĠEvEN":13407,"DIN":13408,"ĠCUSTOM":13409,"..!!!":13410,"Ġstun":13411,"pectacular":13412,"321":13413,"~~~~~~~~~~~~~~~~":13414,"Irish":13415,"418":13416,"II":13417,"Ġsir":13418,"ĠBOR":13419,"ĠHUR":13420,"ĠPho":13421,"Outgoing":13422,"Ġprompt":13423,"otection":13424,"ĠFront":13425,"7374":13426,"uable":13427,"Ġsoo":13428,"Ġsquir":13429,"ĠMiddle":13430,"ERO":13431,"Ġaren":13432,"ĠGuide":13433,"Ġ818":13434,"698":13435,"Ġclever":13436,"ĠFOOLED":13437,"tably":13438,"ALES":13439,"Ġ485":13440,"551":13441,"Ġ==>":13442,"NW":13443,"ator":13444,"ĠRem":13445,"ĠPlaying":13446,"Ġtightest":13447,"Ġcharism":13448,"close":13449,"gers":13450,"qy":13451,"ĠMina":13452,"Ġanyway":13453,"ĠColor":13454,"ĠMALAYS":13455,"ĠConsider":13456,"maximescorts":13457,"facing":13458,"Ġbbwcaramel":13459,"Ġscene":13460,"ĠHEATHROW":13461,"FERS":13462,"Tia":13463,"ĠBad":13464,"479":13465,"ATIONAL":13466,"ĠButterfly":13467,"ĠZero":13468,"Ġsociable":13469,"Ke":13470,"MAN":13471,"mannered":13472,"Ġalex":13473,"Ġment":13474,"ĠSOUTH":13475,"901":13476,"Ġcurrent":13477,"4376":13478,"ĠKISSES":13479,"Ġauqy":13480,"ĠSATURDAY":13481,"ĠLEX":13482,"ĠWoodstock":13483,"ĠComp":13484,"ĠResp":13485,"ĠSHOWERED":13486,"Ġemotional":13487,"ĠMORNING":13488,"616":13489,"688":13490,"Ġfool":13491,"Ġcities":13492,"Ġnationalities":13493,"Ġ647287":13494,"Ġshoulders":13495,"Ġstudents":13496,"Ġavailavlie":13497,"ĠEncounter":13498,"118":13499,"466":13500,"ĠSandra":13501,"ĠPIER":13502,"Ġexit":13503,"NOON":13504,"OXOX":13505,"Ġ6472870314":13506,"make":13507,"Ġ448":13508,"ĠSTRIPPERS":13509,"ĠHelp":13510,"863":13511,"ĠMASS":13512,"Ġeater":13513,"Ġalway":13514,"ailway":13515,"rictly":13516,"ĠSloppy":13517,"Ġtantalize":13518,"[[":13519,"ĠRude":13520,"ĠSEx":13521,"ĠEnter":13522,"aliana":13523,"ĠSkye":13524,"Ġsweat":13525,"Vietnam":13526,"Ġeverybody":13527,"Ġcheveux":13528,"Ġcontin":13529,"ĠTUESDAY":13530,"ĠSeptember":13531,"ladies":13532,"Tu":13533,"Ġbottle":13534,"ĠAle":13535,"alia":13536,"chool":13537,"Ġkenn":13538,"ĠLondonC":13539,"Ġchez":13540,":...!":13541,"835":13542,"Greetings":13543,"ĠPub":13544,"Ġpleasuring":13545,"Ġconside":13546,"Ġsetting":13547,"630":13548,"Ġreleas":13549,"Ġprotected":13550,"Ġconsidered":13551,"Jessica":13552,"MONT":13553,"Ġphat":13554,"Ġhamlets":13555,"Horny":13556,"Ġhackney":13557,"Ġ323":13558,"Ġ439":13559,"1647":13560,"shushing":13561,"ĠTHER":13562,"0558":13563,"entalmen":13564,"Ġexperiment":13565,"sual":13566,"ĠMisty":13567,"Ġcher":13568,"Ġmeets":13569,"iCe":13570,"ĠPromises":13571,"Ġwaterloo":13572,"ĠCOLLE":13573,"umbrella":13574,"ĠRoxana":13575,"837":13576,"Ġsort":13577,"ĠNights":13578,"ĠOwn":13579,"0040":13580,"ĠKira":13581,"astas":13582,"Ġenfield":13583,"ORY":13584,"Ġschedules":13585,"hore":13586,"za":13587,"rid":13588,"Ġwhenever":13589,"Ġtrade":13590,"ĠCLOCK":13591,"Ġholding":13592,"338":13593,"ingles":13594,"arling":13595,"ĠDutch":13596,"TeR":13597,"Last":13598,"ata":13599,"ĠMild":13600,"ural":13601,"458":13602,"Then":13603,"ĠCurrent":13604,"cr":13605,"Ġdynam":13606,"Ġinte":13607,"ĠDancer":13608,"Ġ(`":13609,"Ġrather":13610,"ĠShape":13611,"Ġ-------":13612,"Ġfufill":13613,"ĠGabriella":13614,"orated":13615,"Ġwrap":13616,"Ġhiring":13617,"ĠTINA":13618,"ĠPat":13619,"ĠHaving":13620,"ĠWants":13621,"Ġthames":13622,"Ġ493":13623,"135054":13624,"uition":13625,"Why":13626,"ĠStressed":13627,"583135054":13628,"ĠOLDER":13629,"ROUND":13630,"UBS":13631,"Ġmontreal":13632,"ĠKELLY":13633,"aution":13634,"Ġrated":13635,"ĠTRAVE":13636,"ĠEMMA":13637,"Bon":13638,"ĠBes":13639,"ĠBottom":13640,"ĠGame":13641,"Ġagainst":13642,"Ġblooded":13643,"jaculation":13644,"LOOK":13645,"TL":13646,"YRS":13647,"Ġsud":13648,"Ġcapture":13649,"Ġbargain":13650,"ĠRespectfully":13651,"ĠTiGHT":13652,"ĠScarlett":13653,"Hrs":13654,"Ro":13655,"CHE":13656,"Ġscream":13657,"ĠAda":13658,"ĠFlat":13659,"LES":13660,"Ġabs":13661,"Ġpaddington":13662,"Ġextended":13663,"Ġproof":13664,"PSE":13665,"ĠSherbrooke":13666,"Rimming":13667,"ĠSpecially":13668,"ĠBAS":13669,"ĠYO":13670,"ĠONLINE":13671,"ĠAMY":13672,"Ġcheeky":13673,"ĠJULIET":13674,"Ak":13675,"HERE":13676,"ĠWS":13677,"andom":13678,"ĠChant":13679,"ĠShan":13680,"790":13681,"worthy":13682,"Des":13683,"anff":13684,"ĠTasha":13685,"Ġbeat":13686,"Ġ______":13687,"Christin":13688,"gift":13689,"pleas":13690,"ĠBIR":13691,"Ġisland":13692,"BLEM":13693,"ĠSafely":13694,"Ġentice":13695,"Also":13696,"basic":13697,"ĠCINDY":13698,"Ġident":13699,"1438":13700,"ropri":13701,"Ġmesmerized":13702,"Ġfavors":13703,"Caucasian":13704,"Ġ850":13705,"Ġdufferin":13706,"ĠFINER":13707,"Ġjouets":13708,"Dates":13709,"Ġston":13710,"Ġcuban":13711,"ĠLL":13712,"oty":13713,"ĠTOES":13714,"Ġappart":13715,"ĠPubic":13716,"Pictures":13717,"TING":13718,"five":13719,"Ġsep":13720,"Ġmilk":13721,"Ġcaf":13722,"ĠBUST":13723,"ĠTONG":13724,"ĠKITTY":13725,"aranteed":13726,"ĠTRAD":13727,"ARANTEED":13728,"Ġcurvey":13729,"ĠNipp":13730,"ĠHES":13731,"ĠINCOM":13732,"ĠREASON":13733,"lightly":13734,"ĠMasse":13735,"Ġcharacter":13736,"SHA":13737,"ĠSandy":13738,"Ġdrain":13739,"ĠBeT":13740,"opy":13741,"rounding":13742,"bbwcaramel":13743,"asturbation":13744,"caster":13745,"Ġmarkham":13746,"Ġinf":13747,"agious":13748,"Ġ999":13749,"Ġ226988":13750,"THROAT":13751,"6189":13752,"zzi":13753,"Ġ~~~~":13754,"erriere":13755,"0558876":13756,"pand":13757,"pecials":13758,"Ġarch":13759,"ĠPhys":13760,"ĠSexsual":13761,"rista":13762,"Canary":13763,"Feel":13764,"ĠKhloe":13765,"762":13766,"IAM":13767,"cern":13768,"shortcake":13769,"ĠBell":13770,"backpage":13771,"Ġpushin":13772,"ĠEntrance":13773,"Ġthirsty":13774,"Ġdouce":13775,"ĠAGENCY":13776,"9208":13777,"atile":13778,"Ġprformnc":13779,"Ġ709":13780,"How":13781,"Ġtuition":13782,"ĠHit":13783,"thia":13784,"akeshore":13785,"SOE":13786,"Everything":13787,"ĠSinfully":13788,":/":13789,"SELF":13790,"[/":13791,"rostate":13792,"videos":13793,"WAy":13794,"ĠSNAP":13795,"3145":13796,"CLASS":13797,"Ġmens":13798,"ĠDaty":13799,"ubble":13800,"apointment":13801,"Ġ2015":13802,"Ġstreets":13803,"ĠMARIA":13804,"ĠJuliana":13805,"course":13806,"zero":13807,"ĠAW":13808,"Ġlose":13809,"Ġmanor":13810,"869":13811,"MED":13812,"reign":13813,"Ġthigh":13814,"Ġmoon":13815,"Ġmoan":13816,"Ġboyfriend":13817,"IgHT":13818,"relaxed":13819,"ĠCataliana":13820,"ĠLUXURY":13821,"ĠIncredibly":13822,"ĠRemedy":13823,"Cum":13824,"MULT":13825,"Ġhunny":13826,"Ġfranais":13827,"ĠDisrespect":13828,"IZING":13829,"iLA":13830,"Ġ782":13831,"sha":13832,"Ġ102":13833,"Ġwondering":13834,"Ġpostcodes":13835,"ĠSucking":13836,"677":13837,"aul":13838,"ĠGOLD":13839,"Ġextreme":13840,"Ġcontagious":13841,"Ġtastes":13842,"Ġbursting":13843,"Ġessential":13844,"DINARY":13845,"seductive":13846,"Ġdot":13847,"ĠFT":13848,"ALLE":13849,"269":13850,"Ġadress":13851,"652":13852,"ĠCHLOE":13853,"ĠBlondie":13854,"ĠSTAFF":13855,"Victoria":13856,"tanding":13857,"Ġtwitter":13858,"ĠBcup":13859,"ĠPOUNDS":13860,"adford":13861,"Ġpossibilities":13862,"Weight":13863,"ĠWhatsapp":13864,"Ġfuther":13865,"Ġwat":13866,"ĠCuba":13867,"Ġddd":13868,"ĠSweetness":13869,"Ġ506":13870,"FECTION":13871,"iagar":13872,"Ġtemporary":13873,"ĠTHURSDAY":13874,":((":13875,"Dr":13876,"mus":13877,"rard":13878,"Ġ243":13879,"Ġadded":13880,"ADy":13881,"Ġcompet":13882,"popping":13883,"ĠMEETING":13884,"720":13885,"Nights":13886,"Ġthro":13887,"chick":13888,"ĠKnown":13889,"akist":13890,"ĠANNA":13891,"overnight":13892,"ĠASSETS":13893,"ĠTherapists":13894,"discrete":13895,"ĠExciting":13896,"RENT":13897,"Ġmills":13898,"ĠFIG":13899,"ALI":13900,"Ġsweaty":13901,"EVERYTHING":13902,"Native":13903,"Ġpos":13904,"ĠPP":13905,"Ġimpro":13906,"ĠDollar":13907,"7899":13908,"Ġfantasized":13909,"234":13910,"?...":13911,"krista":13912,"ĠSacha":13913,"ailed":13914,"Ġsexx":13915,"ĠUnknown":13916,"Ġyoga":13917,"BEL":13918,"ĠTALL":13919,"ĠDIV":13920,"ĠStrive":13921,"ĠXxx":13922,"906":13923,"musical":13924,"849":13925,"Ġxt":13926,"ĠBomb":13927,"imistic":13928,"Ġkim":13929,"Ġtrail":13930,"uding":13931,"ided":13932,"Ġadds":13933,"ĠSlender":13934,"977":13935,"ution":13936,"0000":13937,"509":13938,"aughter":13939,"honeybee":13940,"ĠExceptions":13941,"ĠPayPal":13942,"ĠMotels":13943,"ĠCOURT":13944,"ourtesanescorts":13945,"XO":13946,"ĠILL":13947,"Ġdoub":13948,"ĠRough":13949,"ecess":13950,"ĠKendra":13951,"Ġplayground":13952,"104":13953,"Ġwaiste":13954,"146":13955,"Ġreserved":13956,"Ġ888":13957,"Ġ801":13958,"atting":13959,"ĠVISA":13960,"Ġ890":13961,"magical":13962,"Ġsqueeze":13963,"Ġidentity":13964,"DAN":13965,"ĠAf":13966,"ĠMac":13967,"ĠMTL":13968,"ĠLilly":13969,"Ġ*((":13970,"ockt":13971,"Ġsuites":13972,"ĠTRAVEL":13973,"329":13974,"ilett":13975,"Ġscam":13976,"Ġvalues":13977,"PAN":13978,"Specially":13979,"ĠIna":13980,"ĠIns":13981,"lobe":13982,"omanian":13983,"Ġsecrets":13984,"Ġherself":13985,"ĠBeTTeR":13986,"Hwy":13987,"Whether":13988,"Ġsays":13989,"Ġpanties":13990,"ĠCreek":13991,"ĠGinger":13992,"ĠAnn":13993,"ĠOTTAWA":13994,"ĠMackenzie":13995,"Wanna":13996,"Ġfet":13997,"ĠCOCK":13998,"ĠMed":13999,"onders":14000,"892":14001,"446":14002,"ĠPARAD":14003,"Ġrequested":14004,"GAE":14005,"ĠTONED":14006,"barrie":14007,"Ġphotoshopped":14008,"Cheap":14009,"Cambridge":14010,"bumps":14011,"ĠMASSGAE":14012,"ĠLaid":14013,"Ġreco":14014,"ĠInquire":14015,"Ġcommon":14016,"ĠJULY":14017,"Ġordinary":14018,"ĠAFFECTION":14019,"440":14020,"Booking":14021,"isure":14022,"ĠFat":14023,"Ġ210":14024,"ĠJordan":14025,"anges":14026,"ĠArrive":14027,"Thurs":14028,"oosebumps":14029,"ĠDADD":14030,"Ġ07572990314":14031,"lmen":14032,"ĠBait":14033,"ĠMami":14034,"Ġrailway":14035,"6969":14036,"ĠComm":14037,"pherds":14038,"4390188":14039,"CATIVE":14040,"nor":14041,"taxi":14042,"wine":14043,"ĠNUDE":14044,"7420":14045,"Ġbegins":14046,"5038887":14047,"Water":14048,"ande":14049,"Ġ340":14050,"Ġ9721":14051,"Ġtreats":14052,"Ġclassykrista":14053,"Ġsensation":14054,"ĠTherapeutic":14055,"irchmount":14056,"Ġapo":14057,"elite":14058,"Ġ103":14059,"Ġcircum":14060,"Ġ498":14061,"ONS":14062,"ĠCleanliness":14063,"ĠLIKELY":14064,",,,,,,,,":14065,"NEGOTIABLE":14066,"jj":14067,"nine":14068,"wrapped":14069,"Ġap":14070,"ĠCREAM":14071,"ĠMoore":14072,"Ġrely":14073,"extremely":14074,"ĠJudy":14075,"Ġenthusiasm":14076,"ĠUpscal":14077,"nality":14078,"Ġobs":14079,"feren":14080,"163":14081,"ĠBlacks":14082,"Ġprebook":14083,"anne":14084,"Ġembrace":14085,"ĠSimply":14086,";;":14087,"Mal":14088,"ios":14089,"esh":14090,"Ġrewards":14091,"Ġfullfill":14092,"838":14093,"Bb":14094,"ĠUBER":14095,"xxir":14096,"ASTER":14097,"AGES":14098,"PRETTY":14099,"ĠSTUDENT":14100,"ĠBitcoin":14101,"2471":14102,"ĠAud":14103,"Ġneat":14104,"854":14105,"Ġencour":14106,"UMBER":14107,"SoN":14108,"ĠBackP":14109,"peccably":14110,"BILE":14111,"Ġbay":14112,"Ġtheatre":14113,"141":14114,"OPLE":14115,"ĠPEOPLE":14116,"Providential":14117,"Na":14118,"LLW":14119,"Ġ712":14120,"143":14121,"ĠEnforcement":14122,"Ġvibes":14123,"theenter":14124,"prisegirls":14125,"ĠMALAYSIAN":14126,"theenterprisegirls":14127,"ĠTxT":14128,"Ġ433":14129,"ĠWithout":14130,"ĠWEBSITES":14131,"ĠHandjob":14132,"satisfaction":14133,"Ġvolume":14134,"Ġintrigu":14135,"ĠFORWARD":14136,"ĠENER":14137,":**:":14138,"Ġdisponible":14139,"Ġfilthy":14140,"ĠPosition":14141,"Ġ68":14142,"ĠKT":14143,"393":14144,"6816":14145,"ĠCARDS":14146,"?:":14147,"Gents":14148,"SYOU":14149,"lips":14150,"elights":14151,"Ġexact":14152,"Ġtrans":14153,"Ġbbb":14154,"Ġmagn":14155,"ĠRuby":14156,"holding":14157,"FH":14158,"Ġcs":14159,"ĠNIP":14160,"ĠTATTOOS":14161,"ĠRoll":14162,"ĠProtection":14163,")))":14164,"Ġsacs":14165,"Ġgentlement":14166,"Ġheavy":14167,"Ġweather":14168,"112":14169,"ĠAccommod":14170,"0916":14171,"drooling":14172,"ĠHELP":14173,"ĠINCOMPAR":14174,"Que":14175,"Ġinc":14176,"!!**":14177,"ĠRear":14178,"gettable":14179,"859":14180,"Ġ802":14181,"Ġ+++":14182,"Ġimagin":14183,"2061802":14184,"ĠBonnie":14185,"dm":14186,"mes":14187,"ĠAuthentic":14188,"ĠMilky":14189,"Ġpleasured":14190,"457":14191,"ĠProtected":14192,"Ġmoist":14193,"ĠWELCOM":14194,"Ġactual":14195,"nipe":14196,"ifting":14197,"ĠLondonW":14198,"8567":14199,"-------------":14200,"uggle":14201,"ĠTELL":14202,"doggy":14203,"RAY":14204,"Ġseri":14205,"ESSY":14206,"ĠSmell":14207,"Ġcharms":14208,"Ġsucked":14209,"ĠSurrounding":14210,"CATED":14211,"lu":14212,"tic":14213,"ĠSs":14214,"ĠVAL":14215,"Ġsoaked":14216,"Ġoptimistic":14217,"qual":14218,"ĠCell":14219,"Ġliter":14220,"spot":14221,"ILLS":14222,"ounty":14223,"aviar":14224,"ĠHowever":14225,"ĠFACETIME":14226,"ĠTONGUE":14227,"top":14228,"ĠAval":14229,"ĠMad":14230,"ĠLunch":14231,"ĠRace":14232,"ĠJOIN":14233,"ĠConfident":14234,"Vietnamese":14235,"Port":14236,"Ġgrow":14237,"illian":14238,"075":14239,"Ġ0786":14240,"ĠSPINNER":14241,"ĠPeRSoN":14242,"749":14243,"Mutual":14244,"Silky":14245,"tain":14246,"Ġreois":14247,"aila":14248,"READ":14249,"8998":14250,"Ġsexxy":14251,"664":14252,"Ġsecurity":14253,"Ġjeans":14254,"Ġtherapists":14255,"Ġdripping":14256,"SKYPE":14257,"some":14258,"Ġscent":14259,"Ġ()()":14260,"ĠAnton":14261,"ĠSTATION":14262,"6825":14263,"Ġoccasionally":14264,"Ġstriking":14265,"ĠCUSTOMER":14266,"Ever":14267,"Ilford":14268,"Ste":14269,"ĠLESS":14270,"Ġsever":14271,"Stap":14272,"Ġclub":14273,"715391":14274,"ĠKristie":14275,"ĠETHNICITY":14276,"#:":14277,"CAL":14278,"sassy":14279,"ĠSide":14280,"ĠSUM":14281,"Ġpale":14282,"ĠKR":14283,"RIL":14284,"ĠHighway":14285,"ĠEVERYDAY":14286,"Ġnegotiation":14287,"ĠCLOSE":14288,"WHITE":14289,"pls":14290,"Ġing":14291,"ĠWong":14292,"Ġ7161":14293,"ctional":14294,"ĠENQUIR":14295,"594":14296,"COB":14297,"GSANGELEYEZ":14298,"Ġemotion":14299,"Ġmuscles":14300,"Ġfoods":14301,"ASTAGSANGELEYEZ":14302,"nipeg":14303,"ĠFLEXIBLE":14304,"bsdm":14305,"ĠInter":14306,"ĠHezel":14307,"ĠArrange":14308,"ĠTalents":14309,"oriental":14310,"CREDIBLE":14311,"EASE":14312,"ĠSQU":14313,"ĠNone":14314,"ĠDee":14315,"ĠJE":14316,"Ġguarentee":14317,"Ġapple":14318,"Ġ457":14319,"Ġbringing":14320,"Chocolate":14321,"ĠNegotiating":14322,"Ġmaind":14323,"AIN":14324,"Ġtht":14325,"vies":14326,"Ġdeptford":14327,"ĠSOAK":14328,"ĠENC":14329,"ĠINTERACTIVE":14330,"MARKET":14331,"ĠCUBAN":14332,"care":14333,"ĠEmp":14334,"ĠLot":14335,"ampton":14336,"Ġrules":14337,"Ġchatting":14338,"3621":14339,"Ġsensul":14340,"ĠWiLL":14341,"cim":14342,"Ġcorner":14343,"ĠCapt":14344,"Ġ137":14345,"ĠPROBLEM":14346,"Ġ07496612263":14347,"Ġstudying":14348,"ĠVariety":14349,"acuzzi":14350,"25367":14351,"Ġinvol":14352,"Review":14353,"DATY":14354,"Ġ127":14355,"ĠArt":14356,"ĠAdditional":14357,"741":14358,"BARR":14359,"IFFANY":14360,"ĠFIGURE":14361,"?)":14362,"GY":14363,"Sugar":14364,"asita":14365,"ĠPRI":14366,"ĠGIR":14367,"Ġwhos":14368,"ĠEXC":14369,"Ġassist":14370,"ĠFeltham":14371,"615":14372,"bor":14373,"Ġmizz":14374,"Ġ$$$$":14375,"1644":14376,"Ġasked":14377,"ributes":14378,"Ġseveral":14379,".!!":14380,"828":14381,"ILY":14382,"horny":14383,"Ġbrazil":14384,"ĠSEXT":14385,"ĠNana":14386,"ĠMul":14387,"ghost":14388,"REY":14389,"2729":14390,"rettier":14391,"factor":14392,"super":14393,"reesome":14394,"ria":14395,"Ġneither":14396,"ĠFunny":14397,"293":14398,"Ġskillz":14399,"ĠBuilt":14400,"Bisexual":14401,"Ġbachelor":14402,"Ġpin":14403,"ĠTER":14404,"Ġ278":14405,"Ġsexuality":14406,"ĠQueensland":14407,"highly":14408,"ecessary":14409,"Ġ*((.":14410,"Finch":14411,"LONG":14412,"enix":14413,"Ġolive":14414,"Ġelect":14415,"ĠJack":14416,"xology":14417,"ĠCURRENT":14418,"ĠRedhead":14419,"Ġimagined":14420,"Ġoriented":14421,"oubliable":14422,"ĠPROVOCATIVE":14423,"ĠJAMAICAN":14424,")*":14425,"Ride":14426,"Ġfow":14427,"ĠAng":14428,"Ġdim":14429,"iforn":14430,"ĠUNIT":14431,"ĠLOOKS":14432,"ĠDecarie":14433,"MISSISSAUGA":14434,"Ġbondage":14435,"Ġ40340036":14436,"Ġ4034003655":14437,"SENS":14438,"relie":14439,"ĠAv":14440,"Ġ718":14441,"Ġupl":14442,"Ġwaitting":14443,"Ġvehicle":14444,"Ġ2269884376":14445,"yd":14446,"ĠEve":14447,"Ġskype":14448,"Ġwasted":14449,"Fullnight":14450,"ĠSilhouette":14451,"ĠPrivacy":14452,"ilettos":14453,"BARRRIE":14454,"Eyes":14455,"WITH":14456,"iai":14457,"ĠBang":14458,"ĠMaster":14459,"ĠRen":14460,"Ġcaller":14461,"yesc":14462,"renity":14463,"Ġcarfun":14464,"Ġevenings":14465,"RICTIONS":14466,"ĠHOTTEST":14467,"ĠTowels":14468,"Ġdan":14469,"Ġ832":14470,"ĠSwitch":14471,"4338":14472,"ĠMESMER":14473,"ĠSOPHIA":14474,"484350":14475,"ĠDISCRIMINATION":14476,"dates":14477,"dinner":14478,"Ġil":14479,"Ġtoffee":14480,"ĠFour":14481,"ĠReADy":14482,"Ġ724":14483,"Ġdetailed":14484,"Ġcomforting":14485,"Ġmasseurs":14486,".))*":14487,"ĠTRADES":14488,"Ġfoward":14489,"BUR":14490,"LIVE":14491,"ĠMall":14492,"1666":14493,"259":14494,"ĠLov":14495,"ĠBLK":14496,"6132":14497,"Ġ4617":14498,"SHIP":14499,"ATCHED":14500,"ĠElla":14501,"Ġcheerful":14502,"list":14503,"Ġtne":14504,"Ġinoubliable":14505,"urchase":14506,"WEL":14507,"vd":14508,"ĠEACH":14509,"Ġpleases":14510,"ATHER":14511,"Ġexped":14512,"Ġ6477":14513,"Ġ2019":14514,"ĠISLAND":14515,"ĠADDITION":14516,"ĠMonth":14517,"OYAL":14518,"Ġdecision":14519,"ĠHolly":14520,"Ġposting":14521,"3475":14522,"Ġraunchy":14523,"GENTS":14524,"Ver":14525,"ĠFood":14526,"Ġ207":14527,"Ġterri":14528,"itzrovia":14529,"roe":14530,"Ġ630":14531,"ĠKa":14532,"Ġ**********":14533,"798":14534,"Ġregards":14535,"Ġpoen":14536,"ĠVisits":14537,"ĠFritzrovia":14538,"Ġgurls":14539,"832":14540,"9484350":14541,"erving":14542,"EXTREME":14543,"101":14544,"ĠColumbian":14545,"ĠFEMALES":14546,"ĠCox":14547,"ĠSTAND":14548,"beaming":14549,"Ġgreeted":14550,"ĠSometimes":14551,"465":14552,"788":14553,"Col":14554,"MATCHED":14555,"TUN":14556,"ĠSq":14557,"ĠPSOE":14558,"ĠOh":14559,"Ġ1300":14560,"ĠGoosebumps":14561,"ĠDrop":14562,"ourtney":14563,"ĠCHECKER":14564,"ĠAFTERNOON":14565,"ĠFacesitting":14566,"best":14567,"Ġsq":14568,"ĠMc":14569,"ĠMont":14570,"------":14571,"ĠSocial":14572,"Ġlooked":14573,"amaica":14574,"Ġclen":14575,"ĠRESIDENCE":14576,"ĠSTEELES":14577,"ĠMSG":14578,"Ġexpedition":14579,"ĠCream":14580,"Ġhailey":14581,"ENCES":14582,"INO":14583,"essage":14584,"3636":14585,"ricia":14586,"ĠCaliforn":14587,"Rom":14588,"ĠCrazy":14589,"ĠAirdrie":14590,
[...]
